{
  "version": "1.0",
  "truncation": null,
  "padding": null,
  "added_tokens": [
    {
      "id": 0,
      "content": "<|pad|>",
      "single_word": false,
      "lstrip": false,
      "rstrip": false,
      "normalized": false,
      "special": true
    },
    {
      "id": 1,
      "content": "<|unk|>",
      "single_word": false,
      "lstrip": false,
      "rstrip": false,
      "normalized": false,
      "special": true
    },
    {
      "id": 2,
      "content": "<｜begin▁of▁sentence｜>",
      "single_word": false,
      "lstrip": false,
      "rstrip": false,
      "normalized": false,
      "special": true
    },
    {
      "id": 3,
      "content": "<｜end▁of▁sentence｜>",
      "single_word": false,
      "lstrip": false,
      "rstrip": false,
      "normalized": false,
      "special": true
    },
    {
      "id": 4,
      "content": "<｜User｜>",
      "single_word": false,
      "lstrip": false,
      "rstrip": false,
      "normalized": false,
      "special": true
    },
    {
      "id": 5,
      "content": "<｜Assistant｜>",
      "single_word": false,
      "lstrip": false,
      "rstrip": false,
      "normalized": false,
      "special": true
    },
    {
      "id": 6,
      "content": "<｜latest_reminder｜>",
      "single_word": false,
      "lstrip": false,
      "rstrip": false,
      "normalized": false,
      "special": true
    },
    {
      "id": 7,
      "content": "<think>",
      "single_word": false,
      "lstrip": false,
      "rstrip": false,
      "normalized": false,
      "special": true
    },
    {
      "id": 8,
      "content": "</think>",
      "single_word": false,
      "lstrip": false,
      "rstrip": false,
      "normalized": false,
      "special": true
    }
  ],
  "normalizer": {
    "type": "Sequence",
    "normalizers": []
  },
  "pre_tokenizer": {
    "type": "Sequence",
    "pretokenizers": [
      {
        "type": "Split",
        "pattern": {
          "String": "\\p{N}{1,3}"
        },
        "behavior": "Isolated",
        "invert": false
      },
      {
        "type": "Split",
        "pattern": {
          "String": "[\\u4e00-\\u9fa5\\u3040-\\u309f\\u30a0-\\u30ff]+"
        },
        "behavior": "Isolated",
        "invert": false
      },
      {
        "type": "Split",
        "pattern": {
          "String": "[!\\\"#$%&'()*+,\\-./:;<=>?@\\[\\]\\\\^_`{|}~][A-Za-z]+|[^\\r\\n\\p{L}\\p{P}\\p{S}]?[\\p{L}\\p{M}]+| ?[\\p{P}\\p{S}]+[\\r\\n]*|\\s*[\\r\\n]+|\\s+(?!\\S)|\\s+"
        },
        "behavior": "Isolated",
        "invert": false
      },
      {
        "type": "ByteLevel",
        "add_prefix_space": false,
        "trim_offsets": true,
        "use_regex": false
      }
    ]
  },
  "post_processor": {
    "type": "ByteLevel",
    "add_prefix_space": true,
    "trim_offsets": false,
    "use_regex": true
  },
  "decoder": {
    "type": "ByteLevel",
    "add_prefix_space": true,
    "trim_offsets": true,
    "use_regex": true
  },
  "model": {
    "type": "BPE",
    "dropout": null,
    "unk_token": "<|unk|>",
    "continuing_subword_prefix": null,
    "end_of_word_suffix": null,
    "fuse_unk": false,
    "byte_fallback": true,
    "ignore_merges": false,
    "vocab": {
      "<|pad|>": 0,
      "<|unk|>": 1,
      "<｜begin▁of▁sentence｜>": 2,
      "<｜end▁of▁sentence｜>": 3,
      "<｜User｜>": 4,
      "<｜Assistant｜>": 5,
      "<｜latest_reminder｜>": 6,
      "<think>": 7,
      "</think>": 8,
      "!": 9,
      "\"": 10,
      "#": 11,
      "$": 12,
      "%": 13,
      "&": 14,
      "'": 15,
      "(": 16,
      ")": 17,
      "*": 18,
      "+": 19,
      ",": 20,
      "-": 21,
      ".": 22,
      "/": 23,
      "0": 24,
      "1": 25,
      "2": 26,
      "3": 27,
      "4": 28,
      "5": 29,
      "6": 30,
      "7": 31,
      "8": 32,
      "9": 33,
      ":": 34,
      ";": 35,
      "<": 36,
      "=": 37,
      ">": 38,
      "?": 39,
      "@": 40,
      "A": 41,
      "B": 42,
      "C": 43,
      "D": 44,
      "E": 45,
      "F": 46,
      "G": 47,
      "H": 48,
      "I": 49,
      "J": 50,
      "K": 51,
      "L": 52,
      "M": 53,
      "N": 54,
      "O": 55,
      "P": 56,
      "Q": 57,
      "R": 58,
      "S": 59,
      "T": 60,
      "U": 61,
      "V": 62,
      "W": 63,
      "X": 64,
      "Y": 65,
      "Z": 66,
      "[": 67,
      "\\": 68,
      "]": 69,
      "^": 70,
      "_": 71,
      "`": 72,
      "a": 73,
      "b": 74,
      "c": 75,
      "d": 76,
      "e": 77,
      "f": 78,
      "g": 79,
      "h": 80,
      "i": 81,
      "j": 82,
      "k": 83,
      "l": 84,
      "m": 85,
      "n": 86,
      "o": 87,
      "p": 88,
      "q": 89,
      "r": 90,
      "s": 91,
      "t": 92,
      "u": 93,
      "v": 94,
      "w": 95,
      "x": 96,
      "y": 97,
      "z": 98,
      "{": 99,
      "|": 100,
      "}": 101,
      "~": 102,
      "¡": 103,
      "¢": 104,
      "£": 105,
      "¤": 106,
      "¥": 107,
      "¦": 108,
      "§": 109,
      "¨": 110,
      "©": 111,
      "ª": 112,
      "«": 113,
      "¬": 114,
      "®": 115,
      "¯": 116,
      "°": 117,
      "±": 118,
      "²": 119,
      "³": 120,
      "´": 121,
      "µ": 122,
      "¶": 123,
      "·": 124,
      "¸": 125,
      "¹": 126,
      "º": 127,
      "»": 128,
      "¼": 129,
      "½": 130,
      "¾": 131,
      "¿": 132,
      "À": 133,
      "Á": 134,
      "Â": 135,
      "Ã": 136,
      "Ä": 137,
      "Å": 138,
      "Æ": 139,
      "Ç": 140,
      "È": 141,
      "É": 142,
      "Ê": 143,
      "Ë": 144,
      "Ì": 145,
      "Í": 146,
      "Î": 147,
      "Ï": 148,
      "Ð": 149,
      "Ñ": 150,
      "Ò": 151,
      "Ó": 152,
      "Ô": 153,
      "Õ": 154,
      "Ö": 155,
      "×": 156,
      "Ø": 157,
      "Ù": 158,
      "Ú": 159,
      "Û": 160,
      "Ü": 161,
      "Ý": 162,
      "Þ": 163,
      "ß": 164,
      "à": 165,
      "á": 166,
      "â": 167,
      "ã": 168,
      "ä": 169,
      "å": 170,
      "æ": 171,
      "ç": 172,
      "è": 173,
      "é": 174,
      "ê": 175,
      "ë": 176,
      "ì": 177,
      "í": 178,
      "î": 179,
      "ï": 180,
      "ð": 181,
      "ñ": 182,
      "ò": 183,
      "ó": 184,
      "ô": 185,
      "õ": 186,
      "ö": 187,
      "÷": 188,
      "ø": 189,
      "ù": 190,
      "ú": 191,
      "û": 192,
      "ü": 193,
      "ý": 194,
      "þ": 195,
      "ÿ": 196,
      "Ā": 197,
      "ā": 198,
      "Ă": 199,
      "ă": 200,
      "Ą": 201,
      "ą": 202,
      "Ć": 203,
      "ć": 204,
      "Ĉ": 205,
      "ĉ": 206,
      "Ċ": 207,
      "ċ": 208,
      "Č": 209,
      "č": 210,
      "Ď": 211,
      "ď": 212,
      "Đ": 213,
      "đ": 214,
      "Ē": 215,
      "ē": 216,
      "Ĕ": 217,
      "ĕ": 218,
      "Ė": 219,
      "ė": 220,
      "Ę": 221,
      "ę": 222,
      "Ě": 223,
      "ě": 224,
      "Ĝ": 225,
      "ĝ": 226,
      "Ğ": 227,
      "ğ": 228,
      "Ġ": 229,
      "ġ": 230,
      "Ģ": 231,
      "ģ": 232,
      "Ĥ": 233,
      "ĥ": 234,
      "Ħ": 235,
      "ħ": 236,
      "Ĩ": 237,
      "ĩ": 238,
      "Ī": 239,
      "ī": 240,
      "Ĭ": 241,
      "ĭ": 242,
      "Į": 243,
      "į": 244,
      "İ": 245,
      "ı": 246,
      "Ĳ": 247,
      "ĳ": 248,
      "Ĵ": 249,
      "ĵ": 250,
      "Ķ": 251,
      "ķ": 252,
      "ĸ": 253,
      "Ĺ": 254,
      "ĺ": 255,
      "Ļ": 256,
      "ļ": 257,
      "Ľ": 258,
      "ľ": 259,
      "Ŀ": 260,
      "ŀ": 261,
      "Ł": 262,
      "ł": 263,
      "Ń": 264,
      "ĠĠ": 265,
      "eĠ": 266,
      "ä¸": 267,
      "ï¼": 268,
      "ĠĠĠĠ": 269,
      "th": 270,
      "sĠ": 271,
      "in": 272,
      "ãĢ": 273,
      "ï¼Į": 274,
      "er": 275,
      "dĠ": 276,
      "tĠ": 277,
      "an": 278,
      "on": 279,
      ",Ġ": 280,
      "äº": 281,
      "çļ": 282,
      "çļĦ": 283,
      "en": 284,
      "or": 285,
      "ãĢĤ": 286,
      "theĠ": 287,
      "ar": 288,
      "ti": 289,
      "al": 290,
      "re": 291,
      "ä»": 292,
      "yĠ": 293,
      "æľ": 294,
      "åı": 295,
      "åħ": 296,
      "oĠ": 297,
      "ĠĠĠĠĠĠĠĠ": 298,
      ".Ġ": 299,
      "fĠ": 300,
      "ĊĊ": 301,
      "ou": 302,
      "ä¹": 303,
      "å¤": 304,
      "âĢ": 305,
      "ing": 306,
      "st": 307,
      "edĠ": 308,
      "å®": 309,
      "aĠ": 310,
      "at": 311,
      "åĪ": 312,
      "ä½": 313,
      "è¿": 314,
      "ofĠ": 315,
      "æĺ": 316,
      "åĲ": 317,
      "andĠ": 318,
      "åľ": 319,
      "el": 320,
      "erĠ": 321,
      "ingĠ": 322,
      "es": 323,
      "toĠ": 324,
      "ro": 325,
      "ä¸Ģ": 326,
      "ch": 327,
      "æĪ": 328,
      "tion": 329,
      "çĶ": 330,
      "å°": 331,
      "inĠ": 332,
      "è¯": 333,
      "æĺ¯": 334,
      "åŃ": 335,
      "åį": 336,
      "le": 337,
      "it": 338,
      "æĹ": 339,
      "åĽ": 340,
      "ĊĠĠĠĠĠĠĠĠ": 341,
      "ä¸į": 342,
      "ç»": 343,
      "æĸ": 344,
      "ic": 345,
      "ãĢģ": 346,
      "isĠ": 347,
      "å¹": 348,
      "as": 349,
      "is": 350,
      "ac": 351,
      "åĬ": 352,
      "asĠ": 353,
      "il": 354,
      "om": 355,
      "æĿ": 356,
      "äºº": 357,
      "am": 358,
      "èĢ": 359,
      "orĠ": 360,
      "ä¼": 361,
      "æľī": 362,
      "å¾": 363,
      "äºĨ": 364,
      "esĠ": 365,
      "è®": 366,
      "æī": 367,
      "atĠ": 368,
      "åľ¨": 369,
      "ec": 370,
      "ol": 371,
      "ur": 372,
      ":Ġ": 373,
      "heĠ": 374,
      "å·": 375,
      "éĩ": 376,
      "alĠ": 377,
      "et": 378,
      "=Ġ": 379,
      "ĊĠĠĠĠ": 380,
      "onĠ": 381,
      "mĠ": 382,
      "anĠ": 383,
      "åĩ": 384,
      "å¥": 385,
      "å¼": 386,
      "ri": 387,
      "åĨ": 388,
      "ow": 389,
      "ä¹ĭ": 390,
      "åº": 391,
      "enĠ": 392,
      "si": 393,
      "å¸": 394,
      "ent": 395,
      "ad": 396,
      "æķ": 397,
      "un": 398,
      "æŃ": 399,
      "ä¸Ń": 400,
      "us": 401,
      "thĠ": 402,
      "de": 403,
      "ä¸º": 404,
      "è¡": 405,
      "å¯": 406,
      "è§": 407,
      "âĢľ": 408,
      "ation": 409,
      "âĢĿ": 410,
      "di": 411,
      "çĽ": 412,
      "ag": 413,
      "èĩ": 414,
      "æĢ": 415,
      "éĢ": 416,
      "nĠ": 417,
      "åĴ": 418,
      "å¿": 419,
      "li": 420,
      "em": 421,
      "20": 422,
      "ä»¥": 423,
      "å¤§": 424,
      "lĠ": 425,
      "åĮ": 426,
      "ç§": 427,
      "å¹´": 428,
      "ĥ½": 429,
      "wh": 430,
      "åİ": 431,
      "ab": 432,
      "ir": 433,
      ")Ġ": 434,
      "æ°": 435,
      "èµ": 436,
      "con": 437,
      "å±": 438,
      "ex": 439,
      "æĪĳ": 440,
      "gh": 441,
      "è¿Ļ": 442,
      "çİ": 443,
      "ed": 444,
      "åĴĮ": 445,
      "lo": 446,
      "éĹ": 447,
      "wi": 448,
      "å½": 449,
      "ul": 450,
      "ap": 451,
      "æĬ": 452,
      "æ³": 453,
      "çī": 454,
      "æł": 455,
      "æĶ": 456,
      "ä¸ª": 457,
      "æ²": 458,
      "forĠ": 459,
      "ä¸Ĭ": 460,
      "ä»ĸ": 461,
      "éĻ": 462,
      "è´": 463,
      "éģ": 464,
      "im": 465,
      "éĿ": 466,
      "19": 467,
      "kĠ": 468,
      "lyĠ": 469,
      "åĳ": 470,
      "se": 471,
      "op": 472,
      "veĠ": 473,
      "ãĢĢ": 474,
      "ver": 475,
      "TheĠ": 476,
      "wasĠ": 477,
      "tr": 478,
      "æĥ": 479,
      ".ĊĊ": 480,
      "ofĠtheĠ": 481,
      "thatĠ": 482,
      "åĽ½": 483,
      "qu": 484,
      "æŀ": 485,
      "çĶŁ": 486,
      "leĠ": 487,
      "çľ": 488,
      "chĠ": 489,
      "pro": 490,
      "æĿ¥": 491,
      "åŃ¦": 492,
      "ha": 493,
      "çº": 494,
      "--": 495,
      "ç¬": 496,
      "èĢĮ": 497,
      "æĹ¶": 498,
      "äºİ": 499,
      "ä¹Ł": 500,
      "è¦": 501,
      "å¦": 502,
      "ä¼ļ": 503,
      "åĩº": 504,
      "um": 505,
      "id": 506,
      "entĠ": 507,
      "æµ": 508,
      "ï¼ļ": 509,
      "åŃĲ": 510,
      "ä¿": 511,
      "withĠ": 512,
      "res": 513,
      "åĪ°": 514,
      "çĲ": 515,
      "åľ°": 516,
      "os": 517,
      "ç«": 518,
      "'sĠ": 519,
      "for": 520,
      "ãĢĤĊ": 521,
      "åı¯": 522,
      "com": 523,
      "s,Ġ": 524,
      "è¦ģ": 525,
      "èĩª": 526,
      "æĦ": 527,
      "oun": 528,
      "no": 529,
      "e,Ġ": 530,
      "ay": 531,
      "æĭ": 532,
      "sh": 533,
      "æİ": 534,
      "ter": 535,
      "è¾": 536,
      "ä½ľ": 537,
      "==": 538,
      "çĶ¨": 539,
      "èĥ½": 540,
      "åħ¶": 541,
      "pl": 542,
      "æ¯": 543,
      "åī": 544,
      "ĉĉ": 545,
      "æĽ": 546,
      "00": 547,
      "çŃ": 548,
      "ä¸ĭ": 549,
      "è¡Į": 550,
      "our": 551,
      "od": 552,
      "âĢĶ": 553,
      "çŁ": 554,
      "éĺ": 555,
      "fro": 556,
      "ut": 557,
      "åĵ": 558,
      "itĠ": 559,
      "ä½ł": 560,
      "ä¾": 561,
      "å°±": 562,
      "æĪĲ": 563,
      "str": 564,
      "the": 565,
      "çĿ": 566,
      "å¯¹": 567,
      "su": 568,
      "é¢": 569,
      "fromĠ": 570,
      "sel": 571,
      "ï¼ī": 572,
      "åĲİ": 573,
      "ï¼Ī": 574,
      "ereĠ": 575,
      "be": 576,
      "å¾Ĺ": 577,
      "åŁ": 578,
      "æĮ": 579,
      "æ³ķ": 580,
      "éĤ": 581,
      "æ±": 582,
      "åıĳ": 583,
      "por": 584,
      "hisĠ": 585,
      "and": 586,
      "\"Ġ": 587,
      "çĲĨ": 588,
      "å®¶": 589,
      "ç¬¬": 590,
      "è½": 591,
      "ĊĠĠĠĠĠĠĠĠĠĠĠĠ": 592,
      "è°": 593,
      "ot": 594,
      "èĢħ": 595,
      "ne": 596,
      "éģĵ": 597,
      "éĥ": 598,
      "æĸ¹": 599,
      "IĠ": 600,
      "çĦ": 601,
      "byĠ": 602,
      "è¯´": 603,
      "ceĠ": 604,
      "ä»¬": 605,
      "cl": 606,
      "æīĢ": 607,
      "äºĭ": 608,
      "Ġ=Ġ": 609,
      "ma": 610,
      "par": 611,
      "åĪĨ": 612,
      "éĽ": 613,
      "çĤ": 614,
      "**": 615,
      "æ¸": 616,
      "ä¸İ": 617,
      "è¿ĩ": 618,
      "fi": 619,
      "ationĠ": 620,
      "ç®": 621,
      "inĠtheĠ": 622,
      "tionĠ": 623,
      "æ´": 624,
      "per": 625,
      "pĠ": 626,
      "ãĢĬ": 627,
      "ãĢĭ": 628,
      "ĊĠĠ": 629,
      "éķ": 630,
      "æ¬": 631,
      "ä¸»": 632,
      "bu": 633,
      "å¦Ĥ": 634,
      "åħ¬": 635,
      "å§": 636,
      "oc": 637,
      "å¤ļ": 638,
      "arĠ": 639,
      "æľ¬": 640,
      "tic": 641,
      "æĸĩ": 642,
      "æĻ": 643,
      "çĿĢ": 644,
      "åĢ": 645,
      "he": 646,
      "ff": 647,
      "pe": 648,
      "èĤ": 649,
      "å¤©": 650,
      "åįģ": 651,
      "æĹ¥": 652,
      "ä¸ī": 653,
      "ãĢĤĊĊ": 654,
      "å¿ĥ": 655,
      "é¡": 656,
      "ãĢĢãĢĢ": 657,
      "å®ļ": 658,
      "te": 659,
      "å°ı": 660,
      "oo": 661,
      ",ĠandĠ": 662,
      "ä¸ļ": 663,
      "beĠ": 664,
      "ç»ı": 665,
      "çĻ": 666,
      "areĠ": 667,
      "éĩĮ": 668,
      "gr": 669,
      "me": 670,
      "è·": 671,
      "\"\"": 672,
      "å®ŀ": 673,
      "ateĠ": 674,
      "çĦ¶": 675,
      "ç½": 676,
      "äºĮ": 677,
      "é«": 678,
      "ce": 679,
      "ain": 680,
      "all": 681,
      "æľĪ": 682,
      "å·¥": 683,
      "éĤ£": 684,
      "åĲĮ": 685,
      "ï¼Ł": 686,
      "éĿ¢": 687,
      "tur": 688,
      "wĠ": 689,
      ");": 690,
      "åģ": 691,
      "éļ": 692,
      "you": 693,
      "ç¥": 694,
      "self": 695,
      "åĬ¨": 696,
      "av": 697,
      "å£": 698,
      "éĥ½": 699,
      "ç©": 700,
      "ç¨": 701,
      "ang": 702,
      "æĹł": 703,
      "end": 704,
      "èĭ": 705,
      "ev": 706,
      "s.Ġ": 707,
      "ç¾": 708,
      "å»": 709,
      "çİ°": 710,
      "-Ġ": 711,
      "sp": 712,
      "oul": 713,
      "wor": 714,
      "é£": 715,
      "10": 716,
      "uc": 717,
      "èī": 718,
      "é«ĺ": 719,
      "notĠ": 720,
      "èĬ": 721,
      "çŃī": 722,
      "ç¤": 723,
      "çķ": 724,
      "å¥½": 725,
      "âĢĵ": 726,
      "ect": 727,
      "æĢ§": 728,
      "æģ": 729,
      "å¼Ģ": 730,
      "ass": 731,
      "éĥ¨": 732,
      ".Ċ": 733,
      "ifĠ": 734,
      "åĬĽ": 735,
      "åīį": 736,
      "è¿Ľ": 737,
      "ä¹Ī": 738,
      "edĠtoĠ": 739,
      "æŃ¤": 740,
      "åĮĸ": 741,
      "int": 742,
      "outĠ": 743,
      "çĪ": 744,
      "igh": 745,
      "åĿ": 746,
      "æı": 747,
      "è¢": 748,
      "2Ġ": 749,
      "gĠ": 750,
      "ra": 751,
      "owĠ": 752,
      "ĊĠĠĠĠĠĠĠĠĠĠĠĠĠĠĠĠ": 753,
      "èĪ": 754,
      "po": 755,
      "ä½ĵ": 756,
      "stĠ": 757,
      "åİ»": 758,
      "èģ": 759,
      "åħ¨": 760,
      "icĠ": 761,
      "therĠ": 762,
      "ãĢĤâĢĿ": 763,
      "éķ¿": 764,
      "æĺİ": 765,
      "ov": 766,
      "æĦı": 767,
      "keĠ": 768,
      "è¿ĺ": 769,
      "å½ĵ": 770,
      "åĲĪ": 771,
      "èµ·": 772,
      "æ°ĳ": 773,
      "In": 774,
      "1Ġ": 775,
      "æ²¡": 776,
      "ï¼Ľ": 777,
      "oneĠ": 778,
      "éĩį": 779,
      "#Ġ": 780,
      "ersĠ": 781,
      "ouldĠ": 782,
      "ä¸Ģä¸ª": 783,
      "å¥¹": 784,
      "ate": 785,
      "æķĻ": 786,
      "ãĢĤĠ": 787,
      "åıĬ": 788,
      "allĠ": 789,
      "ayĠ": 790,
      "è¶": 791,
      ".ĠTheĠ": 792,
      "y,Ġ": 793,
      "åħ³": 794,
      "æŁ": 795,
      "çŁ¥": 796,
      "åĲį": 797,
      "æĸ°": 798,
      "ç§į": 799,
      "èº": 800,
      "hadĠ": 801,
      "éĹ´": 802,
      "çĽ¸": 803,
      "we": 804,
      "åĽł": 805,
      "St": 806,
      "ç³": 807,
      "deĠ": 808,
      "Ch": 809,
      "//": 810,
      "200": 811,
      "rec": 812,
      "ft": 813,
      "åĪ¶": 814,
      "ub": 815,
      "toĠtheĠ": 816,
      "ç´": 817,
      "youĠ": 818,
      "çī©": 819,
      "etĠ": 820,
      "ist": 821,
      "åºĶ": 822,
      "æŃ£": 823,
      "æį": 824,
      "ĊĠ": 825,
      "ä»İ": 826,
      "..": 827,
      "Th": 828,
      "çł": 829,
      "æĶ¿": 830,
      "åĨħ": 831,
      "æľĢ": 832,
      "ä½Ĩ": 833,
      "ob": 834,
      "nam": 835,
      "æĥħ": 836,
      ".ĠI": 837,
      "portĠ": 838,
      "fin": 839,
      "è¢«": 840,
      "é¦": 841,
      "irĠ": 842,
      "====": 843,
      "sc": 844,
      "ough": 845,
      "çģ": 846,
      "æĥ³": 847,
      "0Ġ": 848,
      "è¥": 849,
      "æľº": 850,
      "----": 851,
      "çĤ¹": 852,
      "s.": 853,
      "cont": 854,
      "å¤ĸ": 855,
      "ig": 856,
      "ourĠ": 857,
      "èº«": 858,
      "18": 859,
      "soĠ": 860,
      "sĠandĠ": 861,
      "tim": 862,
      "sĠofĠ": 863,
      "èį": 864,
      "est": 865,
      "åħ¥": 866,
      "éĢļ": 867,
      "ç±": 868,
      ";Ġ": 869,
      "ityĠ": 870,
      "å»º": 871,
      "ä»£": 872,
      "ä½¿": 873,
      "ack": 874,
      "()": 875,
      "èĥ": 876,
      "èĦ": 877,
      "æ°´": 878,
      "å¸Ĥ": 879,
      "å°Ĩ": 880,
      "è¥¿": 881,
      "bo": 882,
      "åº¦": 883,
      "æķ°": 884,
      "åĬł": 885,
      "seĠ": 886,
      "iĠ": 887,
      "xĠ": 888,
      "ser": 889,
      "der": 890,
      "æīĭ": 891,
      "èĲ": 892,
      "iv": 893,
      "pr": 894,
      "æ·": 895,
      "form": 896,
      "åĽĽ": 897,
      "äºĽ": 898,
      "haveĠ": 899,
      "æ¡": 900,
      "self.": 901,
      "å¢": 902,
      "å¹¶": 903,
      "åıª": 904,
      "äº§": 905,
      "ï¼ļâĢľ": 906,
      "ä¹¦": 907,
      "èĻ": 908,
      "Ċĉĉ": 909,
      "thisĠ": 910,
      "+Ġ": 911,
      "ess": 912,
      "çī¹": 913,
      "æĪĸ": 914,
      "retur": 915,
      "é»": 916,
      "éľ": 917,
      "ä½į": 918,
      "åĸ": 919,
      "elĠ": 920,
      "è¨": 921,
      "ç¼": 922,
      "val": 923,
      "ç³»": 924,
      "wereĠ": 925,
      "ç®¡": 926,
      "ish": 927,
      "å±±": 928,
      ".ĠA": 929,
      "up": 930,
      "ç¦": 931,
      "å®ī": 932,
      "ear": 933,
      "ï¼ģ": 934,
      "iz": 935,
      "ingĠtheĠ": 936,
      "au": 937,
      "è§ģ": 938,
      "ichĠ": 939,
      "201": 940,
      "ak": 941,
      "herĠ": 942,
      "å¹³": 943,
      "å·²": 944,
      "5Ġ": 945,
      "è¡¨": 946,
      "estĠ": 947,
      "èĩ³": 948,
      "å·±": 949,
      "arg": 950,
      "é©": 951,
      "butĠ": 952,
      "åıĪ": 953,
      "éħ": 954,
      "ä¸ĸ": 955,
      "ä»»": 956,
      "çİĭ": 957,
      "co": 958,
      "ty": 959,
      "è®¾": 960,
      "es,Ġ": 961,
      "vi": 962,
      "èİ": 963,
      "allyĠ": 964,
      "3Ġ": 965,
      "æ¶": 966,
      "éĶ": 967,
      "ä¸¤": 968,
      "lin": 969,
      "fr": 970,
      "man": 971,
      "ext": 972,
      "min": 973,
      "åĪ©": 974,
      "æıĲ": 975,
      "åĮº": 976,
      "æł·": 977,
      "eĠofĠ": 978,
      "*Ġ": 979,
      "ç«ĭ": 980,
      "og": 981,
      "whichĠ": 982,
      "çĶ±": 983,
      "=\"": 984,
      "fe": 985,
      "dat": 986,
      "idĠ": 987,
      "éĩĳ": 988,
      "ue": 989,
      "åķ": 990,
      "éĹ®": 991,
      "éĴ": 992,
      ".ĠH": 993,
      "pa": 994,
      "ant": 995,
      "ç¨ĭ": 996,
      "å¸¸": 997,
      "æŀľ": 998,
      "åĬ¡": 999,
      "èĩªå·±": 1000,
      "äºĶ": 1001,
      "çĥ": 1002,
      "ard": 1003,
      "4Ġ": 1004,
      "çĹ": 1005,
      ",ĠtheĠ": 1006,
      "ç²": 1007,
      "æ¬¡": 1008,
      "ä¸ľ": 1009,
      "å¤´": 1010,
      "æľŁ": 1011,
      "ç¾İ": 1012,
      "çĸ": 1013,
      "çĽ®": 1014,
      "åĪĻ": 1015,
      "çľĭ": 1016,
      "</": 1017,
      "ĊĊĠĠĠĠ": 1018,
      "å¥³": 1019,
      "éĩı": 1020,
      "ud": 1021,
      "åĳĺ": 1022,
      "Con": 1023,
      "å±ķ": 1024,
      "åįĹ": 1025,
      "éª": 1026,
      "dis": 1027,
      "å²": 1028,
      "éĹ¨": 1029,
      "sa": 1030,
      "æ°Ķ": 1031,
      "åĲĳ": 1032,
      "act": 1033,
      "comp": 1034,
      "ä¿Ŀ": 1035,
      "åĵģ": 1036,
      "col": 1037,
      "åŁº": 1038,
      "atedĠ": 1039,
      "åİŁ": 1040,
      "'tĠ": 1041,
      "å¾Ī": 1042,
      ">Ġ": 1043,
      "å¤Ħ": 1044,
      "ther": 1045,
      "ä¿¡": 1046,
      "berĠ": 1047,
      "ep": 1048,
      "æĽ´": 1049,
      "æ®": 1050,
      "ment": 1051,
      "out": 1052,
      "ç¡": 1053,
      "ä½ķ": 1054,
      "è§£": 1055,
      "è®¡": 1056,
      "åĽŀ": 1057,
      "éŁ": 1058,
      "fun": 1059,
      "onĠtheĠ": 1060,
      "weĠ": 1061,
      "çľŁ": 1062,
      "importĠ": 1063,
      "ç§ĳ": 1064,
      "returnĠ": 1065,
      "è£": 1066,
      "pre": 1067,
      "aryĠ": 1068,
      "æ¯Ķ": 1069,
      "canĠ": 1070,
      "oreĠ": 1071,
      "12": 1072,
      "æ¼": 1073,
      "ç¥ŀ": 1074,
      "èµĦ": 1075,
      "ell": 1076,
      "åħĪ": 1077,
      "èī²": 1078,
      "åĦ": 1079,
      "theirĠ": 1080,
      "art": 1081,
      "çĭ": 1082,
      "å¼ı": 1083,
      "\"\"\"": 1084,
      "som": 1085,
      "ï¼ĮæĪĳ": 1086,
      "é¢ĺ": 1087,
      "age": 1088,
      "go": 1089,
      "æĸ¯": 1090,
      "fir": 1091,
      "ç¤¾": 1092,
      "ip": 1093,
      "æ»": 1094,
      "ure": 1095,
      "adĠ": 1096,
      "åħĥ": 1097,
      "ke": 1098,
      "one": 1099,
      "çĶµ": 1100,
      "ageĠ": 1101,
      "åı£": 1102,
      "ç»ĵ": 1103,
      "ä»Ģ": 1104,
      "edĠbyĠ": 1105,
      "get": 1106,
      "'Ġ": 1107,
      "theyĠ": 1108,
      "åĶ": 1109,
      "ownĠ": 1110,
      "è·¯": 1111,
      "è¨Ģ": 1112,
      "æĤ": 1113,
      "å¤ª": 1114,
      "æµ·": 1115,
      "æ²¡æľī": 1116,
      "cre": 1117,
      "ameĠ": 1118,
      "èĢģ": 1119,
      ".ĠS": 1120,
      "port": 1121,
      ")Ġ{": 1122,
      "ph": 1123,
      "num": 1124,
      "_Ġ": 1125,
      "edĠtheĠ": 1126,
      "to": 1127,
      "æĬĬ": 1128,
      "æ²»": 1129,
      "pres": 1130,
      "æº": 1131,
      "æľ¯": 1132,
      "è®º": 1133,
      "antĠ": 1134,
      "ĊĠĠĠĠĠĠ": 1135,
      "ustĠ": 1136,
      "ä¹ī": 1137,
      "ill": 1138,
      "æĿ¡": 1139,
      "6Ġ": 1140,
      "åĮĹ": 1141,
      "åıĺ": 1142,
      ":ĊĠĠĠĠĠĠĠĠ": 1143,
      "derĠ": 1144,
      "éĵ": 1145,
      "é£İ": 1146,
      "ans": 1147,
      "itsĠ": 1148,
      "ä»Ģä¹Ī": 1149,
      "Â·": 1150,
      "æĦŁ": 1151,
      "æ´»": 1152,
      "An": 1153,
      "åı¯ä»¥": 1154,
      "Wh": 1155,
      "fa": 1156,
      "æ¨": 1157,
      "çĻ½": 1158,
      "åĨĽ": 1159,
      "enc": 1160,
      "loc": 1161,
      "éĿŀ": 1162,
      "æİ¥": 1163,
      "åĭ": 1164,
      "utĠ": 1165,
      "ï¼Įä¸į": 1166,
      "illĠ": 1167,
      "sheĠ": 1168,
      "çĽ´": 1169,
      "åĲĦ": 1170,
      "å°ĳ": 1171,
      "Ar": 1172,
      "ä¼ł": 1173,
      "å¸Ī": 1174,
      "tw": 1175,
      "att": 1176,
      "åı¸": 1177,
      "199": 1178,
      "è§Ħ": 1179,
      "å¾·": 1180,
      "ableĠ": 1181,
      "amĠ": 1182,
      "åĪ«": 1183,
      "ach": 1184,
      "åŀ": 1185,
      "å½¢": 1186,
      "åŁİ": 1187,
      "ï¼Įä»ĸ": 1188,
      "åıĹ": 1189,
      "ç»Ł": 1190,
      "åľº": 1191,
      "do": 1192,
      "(\"": 1193,
      "comm": 1194,
      "hasĠ": 1195,
      "ï¼Įä½Ĩ": 1196,
      "AĠ": 1197,
      "),Ġ": 1198,
      "ï¼Įè¿Ļ": 1199,
      "âĢĶâĢĶ": 1200,
      "ari": 1201,
      "sion": 1202,
      "Un": 1203,
      "ï¼ĮèĢĮ": 1204,
      "br": 1205,
      "tĠofĠ": 1206,
      "sy": 1207,
      "ardĠ": 1208,
      "##": 1209,
      "æ¢": 1210,
      "ä»¶": 1211,
      "éĻ¢": 1212,
      "èĮ": 1213,
      "Ċĉ": 1214,
      "ä¸ŃåĽ½": 1215,
      "è¯Ŀ": 1216,
      "åĦ¿": 1217,
      "çłĶ": 1218,
      "inter": 1219,
      "fl": 1220,
      "Re": 1221,
      "è±": 1222,
      "æ¸ħ": 1223,
      ".ĠT": 1224,
      "otherĠ": 1225,
      "tiveĠ": 1226,
      "ound": 1227,
      "}Ġ": 1228,
      "è®©": 1229,
      "æīį": 1230,
      "oughĠ": 1231,
      "åģļ": 1232,
      "mod": 1233,
      "ç»Ļ": 1234,
      "æĮĩ": 1235,
      "\"ĊĊ": 1236,
      "æµģ": 1237,
      "hi": 1238,
      "\")": 1239,
      "sĠtoĠ": 1240,
      "oundĠ": 1241,
      "upĠ": 1242,
      "11": 1243,
      "æľį": 1244,
      "eĠtheĠ": 1245,
      "çĬ": 1246,
      "kn": 1247,
      "anc": 1248,
      "åĥ": 1249,
      "ast": 1250,
      "tiv": 1251,
      "æĬĢ": 1252,
      "Ã©": 1253,
      "æĢĿ": 1254,
      "ult": 1255,
      "å£°": 1256,
      "ueĠ": 1257,
      "å®ĥ": 1258,
      "å¨": 1259,
      "ä»Ĭ": 1260,
      "æľª": 1261,
      "åħī": 1262,
      "des": 1263,
      "enceĠ": 1264,
      "app": 1265,
      "ght": 1266,
      "ber": 1267,
      "ubl": 1268,
      "ongĠ": 1269,
      "å·¥ä½ľ": 1270,
      "15": 1271,
      "æĽ°": 1272,
      "forĠtheĠ": 1273,
      "aw": 1274,
      "èĬĤ": 1275,
      "ackĠ": 1276,
      "sec": 1277,
      "æĪĺ": 1278,
      "gi": 1279,
      "æīĵ": 1280,
      "duc": 1281,
      "whoĠ": 1282,
      "äº¤": 1283,
      "å¼º": 1284,
      "wouldĠ": 1285,
      "mentĠ": 1286,
      "ç±»": 1287,
      "å£«": 1288,
      "amp": 1289,
      "func": 1290,
      "set": 1291,
      "myĠ": 1292,
      "æķħ": 1293,
      "åŃĹ": 1294,
      "bec": 1295,
      "ä¸ĩ": 1296,
      "å°Ķ": 1297,
      "fil": 1298,
      "æ±Ĥ": 1299,
      "}ĊĊ": 1300,
      "0.": 1301,
      "ç»Ħ": 1302,
      "a,Ġ": 1303,
      "Com": 1304,
      "edĠinĠ": 1305,
      "e.": 1306,
      "beenĠ": 1307,
      "7Ġ": 1308,
      "ç©¶": 1309,
      "åĳ½": 1310,
      "usĠ": 1311,
      "å·ŀ": 1312,
      "__": 1313,
      "åħ±": 1314,
      "èĳ": 1315,
      "åĨį": 1316,
      "ĊãĢĢãĢĢ": 1317,
      "pos": 1318,
      "****": 1319,
      "ind": 1320,
      "è½¦": 1321,
      "this": 1322,
      "æł¼": 1323,
      "æŀĹ": 1324,
      "æĶ¹": 1325,
      "é©¬": 1326,
      "çľ¼": 1327,
      "è®°": 1328,
      "åıĸ": 1329,
      "1.": 1330,
      "å¯¼": 1331,
      "è®¤": 1332,
      "Pro": 1333,
      "éĽĨ": 1334,
      "è¯Ń": 1335,
      "å½±": 1336,
      "å¼ł": 1337,
      "moreĠ": 1338,
      "çĻ¾": 1339,
      "Ġ(": 1340,
      "æĶ¾": 1341,
      "atĠtheĠ": 1342,
      "æ£": 1343,
      "essĠ": 1344,
      "ail": 1345,
      "lesĠ": 1346,
      "é¥": 1347,
      "tit": 1348,
      "çķĮ": 1349,
      "åħ·": 1350,
      "ç«ł": 1351,
      "æĢ»": 1352,
      "whenĠ": 1353,
      "åħŃ": 1354,
      "ew": 1355,
      "æĮģ": 1356,
      "æĶ¶": 1357,
      "son": 1358,
      "åı²": 1359,
      "aboutĠ": 1360,
      "åıį": 1361,
      "mo": 1362,
      "åħĭ": 1363,
      "ousĠ": 1364,
      "eng": 1365,
      "æį®": 1366,
      "('": 1367,
      "alsoĠ": 1368,
      "åį³": 1369,
      "âĢ¦": 1370,
      "åĩł": 1371,
      "if": 1372,
      "æ¥": 1373,
      "åł": 1374,
      "åĻ": 1375,
      "err": 1376,
      "åįķ": 1377,
      "çı": 1378,
      "astĠ": 1379,
      "mar": 1380,
      "Al": 1381,
      "æħ": 1382,
      "ï¼Įåľ¨": 1383,
      "useĠ": 1384,
      "å§ĭ": 1385,
      "ener": 1386,
      "ç©º": 1387,
      "cep": 1388,
      "kingĠ": 1389,
      "anceĠ": 1390,
      "ild": 1391,
      "è´¨": 1392,
      "äºĳ": 1393,
      "æĪĳä»¬": 1394,
      "èĤ²": 1395,
      "å¤į": 1396,
      "16": 1397,
      "çº§": 1398,
      "firstĠ": 1399,
      "ostĠ": 1400,
      "èĢĥ": 1401,
      "defĠ": 1402,
      "åºľ": 1403,
      "\",Ġ": 1404,
      "rit": 1405,
      "fterĠ": 1406,
      "å®¹": 1407,
      "å¿ħ": 1408,
      "|Ġ": 1409,
      "coun": 1410,
      "8Ġ": 1411,
      "èĬ±": 1412,
      "div": 1413,
      "ãĢĪ": 1414,
      "ãĢī": 1415,
      "çª": 1416,
      "é¡¹": 1417,
      "cor": 1418,
      "ä¸įæĺ¯": 1419,
      "ea": 1420,
      "requ": 1421,
      "andĠtheĠ": 1422,
      "row": 1423,
      "äºĨï¼Į": 1424,
      "è¿Ĳ": 1425,
      "æł¡": 1426,
      "çļĦï¼Į": 1427,
      "cur": 1428,
      "2.": 1429,
      "pon": 1430,
      "ï¼ŁâĢĿ": 1431,
      "æłĩ": 1432,
      "newĠ": 1433,
      "å°±æĺ¯": 1434,
      "ç¿": 1435,
      ".ĠĊĊ": 1436,
      "ä¾¿": 1437,
      "ever": 1438,
      "æŃ»": 1439,
      "èµ°": 1440,
      "iti": 1441,
      "æ¯ı": 1442,
      "æĿĥ": 1443,
      ";Ċ": 1444,
      "ä¸ĵ": 1445,
      "ureĠ": 1446,
      "æĳ": 1447,
      "åıĳå±ķ": 1448,
      "è°ĥ": 1449,
      "low": 1450,
      "eseĠ": 1451,
      "elyĠ": 1452,
      "========": 1453,
      "enti": 1454,
      "åı¤": 1455,
      "aceĠ": 1456,
      "çłĶç©¶": 1457,
      "åŀĭ": 1458,
      "willĠ": 1459,
      "çħ": 1460,
      "éĢł": 1461,
      "ialĠ": 1462,
      "è§Ĥ": 1463,
      "è¯¥": 1464,
      "bas": 1465,
      "åİ¿": 1466,
      "yourĠ": 1467,
      "èħ": 1468,
      "ta": 1469,
      "ä»ĸä»¬": 1470,
      "ticĠ": 1471,
      "fromĠtheĠ": 1472,
      "Ex": 1473,
      "éŁ³": 1474,
      "er,Ġ": 1475,
      ")ĊĊ": 1476,
      "è¯Ĩ": 1477,
      "vic": 1478,
      "--------": 1479,
      "ç®¡çĲĨ": 1480,
      "name": 1481,
      "likeĠ": 1482,
      "è§ī": 1483,
      "åĽ¾": 1484,
      "æĿİ": 1485,
      "æ±Ł": 1486,
      "é¾": 1487,
      "åĳ¨": 1488,
      "rip": 1489,
      "åĨ³": 1490,
      "éľĢ": 1491,
      "åı°": 1492,
      "twoĠ": 1493,
      "éĢī": 1494,
      "è¾¹": 1495,
      "thanĠ": 1496,
      "æŀĦ": 1497,
      "bet": 1498,
      "æĬ¥": 1499,
      "incl": 1500,
      "ä¹Ĳ": 1501,
      "ç²¾": 1502,
      "//Ġ": 1503,
      "able": 1504,
      "å®Į": 1505,
      "bl": 1506,
      "En": 1507,
      "çľģ": 1508,
      "Tr": 1509,
      "sub": 1510,
      "åĪĽ": 1511,
      "è§Ĩ": 1512,
      "',Ġ": 1513,
      "æ·±": 1514,
      "å§Ķ": 1515,
      "å¸¦": 1516,
      "åĬŁ": 1517,
      "å¤«": 1518,
      ".ĠB": 1519,
      "çŁ³": 1520,
      "withĠtheĠ": 1521,
      "åħ«": 1522,
      "æļ": 1523,
      "âĢĵĠ": 1524,
      "tt": 1525,
      "ä¸Ķ": 1526,
      "25": 1527,
      "mat": 1528,
      "off": 1529,
      "æĴ": 1530,
      "å®ĺ": 1531,
      "éļ¾": 1532,
      "åĳĬ": 1533,
      "publ": 1534,
      "çļĦäºº": 1535,
      "åĥı": 1536,
      "14": 1537,
      "è®®": 1538,
      ".ĠHeĠ": 1539,
      "æ¼Ķ": 1540,
      "add": 1541,
      "sionĠ": 1542,
      "are": 1543,
      "13": 1544,
      "ç¤¾ä¼ļ": 1545,
      "ç§°": 1546,
      "æĭī": 1547,
      "ug": 1548,
      "icalĠ": 1549,
      ":ĊĠĠĠĠĠĠĠĠĠĠĠĠ": 1550,
      "iesĠ": 1551,
      "åĻ¨": 1552,
      "çĹħ": 1553,
      "è¯ģ": 1554,
      "ç®Ĺ": 1555,
      "meĠ": 1556,
      "è½¬": 1557,
      "reĠ": 1558,
      "ineĠ": 1559,
      "é¢Ĩ": 1560,
      "17": 1561,
      "mon": 1562,
      "åĩĨ": 1563,
      "sol": 1564,
      "ingĠtoĠ": 1565,
      "éĺ³": 1566,
      "dec": 1567,
      "ç¡®": 1568,
      "cent": 1569,
      "sĠinĠ": 1570,
      "ann": 1571,
      "åķĨ": 1572,
      "ä½ı": 1573,
      "mer": 1574,
      "198": 1575,
      "è¾¾": 1576,
      "overĠ": 1577,
      ")ĊĠĠĠĠĠĠĠĠ": 1578,
      "åŃĺ": 1579,
      "ref": 1580,
      "InĠ": 1581,
      "noĠ": 1582,
      "æ¹": 1583,
      "å¸ĥ": 1584,
      "åıĤ": 1585,
      "own": 1586,
      "n'tĠ": 1587,
      "pri": 1588,
      "åİĨ": 1589,
      "è¿Ļä¸ª": 1590,
      "gre": 1591,
      "ï¼Įä¸Ģ": 1592,
      "til": 1593,
      "åĲ¬": 1594,
      "ä¸ĥ": 1595,
      "her": 1596,
      "ghtĠ": 1597,
      "over": 1598,
      "ity": 1599,
      "ï¼Įä»¥": 1600,
      "redĠ": 1601,
      "ion": 1602,
      "çĪ±": 1603,
      "work": 1604,
      "åįİ": 1605,
      "äºĨä¸Ģ": 1606,
      ",ĊĠĠĠĠ": 1607,
      "çĮ": 1608,
      "onlyĠ": 1609,
      "ight": 1610,
      "ellĠ": 1611,
      "ing,Ġ": 1612,
      "æºĲ": 1613,
      "æŃ¥": 1614,
      "100": 1615,
      "ust": 1616,
      "éĹ®é¢ĺ": 1617,
      "log": 1618,
      "\">": 1619,
      "æģ¯": 1620,
      "hĠ": 1621,
      "class": 1622,
      "fig": 1623,
      "read": 1624,
      "åį´": 1625,
      "year": 1626,
      "å¹¿": 1627,
      "ed,Ġ": 1628,
      "ick": 1629,
      "é¦ĸ": 1630,
      "anyĠ": 1631,
      "whatĠ": 1632,
      "equ": 1633,
      "è¿ĳ": 1634,
      ".Ġ\"": 1635,
      "ä¹Ŀ": 1636,
      "èģĶ": 1637,
      "æĺĵ": 1638,
      "æł¹": 1639,
      ".ĠTh": 1640,
      "oryĠ": 1641,
      "æ¡Ī": 1642,
      "e_": 1643,
      "æµİ": 1644,
      "9Ġ": 1645,
      "?Ġ": 1646,
      "ilĠ": 1647,
      "ightĠ": 1648,
      "å¾Ģ": 1649,
      ")Ċ": 1650,
      "èı": 1651,
      "éŃ": 1652,
      "åĮħ": 1653,
      "æŃ¦": 1654,
      "çº¿": 1655,
      "å¤±": 1656,
      "æķĪ": 1657,
      "but": 1658,
      ",ĊĠĠĠĠĠĠĠĠ": 1659,
      "ä¿®": 1660,
      "åħ¬åı¸": 1661,
      "è®¸": 1662,
      "åĬŀ": 1663,
      "è±¡": 1664,
      "å¡": 1665,
      "SĠ": 1666,
      "æ³¨": 1667,
      "rel": 1668,
      "ject": 1669,
      "timeĠ": 1670,
      "play": 1671,
      "æķ´": 1672,
      "å¤ĩ": 1673,
      "Er": 1674,
      "æĸ½": 1675,
      "ç¬¬ä¸Ģ": 1676,
      "thr": 1677,
      "tem": 1678,
      ",\"Ġ": 1679,
      "frac": 1680,
      "æĶ¯": 1681,
      "assĠ": 1682,
      "åĢĻ": 1683,
      "çº¦": 1684,
      "èģĮ": 1685,
      "whereĠ": 1686,
      "ç¤º": 1687,
      "arr": 1688,
      "intoĠ": 1689,
      "ong": 1690,
      "test": 1691,
      "æľĿ": 1692,
      "äº²": 1693,
      "data": 1694,
      "vel": 1695,
      "èĭ¥": 1696,
      "aĠs": 1697,
      "text": 1698,
      "with": 1699,
      "æĿ¥ï¼Į": 1700,
      "pol": 1701,
      "æ¨¡": 1702,
      "Mar": 1703,
      ".ĠInĠ": 1704,
      "åĽłä¸º": 1705,
      "adeĠ": 1706,
      "ly": 1707,
      "ord": 1708,
      "gn": 1709,
      "æİ¨": 1710,
      "this.": 1711,
      "è¿ľ": 1712,
      "æĵ": 1713,
      "put": 1714,
      "ble": 1715,
      "éĻħ": 1716,
      "ĠĠĠ": 1717,
      "å¿«": 1718,
      "ä»¤": 1719,
      "thingĠ": 1720,
      "ç¦»": 1721,
      "ç¬ĳ": 1722,
      "mis": 1723,
      "æľĽ": 1724,
      "IN": 1725,
      "spec": 1726,
      "$Ġ": 1727,
      "èĭ±": 1728,
      "fol": 1729,
      "å¢ĥ": 1730,
      "ON": 1731,
      "}{": 1732,
      "åĪĿ": 1733,
      "ä»·": 1734,
      "hel": 1735,
      "åĲİï¼Į": 1736,
      "åĪĹ": 1737,
      "äººï¼Į": 1738,
      "ER": 1739,
      "ç¢": 1740,
      "æĹı": 1741,
      "ectĠ": 1742,
      "itt": 1743,
      "å¼ķ": 1744,
      "ame": 1745,
      "ãĢĤè¿Ļ": 1746,
      "æĪ¿": 1747,
      "cho": 1748,
      "åĽ½å®¶": 1749,
      "mi": 1750,
      "æŁ¥": 1751,
      "struc": 1752,
      "å¦Ĥæŀľ": 1753,
      "ict": 1754,
      "oodĠ": 1755,
      "ste": 1756,
      "åı·": 1757,
      "reeĠ": 1758,
      "ve": 1759,
      "è¿Ľè¡Į": 1760,
      "Par": 1761,
      "iteĠ": 1762,
      "äº¦": 1763,
      "30": 1764,
      "è¶³": 1765,
      "ok": 1766,
      "ï¼Įå¹¶": 1767,
      "thereĠ": 1768,
      "åĺ": 1769,
      "åĤ": 1770,
      "å¹²": 1771,
      "thenĠ": 1772,
      "ffer": 1773,
      "3.": 1774,
      "å¸Ŀ": 1775,
      "æĿĳ": 1776,
      "èĹ": 1777,
      "ens": 1778,
      "ä¹ł": 1779,
      "You": 1780,
      "æ²³": 1781,
      "ewĠ": 1782,
      "å®¢": 1783,
      "æŀģ": 1784,
      "exp": 1785,
      "omĠ": 1786,
      "çŁ¥éģĵ": 1787,
      "éĿĴ": 1788,
      "è¿ŀ": 1789,
      "ï¼Įä¹Ł": 1790,
      "aĠc": 1791,
      "æĬ¤": 1792,
      "doĠ": 1793,
      "himĠ": 1794,
      "time": 1795,
      "sĠtheĠ": 1796,
      "çĤº": 1797,
      "oseĠ": 1798,
      "oldĠ": 1799,
      "tri": 1800,
      "åįĥ": 1801,
      "ä¼ģ": 1802,
      "umĠ": 1803,
      "endĠ": 1804,
      "ç½®": 1805,
      "çīĩ": 1806,
      "mostĠ": 1807,
      "âĢĶĠ": 1808,
      "ï¼Įæĺ¯": 1809,
      "è¯ķ": 1810,
      "ä¾Ŀ": 1811,
      "ãģ": 1812,
      "é£Ł": 1813,
      "afterĠ": 1814,
      "å·²ç»ı": 1815,
      "åĮ»": 1816,
      "å±ŀ": 1817,
      "è¯Ĺ": 1818,
      "ationalĠ": 1819,
      "è´£": 1820,
      "ä¾Ľ": 1821,
      "çĶ·": 1822,
      ")ĊĠĠĠĠ": 1823,
      "of": 1824,
      "ç½ĳ": 1825,
      "æķĻèĤ²": 1826,
      "ä¹İ": 1827,
      "è¯·": 1828,
      "mp": 1829,
      "ï¼ģâĢĿ": 1830,
      "æ¸¸": 1831,
      "uĠ": 1832,
      "é¸": 1833,
      "202": 1834,
      "åĢ¼": 1835,
      "äºĨãĢĤ": 1836,
      "è¶Ĭ": 1837,
      "gl": 1838,
      "å±ħ": 1839,
      "couldĠ": 1840,
      "path": 1841,
      ".ĠItĠ": 1842,
      "Fr": 1843,
      "æĹ¶ï¼Į": 1844,
      "é»Ħ": 1845,
      "éĺŁ": 1846,
      "èİ·": 1847,
      "mil": 1848,
      "åĪĩ": 1849,
      "back": 1850,
      "éļı": 1851,
      "æĬĢæľ¯": 1852,
      "ç±³": 1853,
      "ä¸Ńï¼Į": 1854,
      "tionsĠ": 1855,
      "éģĵï¼ļâĢľ": 1856,
      "entsĠ": 1857,
      "éªĮ": 1858,
      ":ĊĠĠĠĠ": 1859,
      "æ»¡": 1860,
      "TĠ": 1861,
      "\\frac": 1862,
      "äººçļĦ": 1863,
      "aseĠ": 1864,
      "ä¾ĭ": 1865,
      "å±Ģ": 1866,
      "iceĠ": 1867,
      "EĠ": 1868,
      "mov": 1869,
      "åı¯èĥ½": 1870,
      "çļĦä¸Ģ": 1871,
      "çīĪ": 1872,
      "isĠtheĠ": 1873,
      "å¿Ĺ": 1874,
      "atesĠ": 1875,
      "Col": 1876,
      "çİ¯": 1877,
      "æĸĻ": 1878,
      "bleĠ": 1879,
      "èª": 1880,
      "ct": 1881,
      "someĠ": 1882,
      "prov": 1883,
      "hand": 1884,
      "peop": 1885,
      ";ĊĊ": 1886,
      "å¾ĭ": 1887,
      "some": 1888,
      "åħµ": 1889,
      "verĠ": 1890,
      "æĸŃ": 1891,
      "aterĠ": 1892,
      "ï¼Įä½ł": 1893,
      "ath": 1894,
      "intĠ": 1895,
      "siz": 1896,
      "writ": 1897,
      "direc": 1898,
      "å¾®": 1899,
      "ä¼Ĺ": 1900,
      "äº¬": 1901,
      "ç´ł": 1902,
      "justĠ": 1903,
      "Err": 1904,
      "éĻ¤": 1905,
      "themĠ": 1906,
      "ç«Ļ": 1907,
      "trans": 1908,
      "mem": 1909,
      "ous": 1910,
      "way": 1911,
      "é¾Ļ": 1912,
      "adi": 1913,
      "æ¶Ī": 1914,
      "istĠ": 1915,
      "vo": 1916,
      "ç»´": 1917,
      "\\frac{": 1918,
      "çħ§": 1919,
      "åĨµ": 1920,
      "ç¬¬äºĮ": 1921,
      "ishĠ": 1922,
      "]Ġ": 1923,
      "è£ħ": 1924,
      "å¢ŀ": 1925,
      "fac": 1926,
      "èĩ´": 1927,
      "ç»ıæµİ": 1928,
      "ful": 1929,
      "asĠaĠ": 1930,
      "çģ«": 1931,
      "thatĠtheĠ": 1932,
      "ä¼ģä¸ļ": 1933,
      "åĲĽ": 1934,
      "åľŁ": 1935,
      "èĲ½": 1936,
      "åĨĻ": 1937,
      "å®Ĺ": 1938,
      ".\"ĊĊ": 1939,
      "å¿µ": 1940,
      "æĺŁ": 1941,
      "197": 1942,
      "èĲ¥": 1943,
      "åĪĴ": 1944,
      "{Ġ": 1945,
      "typ": 1946,
      "æĹ¶éĹ´": 1947,
      "è½»": 1948,
      "æĬķ": 1949,
      "org": 1950,
      "so": 1951,
      "æ®µ": 1952,
      "let": 1953,
      "è´¹": 1954,
      "å©": 1955,
      "isĠaĠ": 1956,
      "ä½¿çĶ¨": 1957,
      "Sh": 1958,
      "åħ»": 1959,
      "ç»Ī": 1960,
      "çİĩ": 1961,
      "ä¸ŃçļĦ": 1962,
      "s:Ġ": 1963,
      "è§Ĵ": 1964,
      "æīĢä»¥": 1965,
      "Cl": 1966,
      "çİ°åľ¨": 1967,
      "äººæ°ĳ": 1968,
      "æĢİ": 1969,
      "ileĠ": 1970,
      "åħļ": 1971,
      "åĨľ": 1972,
      "ign": 1973,
      "æĪ·": 1974,
      "weenĠ": 1975,
      "æĢģ": 1976,
      "ç½Ĺ": 1977,
      "numberĠ": 1978,
      "1,Ġ": 1979,
      "èĻ½": 1980,
      "èĳĹ": 1981,
      "Jo": 1982,
      ".ĠO": 1983,
      "ationsĠ": 1984,
      "/Ġ": 1985,
      "run": 1986,
      ".ĠM": 1987,
      "æĶ¿åºľ": 1988,
      "&Ġ": 1989,
      ").": 1990,
      "bor": 1991,
      "çĪ¶": 1992,
      "iaĠ": 1993,
      "åľĭ": 1994,
      "çĲĥ": 1995,
      "åĽ¢": 1996,
      "sk": 1997,
      "éħį": 1998,
      "ä¼ĺ": 1999,
      "posi": 2000,
      ",ĠbutĠ": 2001,
      "Le": 2002,
      "50": 2003,
      "æ¯į": 2004,
      "iver": 2005,
      "ookĠ": 2006,
      "ãĢĤåľ¨": 2007,
      "åĬ©": 2008,
      "ä¸ĸçķĮ": 2009,
      "æ°ı": 2010,
      "befor": 2011,
      "åŃ©": 2012,
      "e(": 2013,
      "day": 2014,
      "éľĢè¦ģ": 2015,
      "èĴ": 2016,
      "right": 2017,
      "inĠaĠ": 2018,
      "sur": 2019,
      "ãĢĤâĢĿĊ": 2020,
      "æĻ¯": 2021,
      "ey": 2022,
      "å¹´ï¼Į": 2023,
      "esĠofĠ": 2024,
      ";ĊĠĠ": 2025,
      "çº¢": 2026,
      "ionĠ": 2027,
      "For": 2028,
      "ss": 2029,
      "æĮī": 2030,
      "å¤§åŃ¦": 2031,
      "him": 2032,
      "eachĠ": 2033,
      "getĠ": 2034,
      "ï¼ĮâĢľ": 2035,
      "betweenĠ": 2036,
      "æĺ¾": 2037,
      "ç¯": 2038,
      "èŃ": 2039,
      ";ĊĠĠĠĠ": 2040,
      "%Ġ": 2041,
      "æĺ¥": 2042,
      "èĮĥ": 2043,
      "manĠ": 2044,
      "åħ¶ä»ĸ": 2045,
      "produc": 2046,
      "terĠ": 2047,
      "file": 2048,
      "ingĠaĠ": 2049,
      "part": 2050,
      ".ĠIĠ": 2051,
      "æī¿": 2052,
      "ton": 2053,
      "åįĬ": 2054,
      "å®¤": 2055,
      "sup": 2056,
      "edĠaĠ": 2057,
      "dist": 2058,
      "4.": 2059,
      "æĽ¾": 2060,
      "æĸĩåĮĸ": 2061,
      "äºļ": 2062,
      "æ¦": 2063,
      "ĠĠĠĠĠĠĠĠĠĠĠĠĠĠĠĠ": 2064,
      "reg": 2065,
      "å°½": 2066,
      "è¯»": 2067,
      "cess": 2068,
      "esĠandĠ": 2069,
      "aliz": 2070,
      "åĸĦ": 2071,
      "ç»ĩ": 2072,
      "éĺ¿": 2073,
      "No": 2074,
      "éħĴ": 2075,
      "ainĠ": 2076,
      "ç¼ĸ": 2077,
      "éĻĲ": 2078,
      "çĥŃ": 2079,
      "don": 2080,
      "sign": 2081,
      "throughĠ": 2082,
      "respon": 2083,
      "constĠ": 2084,
      "ĊĠĠĠ": 2085,
      "suchĠ": 2086,
      "gu": 2087,
      "æĹ¶åĢĻ": 2088,
      "é²": 2089,
      "æ±ī": 2090,
      "ert": 2091,
      "::": 2092,
      "æĲ": 2093,
      "æĹ©": 2094,
      "ç®Ģ": 2095,
      "De": 2096,
      "vis": 2097,
      "éĢŁ": 2098,
      "ers": 2099,
      "pi": 2100,
      "ĊĠĠĠĠĠĠĠĠĠĠĠĠĠĠĠĠĠĠĠĠ": 2101,
      "ä¹ŁãĢĤ": 2102,
      "åħ´": 2103,
      "ãĢĢãĢĢãĢĢãĢĢ": 2104,
      "çĨ": 2105,
      "them": 2106,
      "äºī": 2107,
      "ãĢĤĊâĢľ": 2108,
      "opĠ": 2109,
      "ç³»ç»Ł": 2110,
      "ich": 2111,
      "ä¸įèĥ½": 2112,
      "ä½İ": 2113,
      "éº": 2114,
      "backĠ": 2115,
      "call": 2116,
      "olog": 2117,
      "ansĠ": 2118,
      "olĠ": 2119,
      "rol": 2120,
      "stat": 2121,
      "fo": 2122,
      "dr": 2123,
      "è¾ĥ": 2124,
      "çĶ»": 2125,
      "çºª": 2126,
      "ä¸»è¦ģ": 2127,
      ".ĠF": 2128,
      "e-": 2129,
      ",ĊĠĠĠĠĠĠĠĠĠĠĠĠ": 2130,
      "chang": 2131,
      "high": 2132,
      "åĵį": 2133,
      "ThisĠ": 2134,
      "head": 2135,
      "ask": 2136,
      "âĢ¦âĢ¦": 2137,
      "inceĠ": 2138,
      "giv": 2139,
      "fu": 2140,
      "ç»Ĩ": 2141,
      "è°ĵ": 2142,
      "manyĠ": 2143,
      "Gr": 2144,
      "clo": 2145,
      "èį¯": 2146,
      "wayĠ": 2147,
      "point": 2148,
      "ç§¯": 2149,
      "plac": 2150,
      "æĽ²": 2151,
      "ï¼Įæľī": 2152,
      "è´Ł": 2153,
      "emp": 2154,
      "è¡Ģ": 2155,
      "ont": 2156,
      "éĢĤ": 2157,
      "bi": 2158,
      "ory": 2159,
      "ä¼¼": 2160,
      "inn": 2161,
      "er.": 2162,
      "çŃĸ": 2163,
      "ç»Ń": 2164,
      "DĠ": 2165,
      "éĢļè¿ĩ": 2166,
      "inc": 2167,
      "(self": 2168,
      "åı¶": 2169,
      "åĸľ": 2170,
      "çĽĬ": 2171,
      "çĭ¬": 2172,
      "åĪ°äºĨ": 2173,
      "åŁŁ": 2174,
      "det": 2175,
      "ali": 2176,
      "24": 2177,
      "can": 2178,
      "ualĠ": 2179,
      "çķĻ": 2180,
      "omeĠ": 2181,
      "âĢĻ": 2182,
      "{ĊĠĠĠĠ": 2183,
      "çļĦãĢĤ": 2184,
      "type": 2185,
      "éĺ²": 2186,
      "sonĠ": 2187,
      "ï¼Įåħ¶": 2188,
      "howĠ": 2189,
      "toĠbeĠ": 2190,
      "d,Ġ": 2191,
      "éĩĩ": 2192,
      "å®³": 2193,
      "çģµ": 2194,
      "Val": 2195,
      "ĊĊĠĠĠĠĠĠĠĠ": 2196,
      "Res": 2197,
      "åĲ§": 2198,
      "ä¸¾": 2199,
      "Ċĉĉĉĉ": 2200,
      "extĠ": 2201,
      "list": 2202,
      "ftĠ": 2203,
      "é¦Ļ": 2204,
      "includ": 2205,
      ":Ġ\"": 2206,
      "ç¾¤": 2207,
      "valu": 2208,
      "again": 2209,
      "sid": 2210,
      "æĺ¯ä¸Ģ": 2211,
      "æŃ¢": 2212,
      "æŃĮ": 2213,
      "cul": 2214,
      "è¯Ħ": 2215,
      "cap": 2216,
      "çĽĳ": 2217,
      "éĴ±": 2218,
      "\"\"\"ĊĠĠĠĠ": 2219,
      "é»ĳ": 2220,
      "ä»ĸçļĦ": 2221,
      "theseĠ": 2222,
      "ãĢĮ": 2223,
      "auseĠ": 2224,
      "iseĠ": 2225,
      "ãĢį": 2226,
      ".ĠW": 2227,
      "s,ĠandĠ": 2228,
      "éĻĪ": 2229,
      "RE": 2230,
      "çĬ¶": 2231,
      "æľ¨": 2232,
      "start": 2233,
      "en,Ġ": 2234,
      "beg": 2235,
      "å·´": 2236,
      "itedĠ": 2237,
      "ash": 2238,
      "AT": 2239,
      "leg": 2240,
      "æµĭ": 2241,
      "inv": 2242,
      "èĩªå·±çļĦ": 2243,
      "asĠtheĠ": 2244,
      "lab": 2245,
      "gener": 2246,
      "ort": 2247,
      "å¼Ģå§ĭ": 2248,
      "ie": 2249,
      ":Ġ'": 2250,
      "********": 2251,
      "s.ĊĊ": 2252,
      "èĭı": 2253,
      "ingsĠ": 2254,
      "196": 2255,
      "çļĩ": 2256,
      "ine": 2257,
      "æĸ¼": 2258,
      "->Ġ": 2259,
      "åıĮ": 2260,
      "ementĠ": 2261,
      "èīº": 2262,
      "ifĠ(": 2263,
      "secon": 2264,
      "bre": 2265,
      "mu": 2266,
      "evenĠ": 2267,
      "met": 2268,
      "Ad": 2269,
      "éĸ": 2270,
      "è·Ł": 2271,
      "å¼Ĥ": 2272,
      "éĿ©": 2273,
      "å½ķ": 2274,
      "foo": 2275,
      "cri": 2276,
      "ä¸Ĭï¼Į": 2277,
      "åıĭ": 2278,
      "å¯Ĩ": 2279,
      "letĠ": 2280,
      "é£ŀ": 2281,
      "differ": 2282,
      "ä¸įåĲĮ": 2283,
      "çĶŁæ´»": 2284,
      "æľįåĬ¡": 2285,
      "ock": 2286,
      "YouĠ": 2287,
      ":Ċ": 2288,
      "æ½": 2289,
      "åĪļ": 2290,
      "dur": 2291,
      "defin": 2292,
      "sideĠ": 2293,
      "Ċĉĉĉ": 2294,
      "oup": 2295,
      "la": 2296,
      "publicĠ": 2297,
      "varĠ": 2298,
      "éĻ©": 2299,
      "withĠaĠ": 2300,
      "classĠ": 2301,
      "èĩ£": 2302,
      "I'": 2303,
      "å½Ĵ": 2304,
      "cle": 2305,
      "ook": 2306,
      "es.": 2307,
      "å²ģ": 2308,
      "çļĨ": 2309,
      "bothĠ": 2310,
      "åĲĹ": 2311,
      "æİ§": 2312,
      "();": 2313,
      "åįı": 2314,
      "ance": 2315,
      "Error": 2316,
      "è¿ĺæĺ¯": 2317,
      "follow": 2318,
      "æİĴ": 2319,
      "workĠ": 2320,
      "Op": 2321,
      "jo": 2322,
      "ST": 2323,
      "å®Ŀ": 2324,
      "any": 2325,
      "peopleĠ": 2326,
      "ç»Ŀ": 2327,
      "eld": 2328,
      "print": 2329,
      "åįĩ": 2330,
      "sm": 2331,
      "ä¸ĬçļĦ": 2332,
      "åĽ´": 2333,
      ".ĠD": 2334,
      "ç»Ħç»ĩ": 2335,
      "çĶļ": 2336,
      "æŁĲ": 2337,
      "éĹ»": 2338,
      "åºķ": 2339,
      "æī¾": 2340,
      "åĬ¿": 2341,
      "çĵ": 2342,
      "å¥ĩ": 2343,
      "key": 2344,
      "old": 2345,
      "ĊĊĊ": 2346,
      "ement": 2347,
      "functionĠ": 2348,
      "ï¼ĮéĤ£": 2349,
      "ï¼Įå°±": 2350,
      "åį·": 2351,
      "éķĩ": 2352,
      "atingĠ": 2353,
      "ç¤¼": 2354,
      "ge": 2355,
      "å±Ĥ": 2356,
      "../": 2357,
      "è¿°": 2358,
      "ãĢĤâĢľ": 2359,
      "æĻ®": 2360,
      "eĠandĠ": 2361,
      "not": 2362,
      "40": 2363,
      "32": 2364,
      "bel": 2365,
      "æĢİä¹Ī": 2366,
      "æ¿": 2367,
      "åĩ»": 2368,
      "é¡»": 2369,
      "æĿĢ": 2370,
      "OR": 2371,
      "shi": 2372,
      "éĩįè¦ģ": 2373,
      "10Ġ": 2374,
      "inde": 2375,
      "vari": 2376,
      "==Ġ": 2377,
      "Ser": 2378,
      "sĠ=Ġ": 2379,
      "meric": 2380,
      "è¿Ļæł·": 2381,
      "(f": 2382,
      "è¯¸": 2383,
      "èįī": 2384,
      "çµ": 2385,
      "ator": 2386,
      "åºı": 2387,
      "tot": 2388,
      "æī§": 2389,
      "artĠ": 2390,
      "try": 2391,
      "ä½Ļ": 2392,
      "main": 2393,
      "queĠ": 2394,
      "}Ċ": 2395,
      "shouldĠ": 2396,
      "ank": 2397,
      "åĶĲ": 2398,
      "ä¹ħ": 2399,
      "è¶ħ": 2400,
      "Americ": 2401,
      "AR": 2402,
      "amil": 2403,
      "æ¸©": 2404,
      "None": 2405,
      "cr": 2406,
      "le,Ġ": 2407,
      "atch": 2408,
      "åĲĥ": 2409,
      "ativeĠ": 2410,
      "bod": 2411,
      "å¯Ł": 2412,
      "curr": 2413,
      "sĊ": 2414,
      "å³": 2415,
      "5.": 2416,
      "sta": 2417,
      "tern": 2418,
      "madeĠ": 2419,
      "éĥ¨åĪĨ": 2420,
      "Âł": 2421,
      "ä¼¤": 2422,
      "èĪ¬": 2423,
      "oci": 2424,
      "sl": 2425,
      "(Ġ": 2426,
      ")Ġ->Ġ": 2427,
      "åĪ»": 2428,
      "åı«": 2429,
      "ationĠofĠ": 2430,
      "å¯Į": 2431,
      "æĿĲ": 2432,
      "Fi": 2433,
      "ç¦ı": 2434,
      "é¼": 2435,
      "pp": 2436,
      "çĳ": 2437,
      "ull": 2438,
      "arch": 2439,
      "Str": 2440,
      "çªģ": 2441,
      "model": 2442,
      "result": 2443,
      "çİī": 2444,
      "NewĠ": 2445,
      "èĽ": 2446,
      "é½": 2447,
      "åĿĲ": 2448,
      "ä»ĭ": 2449,
      "èĦ¸": 2450,
      "Ac": 2451,
      "LĠ": 2452,
      "sist": 2453,
      "å¤ľ": 2454,
      "çł´": 2455,
      "è´¢": 2456,
      "22": 2457,
      "EN": 2458,
      "CĠ": 2459,
      "az": 2460,
      "\"\"\"ĊĠĠĠĠĠĠĠĠ": 2461,
      "putĠ": 2462,
      "è¯¾": 2463,
      "'reĠ": 2464,
      "ãĥ": 2465,
      "uallyĠ": 2466,
      "veryĠ": 2467,
      "Di": 2468,
      "çĶ°": 2469,
      "(x": 2470,
      "ä¸¥": 2471,
      "sĠareĠ": 2472,
      "Pl": 2473,
      "0,Ġ": 2474,
      "æīĢæľī": 2475,
      "æĹ¢": 2476,
      "è¡£": 2477,
      "theĠs": 2478,
      "mayĠ": 2479,
      ".ĠWh": 2480,
      "è®¾è®¡": 2481,
      "del": 2482,
      "å®Ī": 2483,
      "thin": 2484,
      "doc": 2485,
      "ere": 2486,
      "é¢Ħ": 2487,
      "çŁ£": 2488,
      "å»ºè®¾": 2489,
      "arn": 2490,
      "*/": 2491,
      "å·®": 2492,
      "alse": 2493,
      "ä»ħ": 2494,
      "Sc": 2495,
      "ãĢĤæĪĳ": 2496,
      "ultĠ": 2497,
      "arm": 2498,
      "heyĠ": 2499,
      "åī¯": 2500,
      "çļĦæĺ¯": 2501,
      "indĠ": 2502,
      "edĠandĠ": 2503,
      "éĨ": 2504,
      "wid": 2505,
      "flo": 2506,
      "lif": 2507,
      "that": 2508,
      "åı¥": 2509,
      "èĢħï¼Į": 2510,
      "inst": 2511,
      "edĠonĠ": 2512,
      "194": 2513,
      "peri": 2514,
      "ä¹ĥ": 2515,
      "saidĠ": 2516,
      "under": 2517,
      "å¼Ł": 2518,
      "ä¹¡": 2519,
      "çķ¥": 2520,
      "larg": 2521,
      "pass": 2522,
      "å®¡": 2523,
      ".ĠThisĠ": 2524,
      "åķĬ": 2525,
      "child": 2526,
      "Ty": 2527,
      "åį«": 2528,
      "laĠ": 2529,
      "nor": 2530,
      "makeĠ": 2531,
      "tyĠ": 2532,
      "å¾ħ": 2533,
      "didĠ": 2534,
      "downĠ": 2535,
      "cas": 2536,
      "setĠ": 2537,
      "èŀ": 2538,
      "HeĠ": 2539,
      "å¤Ł": 2540,
      "ï¼İ": 2541,
      "heĠwasĠ": 2542,
      "AN": 2543,
      "æĸ¹æ³ķ": 2544,
      "åĳ¢": 2545,
      "config": 2546,
      "æ³¢": 2547,
      "åħ³ç³»": 2548,
      "æĥħåĨµ": 2549,
      "éĢģ": 2550,
      "è³": 2551,
      "rightĠ": 2552,
      "underĠ": 2553,
      "å°¼": 2554,
      "odĠ": 2555,
      "åį¡": 2556,
      "perĠ": 2557,
      "è¿ĻäºĽ": 2558,
      "ï¼Įåıª": 2559,
      "æ¬²": 2560,
      ">Ċ": 2561,
      "ofĠaĠ": 2562,
      "å¥ĸ": 2563,
      "å¸Į": 2564,
      ":ĊĊ": 2565,
      "px": 2566,
      "å¾ģ": 2567,
      "åı¦": 2568,
      "fulĠ": 2569,
      "tor": 2570,
      "aph": 2571,
      "æł¸": 2572,
      "=>Ġ": 2573,
      "æŀĲ": 2574,
      "urn": 2575,
      "rĠ": 2576,
      "åľ£": 2577,
      "ç¬¬ä¸ī": 2578,
      "ä¿¡æģ¯": 2579,
      "...": 2580,
      "åŃ¦çĶŁ": 2581,
      "ire": 2582,
      "è®²": 2583,
      "imp": 2584,
      "new": 2585,
      "men": 2586,
      "ï¼īï¼Į": 2587,
      "beingĠ": 2588,
      "sĠ(": 2589,
      "ost": 2590,
      "å´": 2591,
      "æ£Ģ": 2592,
      "å¤§çļĦ": 2593,
      ".ĊĊ\"": 2594,
      "èĸ": 2595,
      "ldĠ": 2596,
      "ãĤ": 2597,
      "å·¦": 2598,
      ",ĠwhichĠ": 2599,
      "sĠofĠtheĠ": 2600,
      "ticalĠ": 2601,
      "plic": 2602,
      "string": 2603,
      "ä¸ĭï¼Į": 2604,
      "åŃĲï¼Į": 2605,
      "IfĠ": 2606,
      "load": 2607,
      "åĪĺ": 2608,
      "æĸ¹éĿ¢": 2609,
      "00Ġ": 2610,
      "oughtĠ": 2611,
      "å®ĭ": 2612,
      "oper": 2613,
      "åħ¸": 2614,
      "åĳ³": 2615,
      "æĪĲä¸º": 2616,
      ",ĊĠĠĠĠĠĠĠĠĠĠĠĠĠĠĠĠ": 2617,
      "ä¸»ä¹ī": 2618,
      "He": 2619,
      "aus": 2620,
      "function": 2621,
      "tre": 2622,
      "word": 2623,
      "color": 2624,
      "serv": 2625,
      "åĽŃ": 2626,
      "abl": 2627,
      "o,Ġ": 2628,
      "å°ļ": 2629,
      "bro": 2630,
      "threeĠ": 2631,
      "28": 2632,
      "mess": 2633,
      "view": 2634,
      "excep": 2635,
      "è¯į": 2636,
      "ern": 2637,
      "ici": 2638,
      "æ¤": 2639,
      "tak": 2640,
      ".\"Ġ": 2641,
      "bar": 2642,
      "âĢĿï¼Į": 2643,
      "éĥ½æĺ¯": 2644,
      "-1": 2645,
      "éĶĻ": 2646,
      "lock": 2647,
      "æľīä¸Ģ": 2648,
      "sum": 2649,
      "åħ°": 2650,
      "æıĲä¾Ľ": 2651,
      "2,Ġ": 2652,
      "åī§": 2653,
      "ek": 2654,
      "Sp": 2655,
      "æĻº": 2656,
      "rid": 2657,
      "ttp": 2658,
      "forĠaĠ": 2659,
      "return": 2660,
      "nameĠ": 2661,
      "ä»½": 2662,
      "æĿ¥çļĦ": 2663,
      "beforeĠ": 2664,
      "ç½ª": 2665,
      "è¯ī": 2666,
      "åº·": 2667,
      "sĠthatĠ": 2668,
      "seeĠ": 2669,
      "dn'tĠ": 2670,
      "ys": 2671,
      ":Ġ{": 2672,
      "value": 2673,
      "mul": 2674,
      "ç§ĳåŃ¦": 2675,
      "ml": 2676,
      "ç´§": 2677,
      "itĠwasĠ": 2678,
      "ç»§": 2679,
      "çĩ": 2680,
      "yĠandĠ": 2681,
      "air": 2682,
      "å®£": 2683,
      "yn": 2684,
      "byĠtheĠ": 2685,
      "åŃ¸": 2686,
      "èĩªçĦ¶": 2687,
      "selfĠ": 2688,
      ")Ġ=Ġ": 2689,
      "findĠ": 2690,
      ".ĠL": 2691,
      "####": 2692,
      "ä½ľä¸º": 2693,
      "ven": 2694,
      "stand": 2695,
      "stor": 2696,
      "land": 2697,
      "ribut": 2698,
      "bĠ": 2699,
      "çŀ": 2700,
      "é¡¹çĽ®": 2701,
      "é¡¾": 2702,
      "æĭ¬": 2703,
      "æ´»åĬ¨": 2704,
      "================": 2705,
      "tillĠ": 2706,
      "çº³": 2707,
      "List": 2708,
      "åŃ¦æł¡": 2709,
      "èµĽ": 2710,
      "becauseĠ": 2711,
      "nec": 2712,
      "6.": 2713,
      "åĿĩ": 2714,
      "numberĠofĠ": 2715,
      "23": 2716,
      "appe": 2717,
      "åłĤ": 2718,
      "famil": 2719,
      "åı³": 2720,
      "ide": 2721,
      "aveĠ": 2722,
      "åįļ": 2723,
      "edĠwithĠ": 2724,
      "è®Ń": 2725,
      "27": 2726,
      "åħħ": 2727,
      "èī¯": 2728,
      "å¨ģ": 2729,
      "aĠh": 2730,
      "ument": 2731,
      "æĻļ": 2732,
      "lim": 2733,
      "æĭħ": 2734,
      "ott": 2735,
      "sch": 2736,
      "çļ®": 2737,
      "ç¥ĸ": 2738,
      "user": 2739,
      "error": 2740,
      "ä¸´": 2741,
      ",Ġ\"": 2742,
      "è²": 2743,
      "car": 2744,
      "è§Ħå®ļ": 2745,
      "åĲ¦": 2746,
      "æ¬¢": 2747,
      "date": 2748,
      "ç§ĭ": 2749,
      "å¾Į": 2750,
      "èĭ¦": 2751,
      "auth": 2752,
      ".ĊĊTheĠ": 2753,
      "èĥĮ": 2754,
      "ä½łçļĦ": 2755,
      "af": 2756,
      "):Ġ": 2757,
      "eg": 2758,
      "åİĨåı²": 2759,
      "{ĊĠĠ": 2760,
      "sty": 2761,
      "èĹı": 2762,
      "åİĭ": 2763,
      "neĠ": 2764,
      "çĶŁäº§": 2765,
      "æĭ¿": 2766,
      "æī¹": 2767,
      "æķ£": 2768,
      "åŃ©åŃĲ": 2769,
      "èĥ½åĬĽ": 2770,
      "æĻĤ": 2771,
      "yĠofĠ": 2772,
      "]Ġ=Ġ": 2773,
      "ĊTheĠ": 2774,
      "æĪĸèĢħ": 2775,
      "âĢĿçļĦ": 2776,
      "éł": 2777,
      "mark": 2778,
      "ĊĊĠĠĠĠdefĠ": 2779,
      "åĬ³": 2780,
      "led": 2781,
      "nowĠ": 2782,
      "whileĠ": 2783,
      "ãĢĤä½Ĩ": 2784,
      "æ¥ļ": 2785,
      "udeĠ": 2786,
      "åĵ¥": 2787,
      "åľ°æĸ¹": 2788,
      "):ĊĠĠĠĠĠĠĠĠ": 2789,
      "Cont": 2790,
      "Ã¤": 2791,
      "ence": 2792,
      "char": 2793,
      "s(": 2794,
      "çŃĶ": 2795,
      "çıŃ": 2796,
      "æĩ": 2797,
      "intoĠtheĠ": 2798,
      "ï¼Įå¥¹": 2799,
      "åºĹ": 2800,
      "knowĠ": 2801,
      "tionĠofĠ": 2802,
      "said": 2803,
      "åĨ·": 2804,
      "medi": 2805,
      "å¸Ĥåľº": 2806,
      "ivers": 2807,
      "60": 2808,
      "unĠ": 2809,
      "åħį": 2810,
      "è®¤ä¸º": 2811,
      "Joh": 2812,
      "fer": 2813,
      "é¹": 2814,
      "195": 2815,
      "è»": 2816,
      "Ċ#Ġ": 2817,
      "ä½Ľ": 2818,
      "present": 2819,
      "å®«": 2820,
      "è¿Ļç§į": 2821,
      "Ph": 2822,
      "Wor": 2823,
      "åĵª": 2824,
      "å½±åĵį": 2825,
      "----------------": 2826,
      "p.": 2827,
      "formĠ": 2828,
      "éĵ¶": 2829,
      "esĠtheĠ": 2830,
      "éĻį": 2831,
      "ax": 2832,
      "ret": 2833,
      "ris": 2834,
      "æĦ¿": 2835,
      "abil": 2836,
      "éĻĦ": 2837,
      "ãĢĤä»ĸ": 2838,
      "muchĠ": 2839,
      "canĠbeĠ": 2840,
      ");ĊĠĠĠĠ": 2841,
      ",ĠweĠ": 2842,
      "pow": 2843,
      "Dat": 2844,
      "SE": 2845,
      "vingĠ": 2846,
      "åıĳçİ°": 2847,
      "edĠinĠtheĠ": 2848,
      "æĸ¹å¼ı": 2849,
      "ãĢĤèĢĮ": 2850,
      "ç§»": 2851,
      "Ste": 2852,
      "dep": 2853,
      "æ´¾": 2854,
      "DE": 2855,
      "lec": 2856,
      "ç¶": 2857,
      "cal": 2858,
      "dataĠ": 2859,
      "æ¹ĸ": 2860,
      "actĠ": 2861,
      "éĩĬ": 2862,
      "eas": 2863,
      "æ¬¾": 2864,
      "åĢĴ": 2865,
      "devel": 2866,
      "è¿Ļä¸Ģ": 2867,
      "åŁºæľ¬": 2868,
      "åį°": 2869,
      "æľĥ": 2870,
      "ä¸įä¼ļ": 2871,
      "æ¦Ĥ": 2872,
      "ah": 2873,
      "e:Ġ": 2874,
      "LE": 2875,
      "e,ĠandĠ": 2876,
      "tilĠ": 2877,
      "stit": 2878,
      "class=\"": 2879,
      "åĪ¤": 2880,
      "æĪĳçļĦ": 2881,
      "s_": 2882,
      "èĵ": 2883,
      "å®ģ": 2884,
      "ç«¯": 2885,
      "ingĠandĠ": 2886,
      "éĶĢ": 2887,
      ",00": 2888,
      "éĺ´": 2889,
      "éĿĻ": 2890,
      "esĠtoĠ": 2891,
      "llĠ": 2892,
      "geĠ": 2893,
      "shipĠ": 2894,
      "show": 2895,
      "éĢĢ": 2896,
      "åŁ¹": 2897,
      "eff": 2898,
      "è½½": 2899,
      "è©": 2900,
      "å¤ı": 2901,
      "max": 2902,
      "æĭ©": 2903,
      "leng": 2904,
      "æ¥¼": 2905,
      "ht": 2906,
      "alsĠ": 2907,
      "lement": 2908,
      "osĠ": 2909,
      "suc": 2910,
      "ularĠ": 2911,
      "pop": 2912,
      "provid": 2913,
      "pack": 2914,
      "dayĠ": 2915,
      "ai": 2916,
      "achĠ": 2917,
      "ItĠ": 2918,
      "ä¸¤ä¸ª": 2919,
      "å®īåħ¨": 2920,
      "Nor": 2921,
      "event": 2922,
      "æĢ¥": 2923,
      "ç´¢": 2924,
      "teĠ": 2925,
      "open": 2926,
      "æłĳ": 2927,
      "earĠ": 2928,
      "Ev": 2929,
      "cour": 2930,
      "20Ġ": 2931,
      "èµ·æĿ¥": 2932,
      "againstĠ": 2933,
      "edĠbyĠtheĠ": 2934,
      "contin": 2935,
      "ickĠ": 2936,
      "ces": 2937,
      "ä»¥åıĬ": 2938,
      "çĽĸ": 2939,
      "ed_": 2940,
      "æ°¸": 2941,
      "åĨħå®¹": 2942,
      "å§Ķåĳĺ": 2943,
      "()Ġ": 2944,
      "direct": 2945,
      "è¿½": 2946,
      "wom": 2947,
      "æķ¢": 2948,
      "åĽłæŃ¤": 2949,
      "å°ģ": 2950,
      "çĹĽ": 2951,
      "çļĦäºĭ": 2952,
      "èĥľ": 2953,
      "26": 2954,
      "èŀį": 2955,
      "lineĠ": 2956,
      "ies": 2957,
      "èĦĳ": 2958,
      "tionalĠ": 2959,
      "ä¹ĭéĹ´": 2960,
      "leas": 2961,
      "èĨ": 2962,
      "è¦ģæ±Ĥ": 2963,
      "è°ģ": 2964,
      "èİ«": 2965,
      "aroundĠ": 2966,
      "Qu": 2967,
      "url": 2968,
      "åĮħæĭ¬": 2969,
      "defa": 2970,
      "ernĠ": 2971,
      "stem": 2972,
      "çİ¯å¢ĥ": 2973,
      "äºĮåįģ": 2974,
      "ä¸ľè¥¿": 2975,
      "IT": 2976,
      "ĊfromĠ": 2977,
      "éĽ¨": 2978,
      "zĠ": 2979,
      "s/": 2980,
      "box": 2981,
      "stud": 2982,
      "mustĠ": 2983,
      "orig": 2984,
      "\",Ġ\"": 2985,
      "ç¯ĩ": 2986,
      "è°¢": 2987,
      "ä¸Ńå¿ĥ": 2988,
      "ĊâĢľ": 2989,
      "()Ġ{": 2990,
      "ä»£è¡¨": 2991,
      "edĠthatĠ": 2992,
      "mor": 2993,
      "thoughĠ": 2994,
      "Ret": 2995,
      "mus": 2996,
      "æĶ»": 2997,
      "è´µ": 2998,
      "knownĠ": 2999,
      ".ĠP": 3000,
      "çĻ»": 3001,
      "ä¸įåı¯": 3002,
      "æį¢": 3003,
      "åĵĪ": 3004,
      "æĹ¥ï¼Į": 3005,
      "meth": 3006,
      "åĿļ": 3007,
      "thoseĠ": 3008,
      "ros": 3009,
      "éĻĨ": 3010,
      "Au": 3011,
      "ityĠofĠ": 3012,
      "PĠ": 3013,
      "['": 3014,
      "äº§åĵģ": 3015,
      "$\\": 3016,
      "by": 3017,
      "7.": 3018,
      "http": 3019,
      "ç¡Ģ": 3020,
      "tsĠ": 3021,
      "åģ¥": 3022,
      "ĊĠĠĠĠĠĠĠĠĠĠ": 3023,
      "èĤ¡": 3024,
      "wellĠ": 3025,
      "top": 3026,
      "29": 3027,
      "stillĠ": 3028,
      "åģľ": 3029,
      "åŁºç¡Ģ": 3030,
      "Tim": 3031,
      ",ĠaĠ": 3032,
      "Ċ-Ġ": 3033,
      "åĲ«": 3034,
      "å·¥ç¨ĭ": 3035,
      "æĥĬ": 3036,
      "åĽ½éĻħ": 3037,
      "givenĠ": 3038,
      "å·Ŀ": 3039,
      "æīĺ": 3040,
      "æķ°æį®": 3041,
      "æĿ¿": 3042,
      "æĸĹ": 3043,
      "edĠforĠ": 3044,
      "å¦Ĥä½ķ": 3045,
      "emberĠ": 3046,
      "è¡ĮæĶ¿": 3047,
      "ï¼īĠ": 3048,
      "èĪĩ": 3049,
      "import": 3050,
      "å§Ĳ": 3051,
      "çĸĳ": 3052,
      "é½Ĳ": 3053,
      "epĠ": 3054,
      ".get": 3055,
      "éĵģ": 3056,
      "servic": 3057,
      ")ĊĠĠĠĠĠĠĠĠĠĠĠĠ": 3058,
      "åıĳçĶŁ": 3059,
      "ç»ĥ": 3060,
      "left": 3061,
      "ativ": 3062,
      "rang": 3063,
      "ç¾İåĽ½": 3064,
      "å¸®": 3065,
      "ship": 3066,
      "åĨ²": 3067,
      "gen": 3068,
      "æģ¶": 3069,
      "fri": 3070,
      "äºĴ": 3071,
      "expect": 3072,
      "offĠ": 3073,
      "al,Ġ": 3074,
      "ç§¦": 3075,
      "uaryĠ": 3076,
      ".ĠButĠ": 3077,
      "hist": 3078,
      "bin": 3079,
      "åŃ¦ä¹ł": 3080,
      "æ¿Ģ": 3081,
      "ĊimportĠ": 3082,
      "Co": 3083,
      "Ro": 3084,
      "æİĪ": 3085,
      "(f\"": 3086,
      "untilĠ": 3087,
      "åĪĨæŀĲ": 3088,
      ".ĠSheĠ": 3089,
      "code": 3090,
      "tingĠ": 3091,
      "Coun": 3092,
      ",ĊĠĠ": 3093,
      "è¡¥": 3094,
      "don'tĠ": 3095,
      "contain": 3096,
      "æ²Ļ": 3097,
      "åıªæĺ¯": 3098,
      "!Ġ": 3099,
      "ä»į": 3100,
      "Vi": 3101,
      "wasĠaĠ": 3102,
      "åģĩ": 3103,
      "ni": 3104,
      "foundĠ": 3105,
      "item": 3106,
      "Bo": 3107,
      "ç«Ł": 3108,
      "^2": 3109,
      "æĹ§": 3110,
      "ï¼Įå¯¹": 3111,
      "ç«łĠ": 3112,
      "Mod": 3113,
      "ef": 3114,
      "1å¹´": 3115,
      "ation,Ġ": 3116,
      "æĪı": 3117,
      "s.ĠTheĠ": 3118,
      "roll": 3119,
      "ï¼Įä¸º": 3120,
      "ĊĠ*Ġ": 3121,
      "build": 3122,
      "çĸĹ": 3123,
      "æ¢¦": 3124,
      "éĥ¨éĹ¨": 3125,
      "answ": 3126,
      "åĹ": 3127,
      ".ĠAĠ": 3128,
      "å°Ħ": 3129,
      "éģĩ": 3130,
      "timesĠ": 3131,
      "eck": 3132,
      "goĠ": 3133,
      "raw": 3134,
      "tal": 3135,
      "åĽº": 3136,
      "æĢĢ": 3137,
      "Ċ#": 3138,
      "lessĠ": 3139,
      "ä¼¯": 3140,
      "ä¹±": 3141,
      "on,Ġ": 3142,
      "vol": 3143,
      "æĴŃ": 3144,
      "proble": 3145,
      "é¡º": 3146,
      "takeĠ": 3147,
      "ç©¿": 3148,
      "?ĊĊ": 3149,
      "other": 3150,
      ".\"ĊĊ\"": 3151,
      "fact": 3152,
      "hadĠbeenĠ": 3153,
      "feat": 3154,
      "åŃĺåľ¨": 3155,
      "otĠ": 3156,
      "èĢ³": 3157,
      "',Ġ'": 3158,
      "request": 3159,
      "åĩºçīĪ": 3160,
      "æĢķ": 3161,
      "ç§Ģ": 3162,
      "åĲĮæĹ¶": 3163,
      "æĿ¾": 3164,
      "åħ·æľī": 3165,
      "åĲī": 3166,
      "åŃĻ": 3167,
      "åºŃ": 3168,
      "å®ľ": 3169,
      "FĠ": 3170,
      "hou": 3171,
      "ä¿ĿæĬ¤": 3172,
      "down": 3173,
      "py": 3174,
      "graph": 3175,
      "çļĦæĹ¶åĢĻ": 3176,
      "develop": 3177,
      "hum": 3178,
      "buil": 3179,
      "ãĢĭï¼Į": 3180,
      "den": 3181,
      "tonĠ": 3182,
      "_id": 3183,
      "light": 3184,
      "æľīåħ³": 3185,
      "çŁŃ": 3186,
      "ĊĊĠ": 3187,
      "ä¹Łæĺ¯": 3188,
      "éģĹ": 3189,
      "ä¸ªäºº": 3190,
      "loo": 3191,
      "è¿ĩç¨ĭ": 3192,
      "éĽ·": 3193,
      "éĩİ": 3194,
      "åĲ´": 3195,
      "ĊĠĠĠĠĠĠĠĠself.": 3196,
      "éĩĮï¼Į": 3197,
      "vir": 3198,
      "ry": 3199,
      "ĠĠĠĠĠĠĠĠĠĠĠĠ": 3200,
      "Gre": 3201,
      "èĻļ": 3202,
      "ule": 3203,
      "everĠ": 3204,
      "äººåĳĺ": 3205,
      "train": 3206,
      "scrip": 3207,
      "partic": 3208,
      "3,Ġ": 3209,
      "`Ġ": 3210,
      "è¡Įä¸º": 3211,
      "èĶ": 3212,
      "withoutĠ": 3213,
      "Im": 3214,
      "åįł": 3215,
      "ç«¥": 3216,
      "s.Ċ": 3217,
      "æ¯Ĵ": 3218,
      "æ³ķå¾ĭ": 3219,
      "Be": 3220,
      "80": 3221,
      "ä¸Ģæł·": 3222,
      "æ¯Ľ": 3223,
      "éĢīæĭ©": 3224,
      "${": 3225,
      "çĿ£": 3226,
      "UnitedĠ": 3227,
      "}ĊĊĠĠ": 3228,
      ".ĠC": 3229,
      "ush": 3230,
      "esĠinĠ": 3231,
      "To": 3232,
      "Ã³": 3233,
      "8.": 3234,
      "spe": 3235,
      "è°Ī": 3236,
      "secondĠ": 3237,
      "æĶ¿æ²»": 3238,
      "ï¼Įè¿ĺ": 3239,
      "çĦ¶åĲİ": 3240,
      "origin": 3241,
      "21": 3242,
      ".ĠN": 3243,
      "ary": 3244,
      ",ĠandĠtheĠ": 3245,
      "åįķä½į": 3246,
      "3å¹´": 3247,
      "ä¸½": 3248,
      "longĠ": 3249,
      "è§īå¾Ĺ": 3250,
      "å«": 3251,
      "ianĠ": 3252,
      "tis": 3253,
      "du": 3254,
      "ä»»ä½ķ": 3255,
      "ground": 3256,
      "seas": 3257,
      "æ´²": 3258,
      "ater": 3259,
      "Ã¡": 3260,
      "æ²¹": 3261,
      "åĩ¡": 3262,
      "æĿĤ": 3263,
      "now": 3264,
      "owever": 3265,
      "éľ²": 3266,
      "ÃŃ": 3267,
      "ä¸ĵä¸ļ": 3268,
      "æĿ¨": 3269,
      "å¦ĤæŃ¤": 3270,
      "usingĠ": 3271,
      "åº§": 3272,
      "ï¼ĮæĪĳä»¬": 3273,
      "rop": 3274,
      "jectĠ": 3275,
      "dri": 3276,
      "sĠaĠ": 3277,
      "')": 3278,
      "ä»ĺ": 3279,
      "possi": 3280,
      "Dec": 3281,
      "èĻ½çĦ¶": 3282,
      "ï¼Įåı¯": 3283,
      "6å¹´": 3284,
      "AL": 3285,
      "5å¹´": 3286,
      "exist": 3287,
      "fic": 3288,
      "Per": 3289,
      "ãĢģãĢĬ": 3290,
      "enn": 3291,
      "AP": 3292,
      "edĠasĠ": 3293,
      "åħĪçĶŁ": 3294,
      "it'sĠ": 3295,
      "dir": 3296,
      "è¯´ï¼Į": 3297,
      "4å¹´": 3298,
      "param": 3299,
      "7å¹´": 3300,
      "åĳ¼": 3301,
      "edĠtoĠtheĠ": 3302,
      "sĠforĠ": 3303,
      "Arg": 3304,
      "ittleĠ": 3305,
      "Comm": 3306,
      "bur": 3307,
      "Pre": 3308,
      "èŃ¦": 3309,
      "çīĮ": 3310,
      "ded": 3311,
      "åľ°åĮº": 3312,
      "æ´Ľ": 3313,
      "193": 3314,
      "Li": 3315,
      "t,Ġ": 3316,
      "divid": 3317,
      "å¦Ī": 3318,
      "ger": 3319,
      ".ĠAn": 3320,
      "vern": 3321,
      "sĠwereĠ": 3322,
      "tion,Ġ": 3323,
      "neverĠ": 3324,
      "priv": 3325,
      "æł¹æį®": 3326,
      "äºĪ": 3327,
      "ï¼ĮåıĪ": 3328,
      "éĺ¶": 3329,
      ",Ċ": 3330,
      "çĽ´æİ¥": 3331,
      "Fe": 3332,
      "appro": 3333,
      "æķĳ": 3334,
      "åºĶè¯¥": 3335,
      "Po": 3336,
      "è¿Ļä¹Ī": 3337,
      "æľĪï¼Į": 3338,
      "æłĩåĩĨ": 3339,
      "èľ": 3340,
      "illi": 3341,
      "ä¸Ŀ": 3342,
      "éĴŁ": 3343,
      "çĬ¯": 3344,
      "bersĠ": 3345,
      "ç»ĵæŀĦ": 3346,
      "Ġç¬¬": 3347,
      "aut": 3348,
      "}$": 3349,
      "çĲĨè®º": 3350,
      "sour": 3351,
      "xĠ=Ġ": 3352,
      "å¯Ĵ": 3353,
      "erĠandĠ": 3354,
      "åŃ£": 3355,
      "åĲ¸": 3356,
      "2å¹´": 3357,
      "say": 3358,
      "WeĠ": 3359,
      "We": 3360,
      "åĩºçİ°": 3361,
      "ãĢĤä¸į": 3362,
      "exceptĠ": 3363,
      "æİ§åĪ¶": 3364,
      "sĊĊ": 3365,
      "pur": 3366,
      "æľºæŀĦ": 3367,
      "ques": 3368,
      "éĿŀå¸¸": 3369,
      "éĽª": 3370,
      "aff": 3371,
      ".ĊĠĠĠĠ": 3372,
      ".,Ġ": 3373,
      "èµµ": 3374,
      "look": 3375,
      "é¦Ĩ": 3376,
      "Se": 3377,
      ".ĠTheyĠ": 3378,
      "html": 3379,
      "uneĠ": 3380,
      "å¦»": 3381,
      "itĠisĠ": 3382,
      "5,Ġ": 3383,
      "ren": 3384,
      "long": 3385,
      "ToĠ": 3386,
      "ä½ľçĶ¨": 3387,
      "Man": 3388,
      "group": 3389,
      "comeĠ": 3390,
      ",ĊĊ": 3391,
      "leftĠ": 3392,
      "ward": 3393,
      "é¢Ŀ": 3394,
      "lead": 3395,
      "entlyĠ": 3396,
      "differentĠ": 3397,
      "sen": 3398,
      "ç£": 3399,
      "ession": 3400,
      "èİ·å¾Ĺ": 3401,
      "é¬": 3402,
      "lang": 3403,
      "true": 3404,
      "æ¯ķ": 3405,
      "Univers": 3406,
      "ID": 3407,
      "(1": 3408,
      "://": 3409,
      "hal": 3410,
      "landĠ": 3411,
      "Or": 3412,
      "arlyĠ": 3413,
      "å¤ĦçĲĨ": 3414,
      "ä½ľåĵģ": 3415,
      "åħ³äºİ": 3416,
      "å»ºç«ĭ": 3417,
      "å¿ħé¡»": 3418,
      "åĪ¶åº¦": 3419,
      "çŃĳ": 3420,
      "æİ¢": 3421,
      "AmericanĠ": 3422,
      "tookĠ": 3423,
      "æ²ī": 3424,
      "ä¼Ĭ": 3425,
      "oupĠ": 3426,
      "object": 3427,
      "isionĠ": 3428,
      "ryĠ": 3429,
      "åį±": 3430,
      "'dĠ": 3431,
      "sq": 3432,
      "sing": 3433,
      "e,ĠtheĠ": 3434,
      "4,Ġ": 3435,
      "ä¹°": 3436,
      "MĠ": 3437,
      "è¸": 3438,
      "AS": 3439,
      "Me": 3440,
      "å¥½çļĦ": 3441,
      ".ĠIfĠ": 3442,
      "ï¼Įä»İ": 3443,
      "åĩı": 3444,
      "èĤī": 3445,
      "\"ĊĊ\"": 3446,
      "wantĠ": 3447,
      "èµĦæºĲ": 3448,
      "å¹¸": 3449,
      "rece": 3450,
      "UR": 3451,
      "sw": 3452,
      "å®ŀéĻħ": 3453,
      "thinkĠ": 3454,
      "sameĠ": 3455,
      "ç²¾ç¥ŀ": 3456,
      "odeĠ": 3457,
      "çļĦâĢľ": 3458,
      "CO": 3459,
      "æķĻåŃ¦": 3460,
      "sinceĠ": 3461,
      "an,Ġ": 3462,
      "erĠofĠ": 3463,
      "initi": 3464,
      "æģ©": 3465,
      "ace": 3466,
      "stre": 3467,
      "äººãĢĤ": 3468,
      "ä¸ºäºĨ": 3469,
      "çĶ³": 3470,
      "è¯ļ": 3471,
      "inform": 3472,
      "proper": 3473,
      ":ĊĠĠĠĠĠĠĠĠĠĠĠĠĠĠĠĠ": 3474,
      "è´Łè´£": 3475,
      "ä¹Łä¸į": 3476,
      "label": 3477,
      "govern": 3478,
      "dom": 3479,
      "ä¹ĭä¸Ģ": 3480,
      "on-": 3481,
      "æ¸¯": 3482,
      "everyĠ": 3483,
      "examp": 3484,
      "crip": 3485,
      "ç¬Ķ": 3486,
      "tureĠ": 3487,
      "count": 3488,
      "fromĠ'": 3489,
      "ä¸¹": 3490,
      "hom": 3491,
      "use": 3492,
      "econ": 3493,
      "åºĵ": 3494,
      "èį£": 3495,
      "æĹħ": 3496,
      "gram": 3497,
      "cli": 3498,
      "Ge": 3499,
      "aleĠ": 3500,
      "map": 3501,
      "post": 3502,
      "Ã¶": 3503,
      "åĲ¾": 3504,
      "cĠ": 3505,
      "åºĬ": 3506,
      "æģĲ": 3507,
      "ender": 3508,
      ")ĠandĠ": 3509,
      "ä¸įå¾Ĺ": 3510,
      "æĬĹ": 3511,
      "æ©": 3512,
      "edĠhisĠ": 3513,
      "ç»ľ": 3514,
      "sever": 3515,
      "multi": 3516,
      "æıĲåĩº": 3517,
      "cir": 3518,
      ".ĠE": 3519,
      "goodĠ": 3520,
      "åª": 3521,
      "oft": 3522,
      "çĶ²": 3523,
      "appear": 3524,
      "elec": 3525,
      "éª¨": 3526,
      "Bl": 3527,
      "å°Ĭ": 3528,
      "8å¹´": 3529,
      "âĢĿãĢĤ": 3530,
      "æĬķèµĦ": 3531,
      "person": 3532,
      "[]": 3533,
      "esp": 3534,
      "iter": 3535,
      "åĿĹ": 3536,
      "ore": 3537,
      "AB": 3538,
      "æĹ¥æľ¬": 3539,
      "outhĠ": 3540,
      "åħ¨åĽ½": 3541,
      "tryĠ": 3542,
      "åĨ³å®ļ": 3543,
      "æĵį": 3544,
      "tainĠ": 3545,
      "my": 3546,
      "ä¸°": 3547,
      "éļĲ": 3548,
      "çŁ¥è¯Ĩ": 3549,
      "èĥ½å¤Ł": 3550,
      "äº¡": 3551,
      "organ": 3552,
      "åĢĭ": 3553,
      "å¦ĩ": 3554,
      "å§Ķåĳĺä¼ļ": 3555,
      "Gu": 3556,
      "âĢĺ": 3557,
      "ç¹": 3558,
      "ãĢĤåħ¶": 3559,
      "number": 3560,
      "æľ«": 3561,
      "totalĠ": 3562,
      "å¯¹äºİ": 3563,
      "ress": 3564,
      "ery": 3565,
      "len": 3566,
      "ld": 3567,
      "33": 3568,
      "Name": 3569,
      "fileĠ": 3570,
      "']": 3571,
      "Pr": 3572,
      "Jan": 3573,
      "ä»ģ": 3574,
      "åįģäºĮ": 3575,
      "placeĠ": 3576,
      "èĥ¡": 3577,
      "ãĢĤĊĊĊ": 3578,
      ".ĊĠ": 3579,
      "çİ©": 3580,
      "acc": 3581,
      "æħ¢": 3582,
      "å¨ĺ": 3583,
      "{ĊĠĠĠĠĠĠĠĠ": 3584,
      "Gener": 3585,
      "wasĠtheĠ": 3586,
      "ood": 3587,
      "åºĶçĶ¨": 3588,
      "è´¥": 3589,
      "valueĠ": 3590,
      "etherĠ": 3591,
      "qual": 3592,
      "æĭĽ": 3593,
      "rap": 3594,
      "activ": 3595,
      "'ĊĊ": 3596,
      "minut": 3597,
      "ç§ĺ": 3598,
      "12Ġ": 3599,
      "mightĠ": 3600,
      "çĽ¸åħ³": 3601,
      "IC": 3602,
      "wind": 3603,
      "æ²Ī": 3604,
      "è¾ĵ": 3605,
      "siveĠ": 3606,
      "});": 3607,
      "é¥°": 3608,
      "pat": 3609,
      "9å¹´": 3610,
      "(self,Ġ": 3611,
      "åĲĹï¼Ł": 3612,
      "field": 3613,
      "çĮ®": 3614,
      "ly,Ġ": 3615,
      "e'sĠ": 3616,
      "Engl": 3617,
      "æľīäºĽ": 3618,
      "éĽħ": 3619,
      "RO": 3620,
      "anotherĠ": 3621,
      "scho": 3622,
      "->": 3623,
      "incre": 3624,
      "lastĠ": 3625,
      "consi": 3626,
      "ç¿»": 3627,
      "Bu": 3628,
      "èĪ¹": 3629,
      "Bri": 3630,
      "é±": 3631,
      "ï¼Įå¤§": 3632,
      "atur": 3633,
      "ieĠ": 3634,
      "simp": 3635,
      "thing": 3636,
      "s:ĊĠĠĠĠĠĠĠĠ": 3637,
      "é¤": 3638,
      "é²ģ": 3639,
      "å¥Ĺ": 3640,
      "logg": 3641,
      "9.": 3642,
      "èĦļ": 3643,
      "æļĹ": 3644,
      "les": 3645,
      "ific": 3646,
      "å¥¥": 3647,
      "laterĠ": 3648,
      "AC": 3649,
      "commun": 3650,
      "aĠandĠ": 3651,
      "æİĮ": 3652,
      "ä¸ĢäºĽ": 3653,
      "å»¶": 3654,
      "[\"": 3655,
      "ĊĠĠ}ĊĊĠĠ": 3656,
      "æ¾": 3657,
      "å¥¹çļĦ": 3658,
      "Ger": 3659,
      "âĪ": 3660,
      "isĠnotĠ": 3661,
      "und": 3662,
      "stateĠ": 3663,
      "<Ġ": 3664,
      "includeĠ": 3665,
      "^{": 3666,
      "faceĠ": 3667,
      "çīĽ": 3668,
      "elseĠ": 3669,
      "è®¨": 3670,
      "éĤ£ä¸ª": 3671,
      "width": 3672,
      "å±ĭ": 3673,
      "}ĊĠĠĠĠ": 3674,
      "remain": 3675,
      "urĠ": 3676,
      "æĦŁè§ī": 3677,
      "åĮĹäº¬": 3678,
      "ia": 3679,
      "manag": 3680,
      "^2Ġ": 3681,
      ";ĊimportĠ": 3682,
      "çĶ±äºİ": 3683,
      "æĽ°ï¼ļâĢľ": 3684,
      "Cre": 3685,
      "ä»¥ä¸º": 3686,
      "ForĠ": 3687,
      "line": 3688,
      "\":Ġ": 3689,
      "Car": 3690,
      "ä»Ļ": 3691,
      "çļĦå¤§": 3692,
      "haveĠbeenĠ": 3693,
      "cover": 3694,
      "çĽĽ": 3695,
      "èĴĻ": 3696,
      "sequ": 3697,
      "}\")": 3698,
      "éĿł": 3699,
      "becameĠ": 3700,
      "ä¸Ģèµ·": 3701,
      "ingĠofĠ": 3702,
      "ä¸ĢèĪ¬": 3703,
      "targ": 3704,
      "åŁİå¸Ĥ": 3705,
      "è¯¯": 3706,
      "ç¨İ": 3707,
      "ä¾Ĩ": 3708,
      "require": 3709,
      "Br": 3710,
      "udi": 3711,
      "))": 3712,
      "littleĠ": 3713,
      "å¸Ń": 3714,
      "yearsĠ": 3715,
      "sit": 3716,
      "../../": 3717,
      "ç¼º": 3718,
      "å¯»": 3719,
      "å®ŀçİ°": 3720,
      "turn": 3721,
      "é±¼": 3722,
      "é¡¿": 3723,
      "imag": 3724,
      "çĻ¼": 3725,
      "eldĠ": 3726,
      "å½¢æĪĲ": 3727,
      "hour": 3728,
      "å¤®": 3729,
      "know": 3730,
      "T_": 3731,
      "è¡Ĺ": 3732,
      "åŃĶ": 3733,
      "éĤ£äºĽ": 3734,
      "}Ġ=Ġ": 3735,
      "input": 3736,
      "thir": 3737,
      "IS": 3738,
      "wa": 3739,
      "\\[": 3740,
      "happ": 3741,
      "t'sĠ": 3742,
      "hy": 3743,
      "sci": 3744,
      "regi": 3745,
      ",ĠM": 3746,
      "æĢĿæĥ³": 3747,
      ":ĊĠĠĠĠ\"\"\"ĊĠĠĠĠ": 3748,
      "æĢª": 3749,
      "AM": 3750,
      "complet": 3751,
      "äººä»¬": 3752,
      "ateĠtheĠ": 3753,
      "åĢŁ": 3754,
      "##Ġ": 3755,
      "\",": 3756,
      "ç»ĵæŀľ": 3757,
      "éĢĲ": 3758,
      "çĨŁ": 3759,
      "ution": 3760,
      "\\]": 3761,
      "edĠatĠ": 3762,
      "æľ±": 3763,
      "35": 3764,
      "perform": 3765,
      "36": 3766,
      "[0": 3767,
      "yingĠ": 3768,
      "ç·": 3769,
      "ï¼Įåį³": 3770,
      "sĠinĠtheĠ": 3771,
      "ector": 3772,
      "åĲĪä½ľ": 3773,
      "want": 3774,
      "äº®": 3775,
      "tĠofĠtheĠ": 3776,
      "bus": 3777,
      "doesĠ": 3778,
      "Pol": 3779,
      "åºĶå½ĵ": 3780,
      "åħĦ": 3781,
      "need": 3782,
      "UL": 3783,
      "æ¸Ĳ": 3784,
      "45": 3785,
      "æĺ¯åľ¨": 3786,
      "inte": 3787,
      "ç¬¦": 3788,
      "æŀ¶": 3789,
      "ä»·åĢ¼": 3790,
      "æ¬§": 3791,
      "Ã¼": 3792,
      "åĪº": 3793,
      "ä½³": 3794,
      "_{": 3795,
      "ï¼Įä»ĸä»¬": 3796,
      "Return": 3797,
      "war": 3798,
      "reas": 3799,
      "True": 3800,
      "state": 3801,
      "t.": 3802,
      "expres": 3803,
      "Lo": 3804,
      "æŁĵ": 3805,
      "ric": 3806,
      "èīºæľ¯": 3807,
      "book": 3808,
      "ĠandĠ": 3809,
      "ä¸ģ": 3810,
      "action": 3811,
      "åĪĳ": 3812,
      "è´§": 3813,
      "ç¥¨": 3814,
      "tĠtheĠ": 3815,
      "ç§ģ": 3816,
      "tenĠ": 3817,
      "æ¡¥": 3818,
      "OnĠ": 3819,
      "cameĠ": 3820,
      ":Ġstr": 3821,
      "éŃĶ": 3822,
      "ç¦ģ": 3823,
      "akĠ": 3824,
      "readyĠ": 3825,
      "Cor": 3826,
      "ignĠ": 3827,
      "å®Įåħ¨": 3828,
      "2010": 3829,
      "assert": 3830,
      "oneĠofĠtheĠ": 3831,
      "Mo": 3832,
      "waysĠ": 3833,
      "æĶ¿çŃĸ": 3834,
      "fewĠ": 3835,
      "æ¤į": 3836,
      "æĭ¥": 3837,
      "è®¡åĪĴ": 3838,
      "ä¸ĢçĽ´": 3839,
      "ingĠinĠ": 3840,
      "pointĠ": 3841,
      "allow": 3842,
      "éĽĦ": 3843,
      "æĤ¨": 3844,
      "ä¾¯": 3845,
      ",ĠheĠ": 3846,
      "æ¯«": 3847,
      "ated": 3848,
      "ä¸Ģç§į": 3849,
      "process": 3850,
      "US": 3851,
      "åŃ¦éĻ¢": 3852,
      "title": 3853,
      "array": 3854,
      "ei": 3855,
      "åĩºæĿ¥": 3856,
      "å¡Ķ": 3857,
      "hor": 3858,
      "gg": 3859,
      "ä¼ĳ": 3860,
      "ãĢĭãĢģãĢĬ": 3861,
      "a.": 3862,
      "å©ļ": 3863,
      "voidĠ": 3864,
      "index": 3865,
      "Sy": 3866,
      "={": 3867,
      "releas": 3868,
      "system": 3869,
      "ity,Ġ": 3870,
      "çİ°ä»£": 3871,
      "every": 3872,
      "çĬ¹": 3873,
      "tog": 3874,
      "èĤ¯": 3875,
      "å§ĵ": 3876,
      "sett": 3877,
      "Ob": 3878,
      "Value": 3879,
      "(2": 3880,
      "rowĠ": 3881,
      "at'sĠ": 3882,
      "å½¼": 3883,
      "TH": 3884,
      "option": 3885,
      "iredĠ": 3886,
      "issu": 3887,
      "éĥİ": 3888,
      "éŁ©": 3889,
      "çļĦè¯Ŀ": 3890,
      "valid": 3891,
      "Te": 3892,
      "wentĠ": 3893,
      "wal": 3894,
      "np.": 3895,
      "net": 3896,
      "Char": 3897,
      "ç¸": 3898,
      "toĠaĠ": 3899,
      "ä¹ĭåīį": 3900,
      "rt": 3901,
      "åĬŁèĥ½": 3902,
      "headĠ": 3903,
      "--Ġ": 3904,
      ">ĊĠĠĠĠ": 3905,
      "äº§çĶŁ": 3906,
      "lex": 3907,
      "æĶ¯æĮģ": 3908,
      "çĽ®æłĩ": 3909,
      "default": 3910,
      "I'mĠ": 3911,
      "}ĊĊĠĠĠĠ": 3912,
      "ori": 3913,
      "çī¹åĪ«": 3914,
      ".ĊĊĠĠĠĠ": 3915,
      "tow": 3916,
      "ankĠ": 3917,
      "æľĭ": 3918,
      "çĶļèĩ³": 3919,
      ".ĠR": 3920,
      "poli": 3921,
      "åĽ°": 3922,
      "æĮ¥": 3923,
      "å¾Īå¤ļ": 3924,
      "squ": 3925,
      "èģļ": 3926,
      "éĺµ": 3927,
      "æįŁ": 3928,
      "stemĠ": 3929,
      "ers,Ġ": 3930,
      "nav": 3931,
      "å¿½": 3932,
      "didn'tĠ": 3933,
      "çĥĪ": 3934,
      "somethingĠ": 3935,
      "fourĠ": 3936,
      "å½©": 3937,
      "000": 3938,
      "content": 3939,
      "idd": 3940,
      "å¾¡": 3941,
      "ä¹ĭï¼Į": 3942,
      "wouldĠbeĠ": 3943,
      "ateg": 3944,
      "JohnĠ": 3945,
      "onĠaĠ": 3946,
      "earlyĠ": 3947,
      "ermin": 3948,
      "Option": 3949,
      "æķħäºĭ": 3950,
      "Yor": 3951,
      "æ··": 3952,
      "åĨ°": 3953,
      "ä¿ĥ": 3954,
      "wardĠ": 3955,
      "èĦ±": 3956,
      "90": 3957,
      "å¤©ä¸ĭ": 3958,
      "çį": 3959,
      "cer": 3960,
      "step": 3961,
      "éģ¿": 3962,
      "nextĠ": 3963,
      "al_": 3964,
      "å¼Ģåıĳ": 3965,
      "uni": 3966,
      "æľĢåĲİ": 3967,
      ",000Ġ": 3968,
      "Wi": 3969,
      "æıĲé«ĺ": 3970,
      "get_": 3971,
      "YĠ": 3972,
      "è¾ĳ": 3973,
      "ç»¿": 3974,
      "2018": 3975,
      "è¿ĻéĩĮ": 3976,
      "record": 3977,
      ";Ċĉ": 3978,
      "åĶ±": 3979,
      "å¾ĹåĪ°": 3980,
      "suchĠasĠ": 3981,
      "pxĠ": 3982,
      "tedĠ": 3983,
      "0x": 3984,
      "æĢ§çļĦ": 3985,
      "join": 3986,
      "``": 3987,
      ";ĊĠĠĠĠĠĠĠĠ": 3988,
      "Cent": 3989,
      "éĢĻ": 3990,
      "ireĠ": 3991,
      "privateĠ": 3992,
      "70": 3993,
      "else": 3994,
      "Type": 3995,
      "leĠofĠ": 3996,
      "prot": 3997,
      ">ĊĠĠĠĠĠĠĠĠĠĠĠĠ": 3998,
      "2000": 3999,
      "æĭį": 4000,
      "Stat": 4001,
      "è½¯": 4002,
      "æ´ĭ": 4003,
      "çĪ·": 4004,
      "></": 4005,
      "sor": 4006,
      "å°¤": 4007,
      "lob": 4008,
      "Eu": 4009,
      "å·¨": 4010,
      "åĪĢ": 4011,
      "finalĠ": 4012,
      "ä»ª": 4013,
      "offic": 4014,
      "éļľ": 4015,
      "****************": 4016,
      "Ġ*Ġ": 4017,
      "gotĠ": 4018,
      "NO": 4019,
      "owever,Ġ": 4020,
      "è´Ń": 4021,
      "prob": 4022,
      "åĶ®": 4023,
      "æ°ĳæĹı": 4024,
      "athĠ": 4025,
      "ä¼ļè®®": 4026,
      "æĪĲåĬŁ": 4027,
      ".ĠAndĠ": 4028,
      "font": 4029,
      "ures": 4030,
      "was": 4031,
      "ï¼ĮåĽłä¸º": 4032,
      "åĩºäºĨ": 4033,
      "çľŁæŃ£": 4034,
      "ï¼ĮæīĢä»¥": 4035,
      "15Ġ": 4036,
      "æĹłæ³ķ": 4037,
      "æĿ¡ä»¶": 4038,
      "includingĠ": 4039,
      "è¾ŀ": 4040,
      "å¡ŀ": 4041,
      "å¥ı": 4042,
      "64": 4043,
      "å¼±": 4044,
      "è¿ĺæľī": 4045,
      "s)": 4046,
      "order": 4047,
      "ture": 4048,
      "acter": 4049,
      "ner": 4050,
      "cop": 4051,
      "èĬĤĠ": 4052,
      "čĊ": 4053,
      "åĲ¯": 4054,
      "ĠãĢĤ": 4055,
      "åħ¼": 4056,
      "æ¢ģ": 4057,
      "_Ġ,Ġ": 4058,
      "CH": 4059,
      "anim": 4060,
      "menĠ": 4061,
      "willĠbeĠ": 4062,
      "conver": 4063,
      "Ed": 4064,
      "Min": 4065,
      "image": 4066,
      "ç§ĳæĬĢ": 4067,
      "Bar": 4068,
      "çĸ¾": 4069,
      "answerĠ": 4070,
      "ä¹ĭåĲİ": 4071,
      "çĽĺ": 4072,
      "WhatĠ": 4073,
      "needĠtoĠ": 4074,
      "èıľ": 4075,
      "åĲĦç§į": 4076,
      "atorĠ": 4077,
      "y-": 4078,
      "centur": 4079,
      "Aug": 4080,
      "è®¡ç®Ĺ": 4081,
      "BĠ": 4082,
      "æĹ¶ä»£": 4083,
      "é¢Ĩå¯¼": 4084,
      "è¿ĲåĬ¨": 4085,
      "ä¸Ģå®ļ": 4086,
      "Id": 4087,
      "äº«": 4088,
      "Fl": 4089,
      "èĻĳ": 4090,
      "ä¹ĭãĢĤ": 4091,
      ";Ċ}ĊĊ": 4092,
      "è°·": 4093,
      ");Ċ": 4094,
      "ci": 4095,
      "å¿ł": 4096,
      "Indi": 4097,
      "continu": 4098,
      "æ£®": 4099,
      "æĿŁ": 4100,
      "severalĠ": 4101,
      "30Ġ": 4102,
      "Can": 4103,
      "å¯º": 4104,
      "æī§è¡Į": 4105,
      "report": 4106,
      "='": 4107,
      "è¼": 4108,
      "false": 4109,
      "message": 4110,
      "ä¸Ńå¤®": 4111,
      "éģĤ": 4112,
      "å°į": 4113,
      "tooĠ": 4114,
      "Nov": 4115,
      "alongĠ": 4116,
      "1,": 4117,
      "ç»¼": 4118,
      "m_": 4119,
      "çīĻ": 4120,
      "éĤ£ä¹Ī": 4121,
      "ä¸Ģæ¬¡": 4122,
      "è§£åĨ³": 4123,
      "gam": 4124,
      "ä¼¦": 4125,
      "ï¼ĮèĢĮä¸Ķ": 4126,
      "åºĨ": 4127,
      "æĶ¹éĿ©": 4128,
      "lay": 4129,
      "\"]": 4130,
      "çĺ": 4131,
      "typeĠ": 4132,
      "Sep": 4133,
      "method": 4134,
      "toĠre": 4135,
      "åĿı": 4136,
      "AndĠ": 4137,
      "yearĠ": 4138,
      "self._": 4139,
      "åĪĽæĸ°": 4140,
      "On": 4141,
      "utionĠ": 4142,
      "è·ĳ": 4143,
      "åİ»ï¼Į": 4144,
      "ãĢĤä½ł": 4145,
      "lev": 4146,
      ");ĊĠĠĠĠĠĠĠĠ": 4147,
      "èĪª": 4148,
      "icen": 4149,
      "åİļ": 4150,
      "allĠtheĠ": 4151,
      "pris": 4152,
      "ç½ĳç»ľ": 4153,
      "2019": 4154,
      "beganĠ": 4155,
      "æĹģ": 4156,
      "çĥŁ": 4157,
      "SheĠ": 4158,
      "ï¼ģĊ": 4159,
      "Sch": 4160,
      "å®ĮæĪĲ": 4161,
      "bodyĠ": 4162,
      "prof": 4163,
      "vesĠ": 4164,
      "çĴ": 4165,
      "aĠb": 4166,
      "è®¸å¤ļ": 4167,
      ",ĊĠĠĠĠĠĠ": 4168,
      "aj": 4169,
      "ideĠ": 4170,
      "99": 4171,
      "è¯´ï¼ļâĢľ": 4172,
      "receiv": 4173,
      "ite": 4174,
      "Ã©Ġ": 4175,
      "ä¸įè¿ĩ": 4176,
      "å®ŀæĸ½": 4177,
      "åĪ©çĶ¨": 4178,
      ".\"": 4179,
      "å¿į": 4180,
      "radi": 4181,
      "ĠĠ#Ġ": 4182,
      "followingĠ": 4183,
      "åĺī": 4184,
      "æĺ¯ä¸Ģä¸ª": 4185,
      "calledĠ": 4186,
      "å»ºçŃĳ": 4187,
      "fre": 4188,
      "anti": 4189,
      "\\(Ġ": 4190,
      "å¿Ļ": 4191,
      "å®ĥä»¬": 4192,
      "itor": 4193,
      "sal": 4194,
      "hasĠbeenĠ": 4195,
      ".S": 4196,
      "è¶£": 4197,
      "åĸľæ¬¢": 4198,
      "Ver": 4199,
      "åĨł": 4200,
      "mainĠ": 4201,
      "se,Ġ": 4202,
      "nationalĠ": 4203,
      "èĪŀ": 4204,
      "ï¼Įä½Ĩæĺ¯": 4205,
      "å°Ŀ": 4206,
      "åºĦ": 4207,
      "ç¨³": 4208,
      "loy": 4209,
      "check": 4210,
      "month": 4211,
      "}Ġ\\": 4212,
      "åıªæľī": 4213,
      "6,Ġ": 4214,
      "å¦¹": 4215,
      "friend": 4216,
      "æķĮ": 4217,
      "ä¸Ĭæµ·": 4218,
      "äºĨãĢĤĊ": 4219,
      "ï¼Įå¦Ĥ": 4220,
      "plan": 4221,
      "s,ĠtheĠ": 4222,
      "size": 4223,
      "çĿ¡": 4224,
      "<div": 4225,
      "è½®": 4226,
      "å±Ĭ": 4227,
      "ä¸ĸçºª": 4228,
      "çľĭåĪ°": 4229,
      "æİī": 4230,
      "mean": 4231,
      "well": 4232,
      "è¿Ŀ": 4233,
      "/**": 4234,
      "mag": 4235,
      "itch": 4236,
      "ï¼Įä½¿": 4237,
      "åįģä¸Ģ": 4238,
      "dou": 4239,
      "ision": 4240,
      "åĺ´": 4241,
      "é¥®": 4242,
      "conn": 4243,
      "help": 4244,
      "Not": 4245,
      "atelyĠ": 4246,
      "çłģ": 4247,
      "VĠ": 4248,
      "å¾Ĵ": 4249,
      "é¡¶": 4250,
      "ç»į": 4251,
      "è«": 4252,
      "æĭľ": 4253,
      "æ¨¡å¼ı": 4254,
      "è·Ŀ": 4255,
      "tiesĠ": 4256,
      "åĶ¯": 4257,
      "it,Ġ": 4258,
      "usedĠ": 4259,
      "æĻĭ": 4260,
      ".com": 4261,
      ")ĊĠ": 4262,
      "ES": 4263,
      "éĴĪ": 4264,
      "åīĳ": 4265,
      "ĊĊTheĠ": 4266,
      "ink": 4267,
      "dic": 4268,
      "singĠ": 4269,
      "æľĭåıĭ": 4270,
      "ãĢĤæŃ¤": 4271,
      "å¥ī": 4272,
      "é¬¼": 4273,
      "create": 4274,
      "shĠ": 4275,
      "bil": 4276,
      "dro": 4277,
      "éĥ¡": 4278,
      "é¥Ń": 4279,
      "æĥŁ": 4280,
      "æľºåħ³": 4281,
      "Oct": 4282,
      "łĠ": 4283,
      "you'reĠ": 4284,
      "raiseĠ": 4285,
      "represent": 4286,
      "position": 4287,
      "ertĠ": 4288,
      "æĬĺ": 4289,
      "realĠ": 4290,
      "sĠwithĠ": 4291,
      "null": 4292,
      "II": 4293,
      "String": 4294,
      "block": 4295,
      "E_": 4296,
      "langu": 4297,
      "-2": 4298,
      "æ·¡": 4299,
      "æĤ£": 4300,
      "é¢ĳ": 4301,
      "è´£ä»»": 4302,
      "lect": 4303,
      "oftenĠ": 4304,
      "OĠ": 4305,
      "keyĠ": 4306,
      "HT": 4307,
      "dem": 4308,
      "å½ĵæĹ¶": 4309,
      "è´¨éĩı": 4310,
      "äº§ä¸ļ": 4311,
      "æĦıè¯Ĩ": 4312,
      "><": 4313,
      "TI": 4314,
      "week": 4315,
      "æ®¿": 4316,
      "é»ĺ": 4317,
      "find": 4318,
      "waterĠ": 4319,
      "ButĠ": 4320,
      "ä¹ĺ": 4321,
      "åįĢ": 4322,
      "å¾Ĳ": 4323,
      "åıĺåĮĸ": 4324,
      "ä¸¦": 4325,
      "def": 4326,
      "ç¼ĵ": 4327,
      "playĠ": 4328,
      "ectedĠ": 4329,
      "Rec": 4330,
      "eri": 4331,
      "ä»»åĬ¡": 4332,
      "search": 4333,
      "construc": 4334,
      "åģı": 4335,
      "ase": 4336,
      "æı¡": 4337,
      "æ³½": 4338,
      "Mon": 4339,
      "å¼¹": 4340,
      "åĭĴ": 4341,
      "Chin": 4342,
      "75": 4343,
      ".Ġ**": 4344,
      "mak": 4345,
      "red": 4346,
      "lightĠ": 4347,
      "Dis": 4348,
      "author": 4349,
      "çļĦå°ı": 4350,
      ".ĊĠĠĠĠĠĠĠĠ": 4351,
      "ordĠ": 4352,
      "dict": 4353,
      "table": 4354,
      "å³°": 4355,
      "èº«ä½ĵ": 4356,
      "ablyĠ": 4357,
      "Num": 4358,
      "Data": 4359,
      "NewĠYor": 4360,
      "äºİæĺ¯": 4361,
      "thre": 4362,
      "è´¤": 4363,
      "mom": 4364,
      "ï¼Įè®©": 4365,
      "unc": 4366,
      "ekĠ": 4367,
      "ishedĠ": 4368,
      "room": 4369,
      "avail": 4370,
      "Septem": 4371,
      "fix": 4372,
      "adv": 4373,
      "é¼ĵ": 4374,
      "ationĠandĠ": 4375,
      "gres": 4376,
      "moreĠthanĠ": 4377,
      "ik": 4378,
      "syn": 4379,
      "viron": 4380,
      "å®ĩ": 4381,
      "init": 4382,
      "ableĠtoĠ": 4383,
      "éĢı": 4384,
      "èĮ¶": 4385,
      "term": 4386,
      "ï¼īĊ": 4387,
      "ref=\"": 4388,
      "popul": 4389,
      "è¡¨çİ°": 4390,
      "norm": 4391,
      "False": 4392,
      "youn": 4393,
      "ï¼ĮåĪĻ": 4394,
      "caseĠ": 4395,
      "side": 4396,
      "ç»§ç»Ń": 4397,
      "Apr": 4398,
      "largeĠ": 4399,
      "a'sĠ": 4400,
      "match": 4401,
      "ationĠofĠtheĠ": 4402,
      "condi": 4403,
      "bott": 4404,
      "ism": 4405,
      "umn": 4406,
      "7,Ġ": 4407,
      "æ¯Ķè¾ĥ": 4408,
      "Jul": 4409,
      "æ³¨æĦı": 4410,
      "éº»": 4411,
      "ten": 4412,
      "oleĠ": 4413,
      "che": 4414,
      "Test": 4415,
      "è»į": 4416,
      "esĠareĠ": 4417,
      "contr": 4418,
      "é¦Ģ": 4419,
      "cam": 4420,
      "mot": 4421,
      "found": 4422,
      "æķ¬": 4423,
      "34": 4424,
      "Config": 4425,
      "çĦī": 4426,
      "ui": 4427,
      "areaĠ": 4428,
      "duringĠtheĠ": 4429,
      "æ³°": 4430,
      "æĬ¥åĳĬ": 4431,
      "overĠtheĠ": 4432,
      "greatĠ": 4433,
      "çĽŁ": 4434,
      "shap": 4435,
      "aim": 4436,
      "o-": 4437,
      "maj": 4438,
      "sr": 4439,
      "ä½ĵç³»": 4440,
      "èĢħãĢĤ": 4441,
      "æ¢ħ": 4442,
      "flow": 4443,
      "orderĠ": 4444,
      "æ´ŀ": 4445,
      "11Ġ": 4446,
      "ä¿Ĺ": 4447,
      "æļ´": 4448,
      "åıĤåĬł": 4449,
      "Rob": 4450,
      "åĭķ": 4451,
      "Servic": 4452,
      "ä¾§": 4453,
      "alwaysĠ": 4454,
      "cord": 4455,
      "ï¼Įå°Ĩ": 4456,
      "ä»¥ä¸Ĭ": 4457,
      "groupĠ": 4458,
      "é²ľ": 4459,
      "extr": 4460,
      "ubĠ": 4461,
      "Excep": 4462,
      "è¹": 4463,
      "exec": 4464,
      "\\\\": 4465,
      "problem": 4466,
      "è§ĦåĪĴ": 4467,
      "s'": 4468,
      "å²Ľ": 4469,
      "med": 4470,
      "lik": 4471,
      "ãĢĲ": 4472,
      "ãĢĳ": 4473,
      "y.": 4474,
      "åĳ¢ï¼Ł": 4475,
      "tech": 4476,
      "UN": 4477,
      "ifĠnotĠ": 4478,
      "entialĠ": 4479,
      "ãĢĤä¸Ģ": 4480,
      "ä¼łç»Ł": 4481,
      "å£°éŁ³": 4482,
      "AD": 4483,
      "'llĠ": 4484,
      "æĿľ": 4485,
      "sqrt": 4486,
      "âĳ": 4487,
      "ilyĠ": 4488,
      "å¿ĥçĲĨ": 4489,
      "çľŁçļĦ": 4490,
      "quot": 4491,
      "å¸ĮæľĽ": 4492,
      "è¿Ľåħ¥": 4493,
      "ç²ī": 4494,
      ");ĊĊ": 4495,
      "consider": 4496,
      ")ĊĊĠĠĠĠĠĠĠĠ": 4497,
      "ãĢĤå¦Ĥæŀľ": 4498,
      "1/": 4499,
      "å¤ĸï¼Į": 4500,
      "amb": 4501,
      "èĩªçĶ±": 4502,
      "èĪį": 4503,
      "æĬ±": 4504,
      "çģŃ": 4505,
      "forc": 4506,
      "dar": 4507,
      "sav": 4508,
      "....": 4509,
      "bestĠ": 4510,
      "addi": 4511,
      "stop": 4512,
      "NationalĠ": 4513,
      "éĥĳ": 4514,
      "éŀ": 4515,
      "Octob": 4516,
      "å¿ĺ": 4517,
      "ump": 4518,
      "ï½": 4519,
      "target": 4520,
      "throughĠtheĠ": 4521,
      "context": 4522,
      "descri": 4523,
      ".ĠYouĠ": 4524,
      "éĩĮçļĦ": 4525,
      "åºŁ": 4526,
      "ally,Ġ": 4527,
      "çĵ¦": 4528,
      "akeĠ": 4529,
      "\\n": 4530,
      "è¡¨ç¤º": 4531,
      "didĠnotĠ": 4532,
      "ç¬¬åĽĽ": 4533,
      "çĶĺ": 4534,
      "æ±¤": 4535,
      "éĶ®": 4536,
      "scre": 4537,
      ".ĠForĠ": 4538,
      "compon": 4539,
      "è¿ģ": 4540,
      "ï¼Įåį´": 4541,
      "éģį": 4542,
      "job": 4543,
      "è¡¡": 4544,
      "acros": 4545,
      "æ§": 4546,
      "y_": 4547,
      "1}{": 4548,
      "esĠofĠtheĠ": 4549,
      "å¼ĥ": 4550,
      "æĢĴ": 4551,
      "åľĨ": 4552,
      "json": 4553,
      "é¢ľ": 4554,
      "ismĠ": 4555,
      "-0": 4556,
      "ru": 4557,
      "edĠfromĠ": 4558,
      "éŃı": 4559,
      "design": 4560,
      "lifeĠ": 4561,
      "ãĢĤâĢĿâĢľ": 4562,
      "ĠS": 4563,
      "s:ĊĠĠĠĠĠĠĠĠĠĠĠĠ": 4564,
      "çıł": 4565,
      "cu": 4566,
      "systemĠ": 4567,
      "in-": 4568,
      "æ´Ĺ": 4569,
      "äººç±»": 4570,
      "æ³ī": 4571,
      "reli": 4572,
      "éĸĭ": 4573,
      "sureĠ": 4574,
      "and,Ġ": 4575,
      "_S": 4576,
      "æī¬": 4577,
      "æ±ł": 4578,
      "?\"Ġ": 4579,
      "å¾Ħ": 4580,
      "WorldĠ": 4581,
      "éķ·": 4582,
      "1)": 4583,
      "sedĠ": 4584,
      "().": 4585,
      "heldĠ": 4586,
      "display": 4587,
      "length": 4588,
      "é¡µ": 4589,
      "oneĠofĠ": 4590,
      "seem": 4591,
      "underĠtheĠ": 4592,
      "care": 4593,
      "å·§": 4594,
      "æĸ°çļĦ": 4595,
      "ck": 4596,
      "ningĠ": 4597,
      "éĨĴ": 4598,
      "Key": 4599,
      "flu": 4600,
      "outĠofĠ": 4601,
      "éĽ»": 4602,
      "prop": 4603,
      "_name": 4604,
      "fail": 4605,
      "æķĻå¸Ī": 4606,
      "åįĸ": 4607,
      "aitĠ": 4608,
      "leyĠ": 4609,
      "element": 4610,
      "MayĠ": 4611,
      "èĻİ": 4612,
      "ing.": 4613,
      "draw": 4614,
      "localĠ": 4615,
      "border": 4616,
      "38": 4617,
      "rais": 4618,
      "èĦī": 4619,
      "###Ġ": 4620,
      "gerĠ": 4621,
      "è·µ": 4622,
      "height": 4623,
      "48": 4624,
      "ä¸ĭçļĦ": 4625,
      "alreadyĠ": 4626,
      "ï¼į": 4627,
      "å®ŀéªĮ": 4628,
      "esĠthatĠ": 4629,
      "Comp": 4630,
      "è¿¹": 4631,
      "å¢ŀåĬł": 4632,
      "Ã¥": 4633,
      "ç´¯": 4634,
      "}ĠfromĠ'": 4635,
      "dest": 4636,
      "è¿·": 4637,
      "èĮĥåĽ´": 4638,
      "ond": 4639,
      "æĸĩåŃ¦": 4640,
      "ä½łä»¬": 4641,
      "è¿İ": 4642,
      "\":Ġ\"": 4643,
      "document": 4644,
      "Rep": 4645,
      ",ĠS": 4646,
      "TE": 4647,
      "ä¹Į": 4648,
      "ç»¼åĲĪ": 4649,
      "aĠ(": 4650,
      "prac": 4651,
      "heal": 4652,
      "ä¸ºä»Ģä¹Ī": 4653,
      ">Ċ<": 4654,
      "å®½": 4655,
      "å·¥ä¸ļ": 4656,
      "lookĠ": 4657,
      "marg": 4658,
      "190": 4659,
      "<divĠ": 4660,
      "float": 4661,
      "Pri": 4662,
      "xĠ+Ġ": 4663,
      "ä¸įæĸŃ": 4664,
      "########": 4665,
      "å§ĳ": 4666,
      "èĽĭ": 4667,
      "mb": 4668,
      "es,ĠandĠ": 4669,
      "a_": 4670,
      "format": 4671,
      "</div": 4672,
      "åĳĬè¯ī": 4673,
      "f,Ġ": 4674,
      "ocialĠ": 4675,
      "åįģåĪĨ": 4676,
      "ben": 4677,
      "grow": 4678,
      "ificĠ": 4679,
      "å½¢å¼ı": 4680,
      "æ®Ĭ": 4681,
      "second": 4682,
      "dre": 4683,
      "anal": 4684,
      "æĦıä¹ī": 4685,
      "hereĠ": 4686,
      "success": 4687,
      "ï¼ĮæĹł": 4688,
      "awayĠ": 4689,
      "uck": 4690,
      "16Ġ": 4691,
      "ç¡¬": 4692,
      "èĲ¨": 4693,
      "ç«ŀ": 4694,
      "output": 4695,
      "å²Ĥ": 4696,
      "ç¶ĵ": 4697,
      "ï¼ĽĠ": 4698,
      "sĠfromĠ": 4699,
      "æĹ¶æľŁ": 4700,
      "_P": 4701,
      "iev": 4702,
      "ledĠ": 4703,
      "sĠonĠ": 4704,
      "å¢¨": 4705,
      "Ne": 4706,
      "ati": 4707,
      "shar": 4708,
      "åĵ¡": 4709,
      "viewĠ": 4710,
      "then": 4711,
      "level": 4712,
      "ç´«": 4713,
      "çº¸": 4714,
      "åįģäºĶ": 4715,
      "è¯Ńè¨Ģ": 4716,
      "é¢ĨåŁŁ": 4717,
      "lingĠ": 4718,
      "recog": 4719,
      "duringĠ": 4720,
      "break": 4721,
      "Is": 4722,
      "è¯º": 4723,
      "liv": 4724,
      "ãĢīĊĊ": 4725,
      "teamĠ": 4726,
      "experi": 4727,
      "ç¼ĺ": 4728,
      "æľīäºº": 4729,
      "è¿ĩåİ»": 4730,
      "organiz": 4731,
      "ï¼ŁâĢĿĊ": 4732,
      "tain": 4733,
      ">ĊĠĠĠĠĠĠĠĠ": 4734,
      "ä¼ı": 4735,
      "JanuaryĠ": 4736,
      "æĺ¯åĲ¦": 4737,
      "veĠtheĠ": 4738,
      "State": 4739,
      "archĠ": 4740,
      "cessĠ": 4741,
      "åİŁåĽł": 4742,
      "yĠtheĠ": 4743,
      "çĶµè§Ĩ": 4744,
      "Up": 4745,
      "?\"ĊĊ\"": 4746,
      "è§£éĩĬ": 4747,
      "button": 4748,
      "background": 4749,
      "cell": 4750,
      "åĵ²": 4751,
      "aboutĠtheĠ": 4752,
      "ç«¹": 4753,
      "éĻµ": 4754,
      ".ĠWeĠ": 4755,
      "askĠ": 4756,
      "åĢº": 4757,
      "td": 4758,
      "éľĩ": 4759,
      "ildĠ": 4760,
      "åįĪ": 4761,
      "Ab": 4762,
      "ç¨ĭåºı": 4763,
      "is,Ġ": 4764,
      "æľīéĻĲ": 4765,
      "erĠ=Ġ": 4766,
      "éĢĶ": 4767,
      ".ĠG": 4768,
      "ç»ıèĲ¥": 4769,
      "ampion": 4770,
      "WhenĠ": 4771,
      "highĠ": 4772,
      "har": 4773,
      "fiveĠ": 4774,
      "fur": 4775,
      "link": 4776,
      "æĳ©": 4777,
      "SeptemberĠ": 4778,
      "}ĊĠĠĠĠĠĠĠĠ": 4779,
      "((": 4780,
      "ä¸Ńåįİ": 4781,
      "first": 4782,
      "atureĠ": 4783,
      "æ¶ī": 4784,
      "imĠ": 4785,
      "ãĢīĊãĢĢãĢĢ": 4786,
      "sil": 4787,
      "util": 4788,
      "version": 4789,
      "éŁ³ä¹Ĳ": 4790,
      "})": 4791,
      ".ĊTheĠ": 4792,
      "helpĠ": 4793,
      "le.": 4794,
      "establ": 4795,
      "info": 4796,
      ".ĠJ": 4797,
      "ç©ºéĹ´": 4798,
      "ä¸įçŁ¥": 4799,
      "Inter": 4800,
      "asĠwellĠ": 4801,
      "toldĠ": 4802,
      "rect": 4803,
      "çĦ¶èĢĮ": 4804,
      "The": 4805,
      "ice": 4806,
      "amongĠ": 4807,
      "ï¼īãĢĤ": 4808,
      "éķľ": 4809,
      "å½ĵçĦ¶": 4810,
      "ballĠ": 4811,
      "Set": 4812,
      "æµ®": 4813,
      "æĳĩ": 4814,
      "éŃĤ": 4815,
      "è¿ª": 4816,
      "Ã¨": 4817,
      "åĬĽéĩı": 4818,
      "åĨ¬": 4819,
      "æĮīçħ§": 4820,
      "heĠhadĠ": 4821,
      "calcul": 4822,
      "pend": 4823,
      "æ®ĭ": 4824,
      "ä¸įçŁ¥éģĵ": 4825,
      "milli": 4826,
      "ï¼īãĢģ": 4827,
      "åįģä¸ī": 4828,
      "conc": 4829,
      "a-": 4830,
      "åİħ": 4831,
      "inĠhisĠ": 4832,
      "æİ¥åıĹ": 4833,
      "ThereĠ": 4834,
      "Fil": 4835,
      "attr": 4836,
      "s'Ġ": 4837,
      "remov": 4838,
      "åĩĨå¤ĩ": 4839,
      "inf": 4840,
      "æľīæķĪ": 4841,
      "expl": 4842,
      "_t": 4843,
      "StateĠ": 4844,
      "ä»Ĭå¤©": 4845,
      "Text": 4846,
      "pain": 4847,
      "ing:Ġ": 4848,
      "super": 4849,
      "actuallyĠ": 4850,
      "ãĢĤâĢĿĊâĢľ": 4851,
      "å¹¼": 4852,
      "parent": 4853,
      "å®ļçļĦ": 4854,
      "yĠ=Ġ": 4855,
      "dieĠ": 4856,
      "lowĠ": 4857,
      "åĬª": 4858,
      "erĠtoĠ": 4859,
      "es:Ġ": 4860,
      "æıı": 4861,
      "dam": 4862,
      "dig": 4863,
      "ãĢĤâĢĿĊĊ": 4864,
      "stitut": 4865,
      "web": 4866,
      "ouslyĠ": 4867,
      "increas": 4868,
      "ï¼ĮçĦ¶åĲİ": 4869,
      "o.": 4870,
      "support": 4871,
      "Ġ-Ġ": 4872,
      "çĿĽ": 4873,
      "åİĤ": 4874,
      "ms": 4875,
      ")Ġ{ĊĠĠĠĠ": 4876,
      "refer": 4877,
      "æĳĦ": 4878,
      "æĪĲäºĨ": 4879,
      "æµª": 4880,
      "world": 4881,
      "test_": 4882,
      "determin": 4883,
      "çº¯": 4884,
      "MarchĠ": 4885,
      "es.ĊĊ": 4886,
      "éĢĥ": 4887,
      "multip": 4888,
      "italĠ": 4889,
      "åıĹåĪ°": 4890,
      "ograph": 4891,
      "è¿Ļæĺ¯": 4892,
      "topĠ": 4893,
      "ler": 4894,
      "educ": 4895,
      ".ĠWhenĠ": 4896,
      "çĪ¾": 4897,
      ").ĊĊ": 4898,
      "db": 4899,
      "åĩĢ": 4900,
      "å¹´çļĦ": 4901,
      "leastĠ": 4902,
      "fel": 4903,
      ");ĊĠĠ": 4904,
      "worldĠ": 4905,
      "Cal": 4906,
      "ounc": 4907,
      "åħ±åĲĮ": 4908,
      "æĪĲç«ĭ": 4909,
      "foc": 4910,
      "usedĠtoĠ": 4911,
      "è´Ŀ": 4912,
      "character": 4913,
      "éĽ¶": 4914,
      ".ĠOnĠ": 4915,
      "command": 4916,
      "äºĭï¼Į": 4917,
      "ï¼ģâĢĿĊ": 4918,
      "éĸĵ": 4919,
      "ä¸ĢæŃ¥": 4920,
      "è§¦": 4921,
      "æĿĲæĸĻ": 4922,
      "[0]": 4923,
      "hon": 4924,
      "å¦Ļ": 4925,
      "æĭŁ": 4926,
      "mone": 4927,
      "JuneĠ": 4928,
      "å°º": 4929,
      "ä¼°": 4930,
      "ãĢĤãĢĬ": 4931,
      "ç±į": 4932,
      "æĥł": 4933,
      "è°ĭ": 4934,
      "8,Ġ": 4935,
      "rand": 4936,
      "æĿ¡Ġ": 4937,
      "sawĠ": 4938,
      "thoughtĠ": 4939,
      "ï¼ļĠ": 4940,
      "éļĨ": 4941,
      "ani": 4942,
      "showĠ": 4943,
      "æīĢè°ĵ": 4944,
      "os.": 4945,
      "å°¾": 4946,
      "æ¶²": 4947,
      "there": 4948,
      "Event": 4949,
      "sayĠ": 4950,
      "response": 4951,
      "dd": 4952,
      "aver": 4953,
      "resp": 4954,
      ".ĠThereĠ": 4955,
      "istr": 4956,
      "çĲĨè§£": 4957,
      "æĭ¥æľī": 4958,
      "Sec": 4959,
      "ä¸ĢãĢģ": 4960,
      "/*Ġ": 4961,
      "ä¸ºâĢľ": 4962,
      "è·³": 4963,
      "olv": 4964,
      "El": 4965,
      "è®¢": 4966,
      "_path": 4967,
      ",ĠIĠ": 4968,
      "1]": 4969,
      "ï¼Įæ¯ı": 4970,
      "èķ": 4971,
      "positionĠ": 4972,
      "rac": 4973,
      "æŃ£åľ¨": 4974,
      "icallyĠ": 4975,
      "dateĠ": 4976,
      "nes": 4977,
      "ä¹ĭåĲİï¼Į": 4978,
      "éħ¸": 4979,
      "æ¸¸æĪı": 4980,
      "(self.": 4981,
      "åªĴ": 4982,
      "arri": 4983,
      "disc": 4984,
      "åħ·ä½ĵ": 4985,
      "y'sĠ": 4986,
      "que": 4987,
      "åĨĮ": 4988,
      "pathĠ": 4989,
      "çĹĩ": 4990,
      "âĢĿĠ": 4991,
      "è®¿": 4992,
      "onsĠ": 4993,
      "tok": 4994,
      "14Ġ": 4995,
      "esĠ(": 4996,
      "Stre": 4997,
      "Dav": 4998,
      "18Ġ": 4999,
      "host": 5000,
      "identi": 5001,
      "undĠ": 5002,
      "hold": 5003,
      "æĮĩå¯¼": 5004,
      "depend": 5005,
      "applic": 5006,
      "OctoberĠ": 5007,
      "39": 5008,
      "fieldĠ": 5009,
      "eitherĠ": 5010,
      "æĺł": 5011,
      "éĺħ": 5012,
      "è¯ĳ": 5013,
      "abilityĠ": 5014,
      "ung": 5015,
      "current": 5016,
      "grad": 5017,
      "25Ġ": 5018,
      "æĬĵ": 5019,
      "åŃĿ": 5020,
      "JulyĠ": 5021,
      "erc": 5022,
      "å¿Ĩ": 5023,
      "obj": 5024,
      "èģĮä¸ļ": 5025,
      "ä¸įè¦ģ": 5026,
      "uredĠ": 5027,
      "star": 5028,
      "':Ġ": 5029,
      "æī©": 5030,
      "ual": 5031,
      "æĸ¹åĲĳ": 5032,
      "æĶ¶åħ¥": 5033,
      "åĩłä¸ª": 5034,
      "renĠ": 5035,
      "src": 5036,
      "lengthĠ": 5037,
      "rest": 5038,
      "éĦ": 5039,
      "ww": 5040,
      "åĸĿ": 5041,
      "print(f\"": 5042,
      "æŁĶ": 5043,
      "edĠherĠ": 5044,
      "hol": 5045,
      "äºĨè§£": 5046,
      "äºĮãĢģ": 5047,
      "meas": 5048,
      "[str": 5049,
      "tel": 5050,
      "in,Ġ": 5051,
      "æł¹æľ¬": 5052,
      "ordin": 5053,
      "åıĤä¸İ": 5054,
      "èį·": 5055,
      "æİª": 5056,
      "èĲ§": 5057,
      "public": 5058,
      "èĢ¶": 5059,
      "55": 5060,
      "èĺ": 5061,
      "37": 5062,
      "ouldn'tĠ": 5063,
      "Fir": 5064,
      "åı¬": 5065,
      "æĽ¼": 5066,
      "homeĠ": 5067,
      "åıĬåħ¶": 5068,
      "0.0": 5069,
      "éī": 5070,
      "åıĶ": 5071,
      "ster": 5072,
      "åŃ¤": 5073,
      "program": 5074,
      "possibleĠ": 5075,
      "_c": 5076,
      "è³½": 5077,
      "åĬ³åĬ¨": 5078,
      "æ°´å¹³": 5079,
      "s)Ġ": 5080,
      "onceĠ": 5081,
      "ä¸ĢçĤ¹": 5082,
      "èµ¶": 5083,
      ".Ġ(": 5084,
      "wordĠ": 5085,
      "</a": 5086,
      "encyĠ": 5087,
      "ĠãĢĤĊĊ": 5088,
      "Mi": 5089,
      "Bi": 5090,
      "ortĠ": 5091,
      "èµı": 5092,
      "currentĠ": 5093,
      "äººåı£": 5094,
      "uleĠ": 5095,
      "makingĠ": 5096,
      "Ass": 5097,
      "âĢĻsĠ": 5098,
      ".Ġ.Ġ": 5099,
      "searchĠ": 5100,
      "status": 5101,
      "é¸¡": 5102,
      "ä¾µ": 5103,
      "å¹¶ä¸į": 5104,
      "åŁºéĩĳ": 5105,
      "åį¿": 5106,
      "l'": 5107,
      "è¾Ľ": 5108,
      "çĶ¨äºİ": 5109,
      "44": 5110,
      "éģİ": 5111,
      "AprilĠ": 5112,
      "å¤´ï¼Į": 5113,
      "fiedĠ": 5114,
      "Intern": 5115,
      "ãĢĭï¼Ī": 5116,
      "detail": 5117,
      "è¾°": 5118,
      "æ´¥": 5119,
      "ONĠ": 5120,
      "desĠ": 5121,
      "lat": 5122,
      "æĤ²": 5123,
      "ĠĊ": 5124,
      "\\frac{1}{": 5125,
      "éĿ©åĳ½": 5126,
      "dueĠ": 5127,
      "lar": 5128,
      "ä½ľèĢħ": 5129,
      "èµĭ": 5130,
      "rolĠ": 5131,
      "won": 5132,
      "çĶŁçī©": 5133,
      "è´«": 5134,
      "éĿ¢çļĦ": 5135,
      "collec": 5136,
      "1âĢĵ": 5137,
      "åģ¥åº·": 5138,
      "apĠ": 5139,
      "éĩĳèŀį": 5140,
      "2}": 5141,
      "{ĊĠĠĠĠĠĠĠĠĠĠĠĠ": 5142,
      "å®¢æĪ·": 5143,
      "çģ¯": 5144,
      "çĶµå½±": 5145,
      ".ĠItĠwasĠ": 5146,
      "Element": 5147,
      "thernĠ": 5148,
      "wantĠtoĠ": 5149,
      "tishĠ": 5150,
      "äº¤éĢļ": 5151,
      "padd": 5152,
      "natur": 5153,
      "çĶŁåĳ½": 5154,
      "åĭĩ": 5155,
      "Am": 5156,
      "ersĠandĠ": 5157,
      "actionĠ": 5158,
      "ralĠ": 5159,
      "seriesĠ": 5160,
      "æĮĳ": 5161,
      "i,Ġ": 5162,
      "æĬµ": 5163,
      "äº¿": 5164,
      "æĺĮ": 5165,
      "èĢĮä¸į": 5166,
      "èģĶåĲĪ": 5167,
      "fort": 5168,
      "çľ¼çĿĽ": 5169,
      "d.": 5170,
      "ç»ĵåĲĪ": 5171,
      "(c": 5172,
      "arti": 5173,
      "å®¿": 5174,
      "ng": 5175,
      "æĿ°": 5176,
      "äººä¹ĭ": 5177,
      "airĠ": 5178,
      "lot": 5179,
      "éĤ¦": 5180,
      "æķ´ä¸ª": 5181,
      "round": 5182,
      "çĦ¡": 5183,
      "è®¤è¯Ĩ": 5184,
      "Jam": 5185,
      "real": 5186,
      "Febr": 5187,
      "ä¼´": 5188,
      "çı¾": 5189,
      "ray": 5190,
      "f.": 5191,
      "mentĠofĠ": 5192,
      "familyĠ": 5193,
      "node": 5194,
      "çİĦ": 5195,
      ")ĊĊĠĠĠĠ": 5196,
      "does": 5197,
      "amoun": 5198,
      "feel": 5199,
      "Typ": 5200,
      "emb": 5201,
      "filmĠ": 5202,
      "Hand": 5203,
      "è®¾å¤ĩ": 5204,
      "500": 5205,
      "startĠ": 5206,
      "seri": 5207,
      "æīįèĥ½": 5208,
      "åºĻ": 5209,
      "yp": 5210,
      "relation": 5211,
      "ING": 5212,
      "valueĠofĠ": 5213,
      "æ¨ª": 5214,
      "å®ŀè·µ": 5215,
      "éĩįçĤ¹": 5216,
      "çªĹ": 5217,
      "ç¹ģ": 5218,
      "æºª": 5219,
      "éĻ·": 5220,
      "ç½ļ": 5221,
      "App": 5222,
      "èİ±": 5223,
      "Sel": 5224,
      "ä¾į": 5225,
      "FI": 5226,
      "cel": 5227,
      "color:Ġ": 5228,
      ",Ġ,Ġ": 5229,
      "=Ġ'": 5230,
      "Licen": 5231,
      "LO": 5232,
      "ç³»åĪĹ": 5233,
      "å§Ĩ": 5234,
      "diff": 5235,
      "replac": 5236,
      "åħ¶ä¸Ń": 5237,
      "çªģçĦ¶": 5238,
      "ä¸Ģä¸ĭ": 5239,
      "åĬłå¼º": 5240,
      "æŁ³": 5241,
      "transl": 5242,
      "AugustĠ": 5243,
      "ï¼Įä¸İ": 5244,
      "View": 5245,
      "é«Ķ": 5246,
      "åĮºåŁŁ": 5247,
      "esĠaĠ": 5248,
      "ale": 5249,
      "Rus": 5250,
      "d'": 5251,
      "IĠwasĠ": 5252,
      "angĠ": 5253,
      "memberĠ": 5254,
      "templ": 5255,
      "ä¼Ļ": 5256,
      "agĠ": 5257,
      "connec": 5258,
      "åĬ±": 5259,
      "æ±½": 5260,
      "///Ġ": 5261,
      "er_": 5262,
      "çĤİ": 5263,
      "Hist": 5264,
      "individ": 5265,
      "mission": 5266,
      "theĠsameĠ": 5267,
      "angleĠ": 5268,
      "()Ġ{ĊĠĠĠĠ": 5269,
      "learn": 5270,
      "ustom": 5271,
      "Color": 5272,
      "fullyĠ": 5273,
      "DecemberĠ": 5274,
      ")Ġ+Ġ": 5275,
      "sqrt{": 5276,
      "å»·": 5277,
      "éģŃ": 5278,
      "Mc": 5279,
      "pan": 5280,
      "æ¼«": 5281,
      ",ĠorĠ": 5282,
      "éĹŃ": 5283,
      "select": 5284,
      "funĠ": 5285,
      "previ": 5286,
      "econom": 5287,
      "environ": 5288,
      "å¹ķ": 5289,
      "Sub": 5290,
      "const": 5291,
      "MA": 5292,
      ".s": 5293,
      "é¤Ĳ": 5294,
      "âĹ": 5295,
      "commonĠ": 5296,
      "ä¸ĢåĪĩ": 5297,
      "exportĠ": 5298,
      "ribu": 5299,
      ".Ġ'": 5300,
      "æĹĹ": 5301,
      "åŃĲçļĦ": 5302,
      "ä»ĭç»į": 5303,
      "betterĠ": 5304,
      "åįģåħŃ": 5305,
      "though": 5306,
      "äººçī©": 5307,
      "Div": 5308,
      "zer": 5309,
      "descrip": 5310,
      "ĊĠĠĠĠĠĠĠĠĠĠĠĠĠĠĠĠĠĠĠĠĠĠĠĠ": 5311,
      "ingĠthatĠ": 5312,
      "s[": 5313,
      "she": 5314,
      "æĶ¹åıĺ": 5315,
      ")Ġ{ĊĠĠĠĠĠĠĠĠ": 5316,
      "åįģåħ«": 5317,
      "è£ģ": 5318,
      "indic": 5319,
      "studi": 5320,
      "originalĠ": 5321,
      "è¡Įä¸ļ": 5322,
      "éĹ²": 5323,
      "roomĠ": 5324,
      "window": 5325,
      "see": 5326,
      "lockĠ": 5327,
      "supportĠ": 5328,
      "render": 5329,
      "caus": 5330,
      "åĦ¿ç«¥": 5331,
      "pay": 5332,
      "beh": 5333,
      "scor": 5334,
      "13Ġ": 5335,
      "ï¼Įæķħ": 5336,
      "å®¶åºŃ": 5337,
      "æĪ°": 5338,
      "edĠonĠtheĠ": 5339,
      "orsĠ": 5340,
      "åı¯æĺ¯": 5341,
      "ç¡®å®ļ": 5342,
      "filter": 5343,
      "66": 5344,
      "project": 5345,
      "gir": 5346,
      "bit": 5347,
      "istĠofĠ": 5348,
      "æ±ĩ": 5349,
      "fullĠ": 5350,
      "ÃłĠ": 5351,
      "ï¼ĮçĶ±": 5352,
      "()ĊĠĠĠĠĠĠĠĠ": 5353,
      "esti": 5354,
      "th,Ġ": 5355,
      "root": 5356,
      "rist": 5357,
      "ï¼ĮæĪĸ": 5358,
      "æŀª": 5359,
      "éĺ»": 5360,
      "éĩĩçĶ¨": 5361,
      "åįģåĽĽ": 5362,
      "But": 5363,
      "ä¸įåĪ°": 5364,
      "busin": 5365,
      "æ³Ľ": 5366,
      "life": 5367,
      "has": 5368,
      "theyĠwereĠ": 5369,
      "append": 5370,
      "å¸®åĬ©": 5371,
      "houseĠ": 5372,
      "æĽ¿": 5373,
      "æķı": 5374,
      ".ĠHisĠ": 5375,
      "å¼Ĺ": 5376,
      "blo": 5377,
      "team": 5378,
      "éļĶ": 5379,
      "erg": 5380,
      "æ½ľ": 5381,
      "body": 5382,
      "ï½ŀ": 5383,
      "law": 5384,
      "spac": 5385,
      "haveĠaĠ": 5386,
      "GeneralĠ": 5387,
      "èĵĿ": 5388,
      "ä¿±": 5389,
      "pot": 5390,
      "ï¼ĮèĢĮæĺ¯": 5391,
      "çĤ¼": 5392,
      "æĸĩä»¶": 5393,
      "åĮ»éĻ¢": 5394,
      "vide": 5395,
      "giveĠ": 5396,
      "0000": 5397,
      "ï¼Įè¦ģ": 5398,
      "ä»¥ä¸ĭ": 5399,
      "Py": 5400,
      "è¯¢": 5401,
      "ç©·": 5402,
      "ature": 5403,
      "leav": 5404,
      "ä¼Ł": 5405,
      "As": 5406,
      "importantĠ": 5407,
      "ais": 5408,
      "çĩķ": 5409,
      "ï¼Įéĥ½": 5410,
      "es/": 5411,
      "module": 5412,
      "romĠ": 5413,
      "NovemberĠ": 5414,
      "font-": 5415,
      "reallyĠ": 5416,
      "readĠ": 5417,
      "Dr": 5418,
      "Hou": 5419,
      "New": 5420,
      "enoughĠ": 5421,
      "è¯¦": 5422,
      "åĬŀæ³ķ": 5423,
      "åĩ¤": 5424,
      "becomeĠ": 5425,
      "è¯´æĺİ": 5426,
      "goingĠtoĠ": 5427,
      "conf": 5428,
      "éī´": 5429,
      "https": 5430,
      "\\c": 5431,
      "textĠ": 5432,
      "ed.": 5433,
      "smallĠ": 5434,
      "åĨľä¸ļ": 5435,
      "çŃ¾": 5436,
      "dev": 5437,
      "pati": 5438,
      "Dem": 5439,
      "bir": 5440,
      "tĠandĠ": 5441,
      "last": 5442,
      "å¹´ä»£": 5443,
      "informationĠ": 5444,
      "ç¦»å¼Ģ": 5445,
      "eredĠ": 5446,
      "...Ġ": 5447,
      "æł·çļĦ": 5448,
      "RĠ": 5449,
      "non-": 5450,
      "ÃĹ": 5451,
      "devic": 5452,
      "è´¸": 5453,
      "ï¼ĮĠ": 5454,
      "ä¼¸": 5455,
      "Har": 5456,
      "çº·": 5457,
      "Requ": 5458,
      "åĩºçļĦ": 5459,
      "çľī": 5460,
      "åŁĥ": 5461,
      "èĥŀ": 5462,
      "Ke": 5463,
      "wr": 5464,
      "Rom": 5465,
      "åİŁåĪĻ": 5466,
      "Euro": 5467,
      "orĠofĠ": 5468,
      "çĳŀ": 5469,
      "ä¸»ä»»": 5470,
      "lib": 5471,
      "Wal": 5472,
      "ä¿ĿéĻ©": 5473,
      "éªĳ": 5474,
      "bornĠ": 5475,
      "youĠcanĠ": 5476,
      "è¡ĮåĬ¨": 5477,
      "æĥ³åĪ°": 5478,
      "night": 5479,
      "api": 5480,
      "feelĠ": 5481,
      ",Ġ'": 5482,
      "ãĢģâĢľ": 5483,
      "å½¹": 5484,
      "èĢħçļĦ": 5485,
      "ç®Ģåįķ": 5486,
      "esĠforĠ": 5487,
      "ç»ıéªĮ": 5488,
      "æĦıæĢĿ": 5489,
      "bookĠ": 5490,
      "åŃŁ": 5491,
      "ourn": 5492,
      "////": 5493,
      "versionĠ": 5494,
      "æĵįä½ľ": 5495,
      "atchĠ": 5496,
      "valĠ": 5497,
      "reach": 5498,
      "one,Ġ": 5499,
      "erefor": 5500,
      "resour": 5501,
      "åı¹": 5502,
      "çķ¶": 5503,
      "XĠ": 5504,
      "æĸ¹æ¡Ī": 5505,
      "9,Ġ": 5506,
      "åł´": 5507,
      "changeĠ": 5508,
      "èĸĦ": 5509,
      "k,Ġ": 5510,
      "keepĠ": 5511,
      "ï¼Įå®ĥ": 5512,
      ".c": 5513,
      "å²¸": 5514,
      "\"Ġ(": 5515,
      "å¹½": 5516,
      "æĿ±": 5517,
      "clas": 5518,
      "çĽ®åīį": 5519,
      "Reg": 5520,
      "Ċĉĉĉĉĉĉ": 5521,
      "éĿ¢ç§¯": 5522,
      "ãĢĤæľī": 5523,
      "æ´ª": 5524,
      "Mich": 5525,
      "Des": 5526,
      "éĻ¤äºĨ": 5527,
      "humanĠ": 5528,
      "thirdĠ": 5529,
      "Austr": 5530,
      ":ĠTheĠ": 5531,
      "'veĠ": 5532,
      "ç¼©": 5533,
      "sou": 5534,
      "çĽĳçĿ£": 5535,
      "çĥ§": 5536,
      "asĠe": 5537,
      "ä¿ĿæĮģ": 5538,
      "rig": 5539,
      "almostĠ": 5540,
      "ç»©": 5541,
      "æ²¿": 5542,
      "https://": 5543,
      "çļĦå¥³": 5544,
      "):ĊĠĠĠĠ": 5545,
      "ä¸ļåĬ¡": 5546,
      "filen": 5547,
      "eckĠ": 5548,
      "æ£ĢæŁ¥": 5549,
      "SouthĠ": 5550,
      "å¸ģ": 5551,
      "p_": 5552,
      "å®¹æĺĵ": 5553,
      "runĠ": 5554,
      "anch": 5555,
      "seenĠ": 5556,
      "å¢Ļ": 5557,
      "simil": 5558,
      "Cap": 5559,
      "erĠofĠtheĠ": 5560,
      "hop": 5561,
      "client": 5562,
      "takenĠ": 5563,
      "File": 5564,
      "Log": 5565,
      "åħ¨éĿ¢": 5566,
      "agre": 5567,
      "çĥ¦": 5568,
      "åĢ¾": 5569,
      "or,Ġ": 5570,
      "çĸı": 5571,
      "groundĠ": 5572,
      "åĿļæĮģ": 5573,
      "Lab": 5574,
      "ï¼ĮæĽ´": 5575,
      "afterĠtheĠ": 5576,
      "èĿ": 5577,
      "eter": 5578,
      "Path": 5579,
      "TheyĠ": 5580,
      "èī²çļĦ": 5581,
      "Â»": 5582,
      "defineĠ": 5583,
      "ardsĠ": 5584,
      "ç¾½": 5585,
      "å·¦åı³": 5586,
      "åŁ¹åħ»": 5587,
      "æĻĵ": 5588,
      "publish": 5589,
      "./": 5590,
      "åĿ¦": 5591,
      "cy": 5592,
      "x_": 5593,
      "å±ŀäºİ": 5594,
      "Willi": 5595,
      "s-": 5596,
      "age,Ġ": 5597,
      "ç»ıè¿ĩ": 5598,
      "2020": 5599,
      "is:Ġ": 5600,
      "stringĠ": 5601,
      "å£ģ": 5602,
      "æ³ķéĻ¢": 5603,
      "tran": 5604,
      "çĪ¸": 5605,
      "sin": 5606,
      "tod": 5607,
      "äºĭä»¶": 5608,
      "betweenĠtheĠ": 5609,
      ".ĠAfterĠ": 5610,
      ")Ġ=>Ġ": 5611,
      "å¾ª": 5612,
      "becom": 5613,
      "çĪ¶æ¯į": 5614,
      "èĤĿ": 5615,
      "æĽ¹": 5616,
      "tĠ=Ġ": 5617,
      "ç°": 5618,
      "åĬªåĬĽ": 5619,
      "edĠupĠ": 5620,
      "time,Ġ": 5621,
      "çļĦéĹ®é¢ĺ": 5622,
      "å½»": 5623,
      "ä¹Ķ": 5624,
      "æķĻæİĪ": 5625,
      "whenĠtheĠ": 5626,
      "çĬ¶æĢģ": 5627,
      "gaveĠ": 5628,
      "åĽ½åĨħ": 5629,
      "å¼Ģå±ķ": 5630,
      ".Ċ-Ġ": 5631,
      "è®¾æĸ½": 5632,
      "æĿ¯": 5633,
      "Dev": 5634,
      "ffĠ": 5635,
      "ä¼¼ä¹İ": 5636,
      "ross": 5637,
      ")ĊĠĠĠĠĠĠĠĠself.": 5638,
      "çĪĨ": 5639,
      "24Ġ": 5640,
      "å¯¸": 5641,
      "ç»ª": 5642,
      "specificĠ": 5643,
      "var": 5644,
      "ï¼Įå¦Ĥæŀľ": 5645,
      "ron": 5646,
      "cup": 5647,
      "thersĠ": 5648,
      "å°ĺ": 5649,
      "stric": 5650,
      "JS": 5651,
      "ä¸ĭæĿ¥": 5652,
      "StepĠ": 5653,
      "modelĠ": 5654,
      "edĠtoĠbeĠ": 5655,
      "æĪĺäºī": 5656,
      "findĠtheĠ": 5657,
      "æĹĭ": 5658,
      "FebruaryĠ": 5659,
      "åĩłä¹İ": 5660,
      "50Ġ": 5661,
      "æĹ¦": 5662,
      "æĬ½": 5663,
      "speci": 5664,
      "åĪĽéĢł": 5665,
      "çĪ¶äº²": 5666,
      "\\(": 5667,
      "describ": 5668,
      "æ²»çĸĹ": 5669,
      "testĠ": 5670,
      "augh": 5671,
      ".p": 5672,
      "åĩĮ": 5673,
      "éģ£": 5674,
      "éĢ²": 5675,
      "åĩ½": 5676,
      "èĪĴ": 5677,
      "shouldĠbeĠ": 5678,
      "openĠ": 5679,
      "server": 5680,
      "abo": 5681,
      "StatesĠ": 5682,
      "æľ¬ä¹¦": 5683,
      "ãĢĤå¥¹": 5684,
      "InĠtheĠ": 5685,
      "Â«": 5686,
      "tou": 5687,
      "sidentĠ": 5688,
      "!=Ġ": 5689,
      "fric": 5690,
      "çıį": 5691,
      "çĭĤ": 5692,
      "Su": 5693,
      "esĠ=Ġ": 5694,
      "compar": 5695,
      "å®¶çļĦ": 5696,
      ")Ġ->ĠNone": 5697,
      "warĠ": 5698,
      "ï¼Įå½ĵ": 5699,
      "-3": 5700,
      "Bro": 5701,
      "Off": 5702,
      "78": 5703,
      "ech": 5704,
      "ï¼ĮæľĢ": 5705,
      "ç½²": 5706,
      "éĴ¢": 5707,
      "ï¼ĮåĨį": 5708,
      "ç±»åŀĭ": 5709,
      "Compon": 5710,
      "{Ċĉ": 5711,
      "tionĠofĠtheĠ": 5712,
      "Ang": 5713,
      "()ĊĠĠĠĠ": 5714,
      "At": 5715,
      "å¿§": 5716,
      "separ": 5717,
      "èµŀ": 5718,
      "ç¾İåħĥ": 5719,
      "ï¼Įä»¥åıĬ": 5720,
      "9æľĪ": 5721,
      "è¾¾åĪ°": 5722,
      "CON": 5723,
      "resultĠ": 5724,
      "ï¼Įä¾¿": 5725,
      "åĪĨéĴŁ": 5726,
      "ç¥Ń": 5727,
      "extend": 5728,
      "KĠ": 5729,
      "AllĠ": 5730,
      "Mus": 5731,
      "åīĤ": 5732,
      "LI": 5733,
      "Mr": 5734,
      "Del": 5735,
      "æħķ": 5736,
      "èļ": 5737,
      "ofĠhisĠ": 5738,
      "ä¸»ç®¡": 5739,
      "ä¿Ħ": 5740,
      "nd": 5741,
      "åĵŃ": 5742,
      "çľŁå®ŀ": 5743,
      "åģ¶": 5744,
      "èĥ¸": 5745,
      "e.ĊĊ": 5746,
      "åĿĢ": 5747,
      "ent,Ġ": 5748,
      "äºĭæĥħ": 5749,
      "ally": 5750,
      "åħ±åĴĮ": 5751,
      "politicalĠ": 5752,
      "éļıçĿĢ": 5753,
      "æ¦Ĥå¿µ": 5754,
      "ĊĊĊdefĠ": 5755,
      "):": 5756,
      "centĠ": 5757,
      "halfĠ": 5758,
      "å²©": 5759,
      "éĢłæĪĲ": 5760,
      "kill": 5761,
      "unit": 5762,
      "ä»²": 5763,
      "å´ĩ": 5764,
      "Sol": 5765,
      "Sw": 5766,
      "fron": 5767,
      "ectiv": 5768,
      "é£İéĻ©": 5769,
      "é¦Ļæ¸¯": 5770,
      "ticeĠ": 5771,
      "åĩī": 5772,
      "tool": 5773,
      "farĠ": 5774,
      "isĠanĠ": 5775,
      "whetherĠ": 5776,
      "æľĹ": 5777,
      "éĤª": 5778,
      "High": 5779,
      "Mis": 5780,
      "åıįåºĶ": 5781,
      "pap": 5782,
      "Fren": 5783,
      "äºķ": 5784,
      "knewĠ": 5785,
      "\\)Ġ": 5786,
      "èĩ³äºİ": 5787,
      "ç§¯æŀģ": 5788,
      "ï¼ĮçĶ¨": 5789,
      "æĤī": 5790,
      "åı¦ä¸Ģ": 5791,
      "FF": 5792,
      "';ĊimportĠ": 5793,
      "mm": 5794,
      "ï¼ĮæŃ¤": 5795,
      "ï¼ĮæĬĬ": 5796,
      "è´¯": 5797,
      "ç¬¬äºĶ": 5798,
      "ç½¢": 5799,
      "ratherĠ": 5800,
      "è°ĥæŁ¥": 5801,
      "ä½įç½®": 5802,
      "åĪ¶ä½ľ": 5803,
      "enceĠofĠ": 5804,
      "ĠĠĠĠĠ": 5805,
      "10æľĪ": 5806,
      "ä»ĸä»¬çļĦ": 5807,
      "trav": 5808,
      "eĠ=Ġ": 5809,
      "æĪ´": 5810,
      "los": 5811,
      "\\sqrt{": 5812,
      "eĠ(": 5813,
      "åľĪ": 5814,
      "10.": 5815,
      "BritishĠ": 5816,
      "äºŀ": 5817,
      "ĠĠ<": 5818,
      "sheĠwasĠ": 5819,
      "associ": 5820,
      "ï¼ı": 5821,
      "è¯¾ç¨ĭ": 5822,
      "mustĠbeĠ": 5823,
      "è´¡": 5824,
      "é¸Ł": 5825,
      "piec": 5826,
      "that'sĠ": 5827,
      "fut": 5828,
      "äºĨä¸Ģä¸ª": 5829,
      "Inde": 5830,
      "æĺ¯ä¸ª": 5831,
      "itaryĠ": 5832,
      "esĠwereĠ": 5833,
      "æľŁéĹ´": 5834,
      "sugg": 5835,
      "åıĸå¾Ĺ": 5836,
      "åĲİçļĦ": 5837,
      "ä½įäºİ": 5838,
      "clu": 5839,
      "PO": 5840,
      "åħ§": 5841,
      "ä»°": 5842,
      "ustr": 5843,
      "column": 5844,
      "è¿«": 5845,
      "query": 5846,
      "åĵī": 5847,
      "-4": 5848,
      "æ±¡": 5849,
      "éĺ¶æ®µ": 5850,
      "len(": 5851,
      "æĪĳåĽ½": 5852,
      ";ĊĊĠĠĠĠ": 5853,
      "is_": 5854,
      "189": 5855,
      "Don": 5856,
      "inaĠ": 5857,
      "åĢį": 5858,
      "åħ®": 5859,
      "19Ġ": 5860,
      "æ©Ł": 5861,
      "claim": 5862,
      "small": 5863,
      "agueĠ": 5864,
      "eder": 5865,
      "å£®": 5866,
      "Sup": 5867,
      "åħ½": 5868,
      "happen": 5869,
      "Publ": 5870,
      "charg": 5871,
      "us,Ġ": 5872,
      "ç»ĦæĪĲ": 5873,
      ")ĊĠĠĠĠĠĠĠĠĠĠĠĠĠĠĠĠ": 5874,
      "al-": 5875,
      "èī¾": 5876,
      "å¥¶": 5877,
      "è´´": 5878,
      "gameĠ": 5879,
      "12æľĪ": 5880,
      "staticĠ": 5881,
      "$,Ġ": 5882,
      "çĶµåŃĲ": 5883,
      "çļĦãĢĬ": 5884,
      "Tw": 5885,
      "ä»¿": 5886,
      "åįĴ": 5887,
      "erv": 5888,
      "Isl": 5889,
      "åĬŀåħ¬": 5890,
      "Ap": 5891,
      "bal": 5892,
      "æĥ³è¦ģ": 5893,
      "ä¸īä¸ª": 5894,
      "ageĠofĠ": 5895,
      "lig": 5896,
      "å¯¹è±¡": 5897,
      "å¤ļçļĦ": 5898,
      "åĤ¨": 5899,
      "Dict": 5900,
      "&&Ġ": 5901,
      "doesĠnotĠ": 5902,
      "presentĠ": 5903,
      "himselfĠ": 5904,
      "ãĢĤå¦Ĥ": 5905,
      "ue,Ġ": 5906,
      "_p": 5907,
      "thereĠareĠ": 5908,
      "NĠ": 5909,
      "2)": 5910,
      "æķĪæŀľ": 5911,
      "thingsĠ": 5912,
      "youngĠ": 5913,
      "feltĠ": 5914,
      "(3": 5915,
      "Field": 5916,
      "Hol": 5917,
      "heav": 5918,
      "style": 5919,
      "source": 5920,
      "Fin": 5921,
      "âĢ¢": 5922,
      "å°ĩ": 5923,
      "membersĠ": 5924,
      "Out": 5925,
      "tellĠ": 5926,
      "cm": 5927,
      "seasonĠ": 5928,
      "circ": 5929,
      "é¦¬": 5930,
      "doesn'tĠ": 5931,
      "âĢĿĊ": 5932,
      "inste": 5933,
      "ockĠ": 5934,
      "phys": 5935,
      "ä¸įåĲĮçļĦ": 5936,
      "Europe": 5937,
      "ç§Ł": 5938,
      "å®¾": 5939,
      "errorĠ": 5940,
      "æ½®": 5941,
      "formerĠ": 5942,
      "è¾ħ": 5943,
      "foot": 5944,
      "ãĢĭĠ": 5945,
      "çģ¾": 5946,
      "DO": 5947,
      "èħ¹": 5948,
      ".ĠInĠtheĠ": 5949,
      "hab": 5950,
      "---": 5951,
      "è¦Ĩ": 5952,
      "æĨ": 5953,
      "èİī": 5954,
      "Jap": 5955,
      "andĠaĠ": 5956,
      "æķ¸": 5957,
      "çļĦäºĭæĥħ": 5958,
      "7æľĪ": 5959,
      "æľĢé«ĺ": 5960,
      "éĩįæĸ°": 5961,
      "ham": 5962,
      "Trans": 5963,
      "ä¾ĭå¦Ĥ": 5964,
      "é»İ": 5965,
      "sĠorĠ": 5966,
      "éĢļå¸¸": 5967,
      "ï¼Įåħ¶ä¸Ń": 5968,
      "æ¶¦": 5969,
      "workingĠ": 5970,
      "ode": 5971,
      "x,Ġ": 5972,
      "å©Ĩ": 5973,
      "æ¹¿": 5974,
      "turalĠ": 5975,
      "audi": 5976,
      "èªª": 5977,
      "$$": 5978,
      "DI": 5979,
      ".j": 5980,
      "ï¼Įåı¯ä»¥": 5981,
      "ç¨ĭåº¦": 5982,
      "childrenĠ": 5983,
      "NotĠ": 5984,
      "ãĢĤä»¥": 5985,
      "dotĠ": 5986,
      "æľīçļĦ": 5987,
      "equationĠ": 5988,
      "notĠbeĠ": 5989,
      "æĹ¨": 5990,
      "atĠaĠ": 5991,
      "æĮ¯": 5992,
      "çļĩå¸Ŀ": 5993,
      "æĻ®éĢļ": 5994,
      "éº¦": 5995,
      "Us": 5996,
      "ãĢĤå½ĵ": 5997,
      "governmentĠ": 5998,
      "marri": 5999,
      "æ¹¾": 6000,
      "å¤§å®¶": 6001,
      "script": 6002,
      "ä¸§": 6003,
      "uk": 6004,
      "ins": 6005,
      ".ĊĊĠĠĠĠĠĠĠĠ": 6006,
      "èĢģå¸Ī": 6007,
      "ologicalĠ": 6008,
      "äºĭä¸ļ": 6009,
      "accep": 6010,
      "æħ§": 6011,
      "path.": 6012,
      "é©¾": 6013,
      "schoolĠ": 6014,
      "ence,Ġ": 6015,
      "anaĠ": 6016,
      "personĠ": 6017,
      "moveĠ": 6018,
      "ä¼ĺç§Ģ": 6019,
      "éĥŃ": 6020,
      "ular": 6021,
      "HowĠ": 6022,
      "çī¹çĤ¹": 6023,
      "AfterĠ": 6024,
      "Equal": 6025,
      "_M": 6026,
      "()Ġ=>Ġ": 6027,
      "ome": 6028,
      "asyn": 6029,
      "è´¼": 6030,
      ">ĊĠĠĠĠĠĠ": 6031,
      "åħ³éĶ®": 6032,
      "member": 6033,
      "çĲ´": 6034,
      "æľºä¼ļ": 6035,
      "whiteĠ": 6036,
      "combin": 6037,
      "prev": 6038,
      ":ĊĠĠĠĠĠĠĠĠ\"\"\"ĊĠĠĠĠĠĠĠĠ": 6039,
      "èº«ä¸Ĭ": 6040,
      "åĬĽçļĦ": 6041,
      "interest": 6042,
      "èµ·æĿ¥ï¼Į": 6043,
      "çŁ£ãĢĤ": 6044,
      "NorthĠ": 6045,
      "behindĠ": 6046,
      "Hel": 6047,
      "Lin": 6048,
      "2Ġ=Ġ": 6049,
      "],Ġ": 6050,
      "prec": 6051,
      "æģ¨": 6052,
      "ance,Ġ": 6053,
      "çļĦåľ°æĸ¹": 6054,
      "Class": 6055,
      "levelĠ": 6056,
      "againĠ": 6057,
      "attemp": 6058,
      "By": 6059,
      "ï¼ĮåĽłæŃ¤": 6060,
      "film": 6061,
      "fill": 6062,
      "transform": 6063,
      ".ĠĊĊĠ": 6064,
      "(self):ĊĠĠĠĠĠĠĠĠ": 6065,
      "hard": 6066,
      "åĩºçīĪç¤¾": 6067,
      "æŀĿ": 6068,
      "glob": 6069,
      "weight": 6070,
      "qĠ": 6071,
      "umb": 6072,
      "yĠtoĠ": 6073,
      "fet": 6074,
      "boxed": 6075,
      "éģ¸": 6076,
      "éĻ¶": 6077,
      "nessĠ": 6078,
      "çĭ¬ç«ĭ": 6079,
      "æŃ£æĺ¯": 6080,
      "sumĠ": 6081,
      "éľĢæ±Ĥ": 6082,
      "æł¸å¿ĥ": 6083,
      "partĠofĠ": 6084,
      "è¿Ļæł·çļĦ": 6085,
      "6æľĪ": 6086,
      "ullĠ": 6087,
      "çĶ·äºº": 6088,
      "agesĠ": 6089,
      "è®Ńç»ĥ": 6090,
      "havingĠ": 6091,
      "TR": 6092,
      ".ĠĠ": 6093,
      "span": 6094,
      "æ¯įäº²": 6095,
      "æī¶": 6096,
      "NoĠ": 6097,
      "four": 6098,
      "åĪ¶éĢł": 6099,
      "\")ĊĠĠĠĠĠĠĠĠ": 6100,
      "aĠhref=\"": 6101,
      "en'sĠ": 6102,
      "å¤ļæķ°": 6103,
      "component": 6104,
      "å°¸": 6105,
      ".ĠAl": 6106,
      "et,Ġ": 6107,
      "ili": 6108,
      "ãĢĤï¼Ī": 6109,
      "Att": 6110,
      "åħ¨éĥ¨": 6111,
      "(ĊĠĠĠĠĠĠĠĠ": 6112,
      "ä¿ĥè¿Ľ": 6113,
      "èĭ±åĽ½": 6114,
      "åĩĿ": 6115,
      "å¼Ħ": 6116,
      "èĢĥèĻĳ": 6117,
      "åĭ¤": 6118,
      "Ag": 6119,
      "sli": 6120,
      "lateĠ": 6121,
      "ï¼ļĊĊ": 6122,
      "çĦ¦": 6123,
      "handĠ": 6124,
      "edĠoutĠ": 6125,
      "è¯ģæĺİ": 6126,
      "polic": 6127,
      "partĠofĠtheĠ": 6128,
      "åĪĬ": 6129,
      "eci": 6130,
      "ingĠtoĠtheĠ": 6131,
      "å°±ä¼ļ": 6132,
      "17Ġ": 6133,
      "2,": 6134,
      "çĭ±": 6135,
      "åŁ¹è®Ń": 6136,
      "short": 6137,
      "çĽ®çļĦ": 6138,
      "åĲı": 6139,
      "admin": 6140,
      "eterĠ": 6141,
      "boxed{": 6142,
      "EC": 6143,
      "å¥Ī": 6144,
      "éħĴåºĹ": 6145,
      "atĠleastĠ": 6146,
      "æĮĤ": 6147,
      "school": 6148,
      "vĠ": 6149,
      "èµĦäº§": 6150,
      "sle": 6151,
      "å¥½ï¼Į": 6152,
      "SI": 6153,
      "åĪĨåĪ«": 6154,
      "socialĠ": 6155,
      "åĲİæĿ¥": 6156,
      "consist": 6157,
      "rot": 6158,
      "éĽĨåĽ¢": 6159,
      "West": 6160,
      "kindĠ": 6161,
      "pen": 6162,
      "merĠ": 6163,
      "âĨ": 6164,
      "ç¨®": 6165,
      "è»Ĭ": 6166,
      "49": 6167,
      "ingĠforĠ": 6168,
      "å¯Ħ": 6169,
      "(n": 6170,
      "åĢĳ": 6171,
      "Pres": 6172,
      "åħ¬åħ±": 6173,
      "watch": 6174,
      "ä¸īãĢģ": 6175,
      "Chang": 6176,
      "å»ºè®®": 6177,
      "comput": 6178,
      ");Ġ": 6179,
      "åľŁåľ°": 6180,
      "æıĲåįĩ": 6181,
      "viv": 6182,
      "èµĦæĸĻ": 6183,
      "variousĠ": 6184,
      "ungĠ": 6185,
      "strict": 6186,
      "Her": 6187,
      "scen": 6188,
      "ä¿Ŀéļľ": 6189,
      "ç¿¼": 6190,
      "2âĢĵ": 6191,
      "nearĠ": 6192,
      "ociet": 6193,
      "65": 6194,
      "ç³ĸ": 6195,
      "ç¡®å®ŀ": 6196,
      "å§ľ": 6197,
      "mid": 6198,
      "äººæīį": 6199,
      "æĦŁåĪ°": 6200,
      "åŀĤ": 6201,
      "Wid": 6202,
      "ï¼Įèĩª": 6203,
      "Pe": 6204,
      "èªŀ": 6205,
      "imageĠ": 6206,
      "çī¹å¾ģ": 6207,
      "omin": 6208,
      "åĮĸçļĦ": 6209,
      "æĽ´åĬł": 6210,
      "å·¥åħ·": 6211,
      "formul": 6212,
      "track": 6213,
      "è£Ĥ": 6214,
      "èµ¤": 6215,
      "comment": 6216,
      "è¿Ķ": 6217,
      "hap": 6218,
      "denĠ": 6219,
      "oole": 6220,
      "éĶĢåĶ®": 6221,
      "Afric": 6222,
      "er'sĠ": 6223,
      "Met": 6224,
      "Chap": 6225,
      "è¿ħ": 6226,
      "can'tĠ": 6227,
      "å¤º": 6228,
      "liter": 6229,
      "controlĠ": 6230,
      "æľºåĪ¶": 6231,
      "3âĢĵ": 6232,
      "åĵģçīĮ": 6233,
      "æĺ¯ä»Ģä¹Ī": 6234,
      "ample": 6235,
      "to_": 6236,
      "techn": 6237,
      "(ĊĠĠĠĠĠĠĠĠĠĠĠĠ": 6238,
      "comple": 6239,
      "å¯¼èĩ´": 6240,
      "å¢ŀéķ¿": 6241,
      "å¥ĭ": 6242,
      "æĥ¯": 6243,
      "majorĠ": 6244,
      "Ð°": 6245,
      "update": 6246,
      "100Ġ": 6247,
      "Ma": 6248,
      "dra": 6249,
      "intro": 6250,
      "meet": 6251,
      "termĠ": 6252,
      "rout": 6253,
      "ï¼Įè¢«": 6254,
      "as,Ġ": 6255,
      "s;Ġ": 6256,
      "ties": 6257,
      "æ»ĳ": 6258,
      "limit": 6259,
      "Int": 6260,
      ";Ċ}Ċ": 6261,
      "èµ«": 6262,
      "è¯´è¯Ŀ": 6263,
      "antsĠ": 6264,
      "integr": 6265,
      "ç»Łä¸Ģ": 6266,
      "èµĸ": 6267,
      "ä¸Ī": 6268,
      "å¤ļå°ĳ": 6269,
      "wholeĠ": 6270,
      "çģ°": 6271,
      "çĽ¸ä¿¡": 6272,
      "1-": 6273,
      "çŁ¿": 6274,
      "womenĠ": 6275,
      "Rel": 6276,
      "brow": 6277,
      "æĪĲæľ¬": 6278,
      "æĦĪ": 6279,
      "intoĠaĠ": 6280,
      "åĲĲ": 6281,
      "æĭĴ": 6282,
      "åħ¨çĲĥ": 6283,
      "âĢĿãĢģâĢľ": 6284,
      "sixĠ": 6285,
      "åĦĴ": 6286,
      "çºµ": 6287,
      "uresĠ": 6288,
      "iveĠ": 6289,
      "æ¡ĳ": 6290,
      "Russi": 6291,
      "è²Į": 6292,
      "EX": 6293,
      "èı²": 6294,
      "å¯¿": 6295,
      "æ¡Į": 6296,
      "çī§": 6297,
      "åĳĪ": 6298,
      "=Ġ\"": 6299,
      "ï¼ŁĠ": 6300,
      "ĊĊS": 6301,
      "sn": 6302,
      "',": 6303,
      "f-": 6304,
      "eĠinĠ": 6305,
      "å¤§ä¼ļ": 6306,
      "osp": 6307,
      "thĠcentur": 6308,
      "builtĠ": 6309,
      "èįĴ": 6310,
      "histor": 6311,
      "3æľĪ": 6312,
      "energ": 6313,
      ".com/": 6314,
      "åĩŃ": 6315,
      "er-": 6316,
      "ä¸ĩåħĥ": 6317,
      "8æľĪ": 6318,
      "numbersĠ": 6319,
      "\"Ċ": 6320,
      "haveĠtoĠ": 6321,
      "atten": 6322,
      "ç¨±": 6323,
      "tag": 6324,
      "éĢŁåº¦": 6325,
      "http://": 6326,
      "fall": 6327,
      "ĊĠĠĠĠ\"\"\"ĊĠĠĠĠ": 6328,
      "éĹª": 6329,
      "||Ġ": 6330,
      "éĵ¶è¡Į": 6331,
      "AG": 6332,
      "asĠwellĠasĠ": 6333,
      "requiredĠ": 6334,
      "package": 6335,
      "]ĊĊ": 6336,
      "è¢ĭ": 6337,
      "venĠ": 6338,
      "æ°ĳä¸»": 6339,
      "eĠtoĠ": 6340,
      "liĠ": 6341,
      "employ": 6342,
      "Time": 6343,
      "ifĠtheĠ": 6344,
      ".ĊĊS": 6345,
      "æĢĿèĢĥ": 6346,
      "Det": 6347,
      "meansĠ": 6348,
      "5æľĪ": 6349,
      "ather": 6350,
      "1:": 6351,
      "hadĠaĠ": 6352,
      ",'Ġ": 6353,
      "TO": 6354,
      "missionĠ": 6355,
      "åįģä¸ĥ": 6356,
      "ä¹Ļ": 6357,
      "å·¡": 6358,
      "å¿ĥéĩĮ": 6359,
      "moun": 6360,
      "emo": 6361,
      "Nav": 6362,
      "å°ĸ": 6363,
      "ä¹¦è®°": 6364,
      "necess": 6365,
      ",ĠinĠ": 6366,
      "parse": 6367,
      "åĲ¬åĪ°": 6368,
      "åĲĹï¼ŁâĢĿ": 6369,
      "å¹³åı°": 6370,
      "CS": 6371,
      "cos": 6372,
      "åį«çĶŁ": 6373,
      "fromĠaĠ": 6374,
      "æ¶Īè´¹": 6375,
      "sentĠ": 6376,
      "tersĠ": 6377,
      "itiesĠ": 6378,
      "La": 6379,
      "Get": 6380,
      "çļĦæīĭ": 6381,
      "belie": 6382,
      "ï¼ĮåĽł": 6383,
      "blackĠ": 6384,
      "åĲķ": 6385,
      "äºĨãĢĤâĢĿ": 6386,
      "éĩįå¤§": 6387,
      "phot": 6388,
      "47": 6389,
      "ingĠhisĠ": 6390,
      "æĬļ": 6391,
      "mos": 6392,
      "weĠcanĠ": 6393,
      "âĢĶĠâĢĶĠ": 6394,
      "èªī": 6395,
      "ondĠ": 6396,
      "ation.": 6397,
      "UĠ": 6398,
      "çļĦä¸ľè¥¿": 6399,
      "ç¾Ĭ": 6400,
      "MP": 6401,
      "åħģ": 6402,
      "æ¯ķä¸ļ": 6403,
      "freeĠ": 6404,
      "è§Ħæ¨¡": 6405,
      "è§ĦèĮĥ": 6406,
      "ç¨į": 6407,
      "å¥Ķ": 6408,
      "éĢĨ": 6409,
      "equal": 6410,
      "board": 6411,
      "æĺİçĻ½": 6412,
      "21Ġ": 6413,
      "region": 6414,
      "æ¸ħæ¥ļ": 6415,
      "User": 6416,
      "std": 6417,
      "çĽĲ": 6418,
      "åĽ¾ä¹¦": 6419,
      "*/Ċ": 6420,
      "All": 6421,
      "Mat": 6422,
      "tick": 6423,
      "WĠ": 6424,
      "ç»ĺ": 6425,
      "è¯ı": 6426,
      "188": 6427,
      "announc": 6428,
      "omet": 6429,
      "åħ¶å®ŀ": 6430,
      "),": 6431,
      "{ĊĠĠĠĠĠĠ": 6432,
      "codeĠ": 6433,
      "peti": 6434,
      "æĳĨ": 6435,
      "IP": 6436,
      "Wind": 6437,
      "fav": 6438,
      "erĠinĠ": 6439,
      ")Ġ{ĊĠĠĠĠĠĠĠĠĠĠĠĠ": 6440,
      "å°ĳå¹´": 6441,
      "æ¢°": 6442,
      "æĭĶ": 6443,
      "signific": 6444,
      "Rev": 6445,
      "è±ª": 6446,
      "æľīéĻĲåħ¬åı¸": 6447,
      "ä¹ĭéĹ´çļĦ": 6448,
      "bra": 6449,
      "ãĢĤéĤ£": 6450,
      "åĪ¸": 6451,
      "æĸĩæĺİ": 6452,
      "éĥ½ä¸į": 6453,
      "ane": 6454,
      "æ±Ĺ": 6455,
      "1æľĪ": 6456,
      "plat": 6457,
      "ä¸īå¹´": 6458,
      "Args:ĊĠĠĠĠĠĠĠĠ": 6459,
      "Georg": 6460,
      "roy": 6461,
      "è¯Ħä»·": 6462,
      "æĪĺçķ¥": 6463,
      "^2Ġ+Ġ": 6464,
      "neg": 6465,
      "session": 6466,
      "11æľĪ": 6467,
      "å¹´è½»": 6468,
      "mayĠbeĠ": 6469,
      "instance": 6470,
      "exper": 6471,
      "ErrorĠ": 6472,
      "atic": 6473,
      "email": 6474,
      "çŃīãĢĤ": 6475,
      "UnitedĠStatesĠ": 6476,
      "ers.Ġ": 6477,
      "æ¸¡": 6478,
      "NewĠYorkĠ": 6479,
      "æ¥Ń": 6480,
      "erĠ(": 6481,
      "åĮ»çĸĹ": 6482,
      "èĻ«": 6483,
      "duceĠ": 6484,
      ".Ġ_": 6485,
      "èħ¿": 6486,
      "writtenĠ": 6487,
      "æĥľ": 6488,
      "ectiveĠ": 6489,
      "46": 6490,
      "thon": 6491,
      "occur": 6492,
      "äºŃ": 6493,
      "FA": 6494,
      "s,ĠbutĠ": 6495,
      "æŃ£å¼ı": 6496,
      "æĺ¾ç¤º": 6497,
      "ing_": 6498,
      "æ±½è½¦": 6499,
      "éĮ": 6500,
      ",ĠwhoĠ": 6501,
      "aĠS": 6502,
      "åľ°ï¼Į": 6503,
      "èĩªæĪĳ": 6504,
      "å¸¦çĿĢ": 6505,
      ".ĠK": 6506,
      "èģĶç³»": 6507,
      "tradi": 6508,
      "tableĠ": 6509,
      "batt": 6510,
      "hasĠaĠ": 6511,
      "4æľĪ": 6512,
      "Rich": 6513,
      "è§Ĵèī²": 6514,
      "åīįï¼Į": 6515,
      "56": 6516,
      "lookingĠ": 6517,
      "æĺİæĺ¾": 6518,
      "attribut": 6519,
      "cast": 6520,
      "cost": 6521,
      "fatherĠ": 6522,
      "risti": 6523,
      "çĬ¯ç½ª": 6524,
      "U.S": 6525,
      "Champion": 6526,
      "eringĠ": 6527,
      "align": 6528,
      "they": 6529,
      "æĩĤ": 6530,
      "ifĠyouĠ": 6531,
      "è¤": 6532,
      "æ¡ĥ": 6533,
      "es.ĠTheĠ": 6534,
      "Optional": 6535,
      "æ³¥": 6536,
      "è¿Ł": 6537,
      "whyĠ": 6538,
      "æİªæĸ½": 6539,
      "**Ġ": 6540,
      "Mess": 6541,
      "âĸ": 6542,
      "åĽłç´ł": 6543,
      "next": 6544,
      "å¤§éĩı": 6545,
      "æĺ¯ä¸Ģç§į": 6546,
      "duĠ": 6547,
      "togetherĠ": 6548,
      "name,Ġ": 6549,
      "Pi": 6550,
      "ementsĠ": 6551,
      "ä¸¥éĩį": 6552,
      "çĶ¨æĪ·": 6553,
      "electr": 6554,
      "äº¤æĺĵ": 6555,
      "ä¸įè¶³": 6556,
      "èµĲ": 6557,
      "æ¯ıä¸ª": 6558,
      "22Ġ": 6559,
      "$ĠandĠ": 6560,
      "ologyĠ": 6561,
      "éĵ¾": 6562,
      "auĠ": 6563,
      "problemĠ": 6564,
      "edĠhimĠ": 6565,
      "ãĢĭçļĦ": 6566,
      "ä½ĵçļĦ": 6567,
      "Item": 6568,
      "activeĠ": 6569,
      "oph": 6570,
      "é¸£": 6571,
      "adem": 6572,
      "chann": 6573,
      "æ¯ģ": 6574,
      "Republ": 6575,
      "å¹»": 6576,
      "æ²Ł": 6577,
      "æķ°åŃĹ": 6578,
      "&quot": 6579,
      "'ĊĊ'": 6580,
      "discus": 6581,
      "åĲ¹": 6582,
      "imumĠ": 6583,
      "_data": 6584,
      "artic": 6585,
      "bri": 6586,
      "tĠtoĠ": 6587,
      "åįģä¹Ŀ": 6588,
      "ï¼ŁĊ": 6589,
      "æı´": 6590,
      ".ĠAsĠ": 6591,
      "holdĠ": 6592,
      "å°ĨåĨĽ": 6593,
      "æĿ¥èĩª": 6594,
      "matri": 6595,
      "aiĠ": 6596,
      "å¯¹æĸ¹": 6597,
      "seĠofĠ": 6598,
      "Object": 6599,
      "äººæ°ĳæĶ¿åºľ": 6600,
      "water": 6601,
      "answerĠis:Ġ": 6602,
      "è¶ħè¿ĩ": 6603,
      "Dur": 6604,
      "Node": 6605,
      "æĮģç»Ń": 6606,
      "å¤«äºº": 6607,
      "èħ°": 6608,
      "çĶŁæĢģ": 6609,
      "fram": 6610,
      "åĨľæĿĳ": 6611,
      "ipp": 6612,
      "rup": 6613,
      "æıĴ": 6614,
      ",ĠsoĠ": 6615,
      "è¿Ĳè¡Į": 6616,
      "too": 6617,
      "çī¹æ®Ĭ": 6618,
      "after": 6619,
      "standĠ": 6620,
      "math": 6621,
      "jang": 6622,
      "Ċĉĉĉĉĉ": 6623,
      "s=": 6624,
      "éĿĴå¹´": 6625,
      "someoneĠ": 6626,
      "31": 6627,
      "Que": 6628,
      "insĠ": 6629,
      "åįģå¹´": 6630,
      "prepar": 6631,
      ":=Ġ": 6632,
      "eryĠ": 6633,
      "ingĠwithĠ": 6634,
      "æĥ§": 6635,
      "gramĠ": 6636,
      "æģ¢": 6637,
      ".add": 6638,
      "æŁ±": 6639,
      "å¨ľ": 6640,
      ".ĠHeĠwasĠ": 6641,
      "çĶŁçļĦ": 6642,
      "40Ġ": 6643,
      "ed.ĊĊ": 6644,
      "ä»·æł¼": 6645,
      "Mor": 6646,
      "havi": 6647,
      "intern": 6648,
      "addĠ": 6649,
      "degre": 6650,
      "sych": 6651,
      "è¡°": 6652,
      "outĠtheĠ": 6653,
      "connect": 6654,
      "çļĦåıĳå±ķ": 6655,
      "sĠandĠtheĠ": 6656,
      "ä¸°å¯Į": 6657,
      "ç»ķ": 6658,
      "çĭĹ": 6659,
      "NumberĠ": 6660,
      "mix": 6661,
      "millionĠ": 6662,
      "æĦıè§ģ": 6663,
      "teach": 6664,
      "companyĠ": 6665,
      "generalĠ": 6666,
      "Model": 6667,
      "æ¯Ķå¦Ĥ": 6668,
      "ä¸įä»ħ": 6669,
      "CL": 6670,
      "é¾Ħ": 6671,
      "soft": 6672,
      "FrenchĠ": 6673,
      "UT": 6674,
      "itte": 6675,
      ".ĠIt'sĠ": 6676,
      "listĠ": 6677,
      "æģĭ": 6678,
      "John": 6679,
      "æĪĴ": 6680,
      "paramĠ": 6681,
      "ç²®": 6682,
      "IL": 6683,
      "leaseĠ": 6684,
      "parti": 6685,
      "wait": 6686,
      "æľīæīĢ": 6687,
      "becaus": 6688,
      "58": 6689,
      "HTM": 6690,
      ";ĊĊĠĠ": 6691,
      "},": 6692,
      "åĥ§": 6693,
      "vot": 6694,
      ",ĠB": 6695,
      "å¹ħ": 6696,
      "**:Ġ": 6697,
      "ingĠofĠtheĠ": 6698,
      "åıªèĥ½": 6699,
      "theyĠareĠ": 6700,
      "Ir": 6701,
      "è±Ĩ": 6702,
      "ERĠ": 6703,
      "princ": 6704,
      "çī¹èī²": 6705,
      "ç©Ĩ": 6706,
      "CP": 6707,
      "ingleĠ": 6708,
      "æ´ģ": 6709,
      "èµĦéĩĳ": 6710,
      "furtherĠ": 6711,
      "responseĠ": 6712,
      "åĩºï¼Į": 6713,
      "çİ°å®ŀ": 6714,
      "bool": 6715,
      "éĺģ": 6716,
      "NUL": 6717,
      "ä¼Ĳ": 6718,
      "goingĠ": 6719,
      "åķĨä¸ļ": 6720,
      "åĵ²åŃ¦": 6721,
      "unch": 6722,
      "æ°Ķï¼Į": 6723,
      "AsĠ": 6724,
      "äºĭå®ŀ": 6725,
      "åħ±åĴĮåĽ½": 6726,
      "sig": 6727,
      "ï¼Įä¸įè¿ĩ": 6728,
      "å¥´": 6729,
      "åģ¿": 6730,
      "question": 6731,
      "CE": 6732,
      "s\"Ġ": 6733,
      "c.": 6734,
      "åıĺå¾Ĺ": 6735,
      "Â°": 6736,
      ".ĠWhatĠ": 6737,
      ",000": 6738,
      "å¥½åĥı": 6739,
      "ThatĠ": 6740,
      "Prop": 6741,
      "\")ĊĠĠĠĠ": 6742,
      "ç»Ĩèĥŀ": 6743,
      "Returns:ĊĠĠĠĠĠĠĠĠ": 6744,
      "300": 6745,
      "èĴĤ": 6746,
      "ãĢĤä»İ": 6747,
      "éĹľ": 6748,
      "åĬ¨çī©": 6749,
      "createĠ": 6750,
      "MyĠ": 6751,
      "ages": 6752,
      "aĠp": 6753,
      "ä¸ºä¸»": 6754,
      "é³": 6755,
      "ĊĠĠĠĠĠ*Ġ": 6756,
      "defaultĠ": 6757,
      "methodĠ": 6758,
      "},Ġ": 6759,
      "usuallyĠ": 6760,
      "concep": 6761,
      "ç»ıåİĨ": 6762,
      ">>": 6763,
      "ection": 6764,
      "æ³ķåĽ½": 6765,
      "Ġ=Ġ\"": 6766,
      "ç»Īäºİ": 6767,
      "ing-": 6768,
      "x.": 6769,
      "æĺŃ": 6770,
      "ses": 6771,
      "influ": 6772,
      "ãĢĶ": 6773,
      "ãĢķ": 6774,
      "åŃĲãĢĤ": 6775,
      "sv": 6776,
      "æĬ¬": 6777,
      "createdĠ": 6778,
      "èĤ¯å®ļ": 6779,
      "doneĠ": 6780,
      "åģ·": 6781,
      "viaĠ": 6782,
      "Ð¾": 6783,
      "å¢ĵ": 6784,
      "<divĠclass=\"": 6785,
      "shad": 6786,
      "æįķ": 6787,
      "åĨĴ": 6788,
      "ampl": 6789,
      "çĿĢï¼Į": 6790,
      "width:Ġ": 6791,
      "çļĦæĥħåĨµ": 6792,
      "57": 6793,
      "mad": 6794,
      "lostĠ": 6795,
      "ez": 6796,
      "loveĠ": 6797,
      "Cop": 6798,
      "æļĸ": 6799,
      "S_": 6800,
      "(){ĊĠĠĠĠ": 6801,
      ",0": 6802,
      "objectĠ": 6803,
      "nightĠ": 6804,
      "çĮĽ": 6805,
      "tom": 6806,
      "ç£¨": 6807,
      "powerĠ": 6808,
      "eĠthatĠ": 6809,
      "ä¼į": 6810,
      "ä½Ĳ": 6811,
      "æĿ¥è¯´": 6812,
      "dy": 6813,
      "è§Ĥå¯Ł": 6814,
      "closeĠ": 6815,
      ".h": 6816,
      "ĊS": 6817,
      ")Ġ{ĊĠĠĠĠĠĠ": 6818,
      "Ju": 6819,
      "{Ċĉĉ": 6820,
      "æŃ£ç¡®": 6821,
      "å¤§ï¼Į": 6822,
      "EnglishĠ": 6823,
      "logger.": 6824,
      ",ĠasĠ": 6825,
      "æīİ": 6826,
      "åĪ¶å®ļ": 6827,
      "çļĦéĤ£": 6828,
      "InternationalĠ": 6829,
      "\",ĊĠĠĠĠĠĠĠĠ": 6830,
      "tific": 6831,
      "namedĠ": 6832,
      "aĠ=Ġ": 6833,
      "ç®Ģä»ĭ": 6834,
      "ExceptionĠ": 6835,
      "èĩªæ²»": 6836,
      "èĢĮå·²": 6837,
      "ityĠandĠ": 6838,
      "liveĠ": 6839,
      "è¿Ľä¸ĢæŃ¥": 6840,
      "thor": 6841,
      "ä¹Łæľī": 6842,
      "ä¾Ŀæ³ķ": 6843,
      "Australi": 6844,
      "clos": 6845,
      "inputĠ": 6846,
      "æµħ": 6847,
      "OneĠ": 6848,
      "éĥ½æľī": 6849,
      "house": 6850,
      "æī¾åĪ°": 6851,
      "ectionĠ": 6852,
      "è¾Ī": 6853,
      "ä¸ŃãĢĤ": 6854,
      "ME": 6855,
      "sex": 6856,
      "è°ĥæķ´": 6857,
      "åħħåĪĨ": 6858,
      "ely": 6859,
      "Part": 6860,
      "çĩĥ": 6861,
      "Respon": 6862,
      "ï¼Įä¸¦": 6863,
      "è®¾ç½®": 6864,
      "à¤": 6865,
      "éĢĴ": 6866,
      "exten": 6867,
      "åĲĪåĲĮ": 6868,
      "Initi": 6869,
      "æ³ª": 6870,
      "ĊĠĠĠ-Ġ": 6871,
      "gar": 6872,
      "dt": 6873,
      "ĊĊ#Ġ": 6874,
      "Christi": 6875,
      "Scho": 6876,
      "page": 6877,
      "çĶ³è¯·": 6878,
      "è·¨": 6879,
      "stream": 6880,
      "callĠ": 6881,
      "ä¸ĵå®¶": 6882,
      "wasn'tĠ": 6883,
      "çĶŁï¼Į": 6884,
      "ox": 6885,
      "ç·ļ": 6886,
      "3-": 6887,
      "through": 6888,
      "whereĠtheĠ": 6889,
      "respond": 6890,
      "bt": 6891,
      "proces": 6892,
      "æľ¬èº«": 6893,
      "clear": 6894,
      "æĺ¯ä¸į": 6895,
      "éķ¿æľŁ": 6896,
      "ä¸Ģä¸ªäºº": 6897,
      "aĠsm": 6898,
      "2-": 6899,
      "ç¢İ": 6900,
      "æĪĲæŀľ": 6901,
      "implement": 6902,
      "åħĦå¼Ł": 6903,
      "åĬłåħ¥": 6904,
      "åħ©": 6905,
      "stri": 6906,
      "ling": 6907,
      "season": 6908,
      "åıĥ": 6909,
      "xĠ-Ġ": 6910,
      "æµĭè¯ķ": 6911,
      "rateĠ": 6912,
      "éģĵï¼Į": 6913,
      "çĶµè¯Ŀ": 6914,
      "èı¯": 6915,
      "æĬĢèĥ½": 6916,
      "sterĠ": 6917,
      "ahĠ": 6918,
      "åľ¨äºİ": 6919,
      "song": 6920,
      "quar": 6921,
      "Med": 6922,
      ">ĊĠĠĠĠĠĠĠĠ<": 6923,
      "1)Ġ": 6924,
      "å°¤åħ¶": 6925,
      "ï¼Įå°ı": 6926,
      "åĪ©çĽĬ": 6927,
      "townĠ": 6928,
      "åľ°ä½į": 6929,
      "ä¿Ŀè¯ģ": 6930,
      "Bas": 6931,
      "è¯Ĭ": 6932,
      "Ġï¼Ī": 6933,
      "Date": 6934,
      "Tup": 6935,
      "eventĠ": 6936,
      "funĠfoo": 6937,
      "endingĠ": 6938,
      "lad": 6939,
      "å®ª": 6940,
      "å±¥": 6941,
      "åıĳå±ķçļĦ": 6942,
      "_dir": 6943,
      "frequ": 6944,
      "_Ġ(": 6945,
      "ç¿Ķ": 6946,
      "éģµ": 6947,
      "eval": 6948,
      "è¨Ń": 6949,
      "particip": 6950,
      "estim": 6951,
      "neyĠ": 6952,
      "æĢ¨": 6953,
      "èĢĥè¯ķ": 6954,
      "ãĢĤæĪĳä»¬": 6955,
      "ations,Ġ": 6956,
      "è¶ĭ": 6957,
      "å¼ķèµ·": 6958,
      "èº«ä»½": 6959,
      "æİ¨è¿Ľ": 6960,
      "bottom": 6961,
      "mut": 6962,
      "foodĠ": 6963,
      "è¾½": 6964,
      "here": 6965,
      "éĩĩåıĸ": 6966,
      "HO": 6967,
      "theĠfirstĠ": 6968,
      "}ĠelseĠ": 6969,
      "åħ¬éĩĮ": 6970,
      "ile": 6971,
      "thĠandĠ": 6972,
      "åľ¨è¿Ļ": 6973,
      "mach": 6974,
      "è¿ĩæĿ¥": 6975,
      "self-": 6976,
      "ensor": 6977,
      "c_": 6978,
      "spir": 6979,
      "Ur": 6980,
      "ball": 6981,
      "gle": 6982,
      "æ¨Ĥ": 6983,
      "vill": 6984,
      "toĠmakeĠ": 6985,
      ")ĊĊĊ": 6986,
      "åĪĽä½ľ": 6987,
      "å±ı": 6988,
      "Pal": 6989,
      "Fre": 6990,
      "establish": 6991,
      "çķª": 6992,
      "print(\"": 6993,
      "tell": 6994,
      "init__": 6995,
      "èĤĥ": 6996,
      "countĠ": 6997,
      "chur": 6998,
      "ä¸įä½ı": 6999,
      "ï¼ĮĊ": 7000,
      "children": 7001,
      "inĠthisĠ": 7002,
      "ç¾ħ": 7003,
      ">ĊĠĠĠĠ<": 7004,
      "ä¸ŃåŃ¦": 7005,
      "''": 7006,
      "ç®±": 7007,
      "walk": 7008,
      "Bel": 7009,
      "me,Ġ": 7010,
      "img": 7011,
      "================================": 7012,
      "ãĢĤèĭ¥": 7013,
      "éļĬ": 7014,
      "åįļå£«": 7015,
      "uint": 7016,
      "warn": 7017,
      "è¦ĸ": 7018,
      "(0": 7019,
      "ï¼Įä¸Ĭ": 7020,
      "ä¸įæķ¢": 7021,
      "ate_": 7022,
      "likeĠaĠ": 7023,
      "x-": 7024,
      "acqu": 7025,
      "åĤħ": 7026,
      "çĽĹ": 7027,
      "èįĲ": 7028,
      "ude": 7029,
      "icon": 7030,
      "ç¿°": 7031,
      "bug": 7032,
      "ç¤¾ä¼ļä¸»ä¹ī": 7033,
      "68": 7034,
      "lawĠ": 7035,
      "sĠasĠ": 7036,
      "ï¼Įè¿Ļæĺ¯": 7037,
      "tionĠtoĠ": 7038,
      "especi": 7039,
      "éģĶ": 7040,
      "avo": 7041,
      "ä»İäºĭ": 7042,
      "lerĠ": 7043,
      "å¯¦": 7044,
      "èĤ¥": 7045,
      "çĸ«": 7046,
      "edĠitĠ": 7047,
      "titleĠ": 7048,
      "ertain": 7049,
      "eĠofĠtheĠ": 7050,
      "task": 7051,
      "esĠinĠtheĠ": 7052,
      "æŁı": 7053,
      "è§Ī": 7054,
      ",ĠwithĠ": 7055,
      "çļĦé«ĺ": 7056,
      "åĲįåŃĹ": 7057,
      "good": 7058,
      "è¾ĸ": 7059,
      "1Ġ=Ġ": 7060,
      "whoseĠ": 7061,
      "çģ£": 7062,
      "period": 7063,
      "__init__": 7064,
      "Foo": 7065,
      "numer": 7066,
      "It'sĠ": 7067,
      "èĳ£": 7068,
      "--------------------------------": 7069,
      "anĠandĠ": 7070,
      "åĵĢ": 7071,
      "Siz": 7072,
      "è¾Ĩ": 7073,
      "musicĠ": 7074,
      "æŃ£å¸¸": 7075,
      "æļĤ": 7076,
      "broughtĠ": 7077,
      "decid": 7078,
      "èĦı": 7079,
      "èıĮ": 7080,
      "power": 7081,
      "æª": 7082,
      "èģĬ": 7083,
      "åį¢": 7084,
      "carri": 7085,
      "ï¼Įå°±æĺ¯": 7086,
      "å°ıè¯´": 7087,
      "å°ıå§Ĳ": 7088,
      "ib": 7089,
      "tab": 7090,
      "éĤ»": 7091,
      ".set": 7092,
      "WestĠ": 7093,
      "èĳĹåĲį": 7094,
      "upĠtheĠ": 7095,
      "themsel": 7096,
      "War": 7097,
      "forceĠ": 7098,
      "æľĢä½³": 7099,
      "èĩªåĬ¨": 7100,
      "æ±Ŀ": 7101,
      "å¿ħè¦ģ": 7102,
      "naturalĠ": 7103,
      "rain": 7104,
      "e.g": 7105,
      "åıĤèĢĥ": 7106,
      "ORĠ": 7107,
      "_tĠ": 7108,
      "token": 7109,
      "grap": 7110,
      "Therefor": 7111,
      "å¤·": 7112,
      "WarĠ": 7113,
      "resol": 7114,
      "æĳ¸": 7115,
      ":Ġ{e": 7116,
      "alog": 7117,
      "scop": 7118,
      "éģĵè·¯": 7119,
      "entalĠ": 7120,
      "GĠ": 7121,
      "åİĮ": 7122,
      "åĪ«äºº": 7123,
      "å®ı": 7124,
      "è®°å½ķ": 7125,
      "maint": 7126,
      "arra": 7127,
      "partĠ": 7128,
      "}}": 7129,
      "diffic": 7130,
      ".ĠItĠisĠ": 7131,
      "Manag": 7132,
      "Form": 7133,
      "Gover": 7134,
      "ï¼Įäº¦": 7135,
      "thatĠheĠ": 7136,
      "Play": 7137,
      "ĠĠĠĠĠĠ": 7138,
      "trueĠ": 7139,
      "æĻ¨": 7140,
      "çļĦæĸ°": 7141,
      "èĤ©": 7142,
      "éĩĮéĿ¢": 7143,
      "èĬ³": 7144,
      "é©±": 7145,
      "UniversityĠofĠ": 7146,
      "èĢĲ": 7147,
      "åĲĪçĲĨ": 7148,
      "ä¿Ĭ": 7149,
      "è·Ŀç¦»": 7150,
      "æľīçĤ¹": 7151,
      "åĽŀçŃĶ": 7152,
      "æģĴ": 7153,
      "å¹´ï¼Ī": 7154,
      "AnĠ": 7155,
      "border-": 7156,
      "è¾¨": 7157,
      "æĸĩåŃĹ": 7158,
      "viol": 7159,
      "ricĠ": 7160,
      "ï¼Įè¿Ļä¸ª": 7161,
      "Found": 7162,
      "winn": 7163,
      "äº©": 7164,
      "éĿ¢å¯¹": 7165,
      "60Ġ": 7166,
      "âĤ": 7167,
      "alleng": 7168,
      "may": 7169,
      "epis": 7170,
      "your": 7171,
      "2008": 7172,
      "Mag": 7173,
      "åīĩ": 7174,
      "éķ¿çļĦ": 7175,
      "jud": 7176,
      "Cur": 7177,
      "éĶ¦": 7178,
      "againstĠtheĠ": 7179,
      "åīįçļĦ": 7180,
      "distanceĠ": 7181,
      "æĹħæ¸¸": 7182,
      "çİĽ": 7183,
      "bandĠ": 7184,
      "å¹³æĸ¹": 7185,
      "ç«ŀäºī": 7186,
      "pick": 7187,
      "è´¢æĶ¿": 7188,
      "Cam": 7189,
      "èµĦæľ¬": 7190,
      "center": 7191,
      "involv": 7192,
      "sem": 7193,
      "éĶģ": 7194,
      "hardĠ": 7195,
      "å¤ķ": 7196,
      "èİ²": 7197,
      "å²³": 7198,
      "Func": 7199,
      "unn": 7200,
      "å¾Ģå¾Ģ": 7201,
      "çĶ¨çļĦ": 7202,
      "probablyĠ": 7203,
      "rat": 7204,
      "umentĠ": 7205,
      "çĤ®": 7206,
      "frame": 7207,
      "åĩºä¸Ģ": 7208,
      "èĻŁ": 7209,
      "swe": 7210,
      "scriptĠ": 7211,
      "eraĠ": 7212,
      "æĪĲåĳĺ": 7213,
      "ï¼īçļĦ": 7214,
      "éĤ£éĩĮ": 7215,
      "åİī": 7216,
      "publicĠvoidĠ": 7217,
      "6âĢĵ": 7218,
      "èĭį": 7219,
      "isi": 7220,
      "wasĠnotĠ": 7221,
      "fore": 7222,
      "æ³ķè§Ħ": 7223,
      "ĊĠĠĠĠĠĠĠĠ\"\"\"ĊĠĠĠĠĠĠĠĠ": 7224,
      "ä¹ı": 7225,
      "æĻ¶": 7226,
      "cra": 7227,
      "####Ġ": 7228,
      "ãĢĤåıĪ": 7229,
      "æ¹ĺ": 7230,
      "\\text": 7231,
      "åĽŀæĿ¥": 7232,
      "Loc": 7233,
      ");ĊĠĠĠĠĠĠ": 7234,
      "=True": 7235,
      "ä¸ĺ": 7236,
      "Mal": 7237,
      "perf": 7238,
      "åŃ¦æľ¯": 7239,
      "23Ġ": 7240,
      "å®īæİĴ": 7241,
      "æµĻ": 7242,
      "roundĠ": 7243,
      "åĩºåİ»": 7244,
      "availableĠ": 7245,
      "èĩº": 7246,
      "å¥³äºº": 7247,
      "ä»įçĦ¶": 7248,
      "ç¬¦åĲĪ": 7249,
      "',ĊĠĠĠĠĠĠĠĠ": 7250,
      "67": 7251,
      "introduc": 7252,
      "å¸ħ": 7253,
      "especiallyĠ": 7254,
      "push": 7255,
      "regist": 7256,
      "sĠisĠ": 7257,
      "ç«Ļåľ¨": 7258,
      "custom": 7259,
      "èĳ¬": 7260,
      "matchĠ": 7261,
      "isn'tĠ": 7262,
      "historyĠ": 7263,
      "fem": 7264,
      "wood": 7265,
      "è¢Ń": 7266,
      "æ·®": 7267,
      "ä»¤äºº": 7268,
      "åįıä¼ļ": 7269,
      "basedĠonĠ": 7270,
      "rem": 7271,
      "åĶ¯ä¸Ģ": 7272,
      "king": 7273,
      "Let": 7274,
      "èħ¾": 7275,
      "çµ±": 7276,
      "88": 7277,
      "ãĢĭãĢĬ": 7278,
      "structure": 7279,
      "categ": 7280,
      "diĠ": 7281,
      "edĠatĠtheĠ": 7282,
      "es.Ċ": 7283,
      "deĠlaĠ": 7284,
      "æ®ĸ": 7285,
      "+1": 7286,
      "Tri": 7287,
      "åļ": 7288,
      "ç»ĵæĿŁ": 7289,
      ".ĠTheseĠ": 7290,
      "loadĠ": 7291,
      "éĥģ": 7292,
      "èį¡": 7293,
      "æĺİç¡®": 7294,
      "configur": 7295,
      "sure": 7296,
      "ãĢĢãĢĢãĢĢãĢĢãĢĢãĢĢ": 7297,
      "åĿĲåľ¨": 7298,
      "ãĢĤĊĊĠ": 7299,
      "Array": 7300,
      "zz": 7301,
      "BestĠ": 7302,
      "evid": 7303,
      "èµ·ï¼Į": 7304,
      "æ¬£": 7305,
      "reason": 7306,
      "ç²Ĺ": 7307,
      "roleĠ": 7308,
      "æīĢåľ¨": 7309,
      "ç»ıå¸¸": 7310,
      ";ĊĠĠĠĠĠĠ": 7311,
      "å¤įæĿĤ": 7312,
      "none": 7313,
      "FirstĠ": 7314,
      "Sk": 7315,
      "YourĠ": 7316,
      "èĥĨ": 7317,
      "Sou": 7318,
      "sent": 7319,
      "IO": 7320,
      "religi": 7321,
      "storyĠ": 7322,
      "independ": 7323,
      "lov": 7324,
      "ed,ĠandĠ": 7325,
      "å¯¼æ¼Ķ": 7326,
      "lap": 7327,
      "ãĢĤä½Ĩæĺ¯": 7328,
      "edd": 7329,
      "ay,Ġ": 7330,
      "shoul": 7331,
      "æģŃ": 7332,
      "äºĭãĢĤ": 7333,
      "å¼ĢæĶ¾": 7334,
      "recogn": 7335,
      "(C": 7336,
      "åĿ¡": 7337,
      "28Ġ": 7338,
      "mir": 7339,
      "observ": 7340,
      "ä¸ĬäºĨ": 7341,
      "ä¸¤äºº": 7342,
      "äº¤æµģ": 7343,
      "ä»¥åĲİ": 7344,
      "ç¸½": 7345,
      "stoodĠ": 7346,
      "å·¥ä½ľï¼Į": 7347,
      "Phil": 7348,
      "æĮº": 7349,
      "reduc": 7350,
      "2009": 7351,
      "base": 7352,
      "ĊĊĠĠ": 7353,
      "wall": 7354,
      "èĭĹ": 7355,
      "inj": 7356,
      "54": 7357,
      "tour": 7358,
      "UniversityĠ": 7359,
      "type=\"": 7360,
      "æĸĩç«ł": 7361,
      "people": 7362,
      "With": 7363,
      "[Ġ": 7364,
      "condition": 7365,
      "mur": 7366,
      "aneĠ": 7367,
      ".html": 7368,
      "maĠ": 7369,
      "mentalĠ": 7370,
      "æĤŁ": 7371,
      "moneyĠ": 7372,
      "Ber": 7373,
      "åĬĽï¼Į": 7374,
      "ä¹¾": 7375,
      "æİ¨åĬ¨": 7376,
      "gri": 7377,
      "th-": 7378,
      "appoint": 7379,
      "withinĠ": 7380,
      "æ¤įçī©": 7381,
      "s\"": 7382,
      "çļĦä¸Ģä¸ª": 7383,
      "cheĠ": 7384,
      "amin": 7385,
      "å¿ĥä¸Ń": 7386,
      "ital": 7387,
      "meanĠ": 7388,
      "ValueError": 7389,
      "čĊĠĠĠĠ": 7390,
      "è¯´éģĵ": 7391,
      "towardĠ": 7392,
      "å°½ç®¡": 7393,
      "ç¨³å®ļ": 7394,
      "insteadĠ": 7395,
      "ï¼ĮãĢĬ": 7396,
      "ï¼Įå¹¶ä¸Ķ": 7397,
      "éĨī": 7398,
      "ç¤¾åĮº": 7399,
      "motherĠ": 7400,
      "iorĠ": 7401,
      "å¦Īå¦Ī": 7402,
      "çļĦä¸»": 7403,
      "losĠ": 7404,
      "':Ġ'": 7405,
      "resid": 7406,
      "æ¸Ĭ": 7407,
      "adoĠ": 7408,
      "ustri": 7409,
      "Sal": 7410,
      "f\"": 7411,
      "daysĠ": 7412,
      "ç±³ï¼Į": 7413,
      "Any": 7414,
      "solut": 7415,
      "1990": 7416,
      "Hen": 7417,
      "çŃ¹": 7418,
      ",\"ĠheĠ": 7419,
      "cordingĠtoĠ": 7420,
      "far": 7421,
      "supp": 7422,
      "behavi": 7423,
      "æľĢç»Ī": 7424,
      "å®¶ï¼Į": 7425,
      "needĠ": 7426,
      "ï¼ĮéĤ£ä¹Ī": 7427,
      "ĊĊimportĠ": 7428,
      "è´º": 7429,
      "çŀ¬": 7430,
      "doĠnotĠ": 7431,
      "é¦ĸåħĪ": 7432,
      "å®ĮåĸĦ": 7433,
      "ç¬¬ä¸Ģæ¬¡": 7434,
      "random": 7435,
      "couldĠbeĠ": 7436,
      "åĪ°åºķ": 7437,
      "strictĠ": 7438,
      "unic": 7439,
      "outsideĠ": 7440,
      "militaryĠ": 7441,
      "lip": 7442,
      "upĠtoĠ": 7443,
      "çļĦæĹ¶åĢĻï¼Į": 7444,
      "mal": 7445,
      "xim": 7446,
      "å°ıæĹ¶": 7447,
      "çĽ¸åĲĮ": 7448,
      "usingĠtheĠ": 7449,
      "womanĠ": 7450,
      "ï¼Įè¿ĻäºĽ": 7451,
      "firm": 7452,
      "color:Ġ#": 7453,
      "ExceptionĠasĠe": 7454,
      "èĤ¤": 7455,
      "æĿĥåĪ©": 7456,
      "atter": 7457,
      "sition": 7458,
      "pull": 7459,
      "solveĠ": 7460,
      "å¤©ï¼Į": 7461,
      "nothingĠ": 7462,
      "\\]ĊĊ": 7463,
      "59": 7464,
      "æĪĳä»¬çļĦ": 7465,
      ".ĠĊĊTheĠ": 7466,
      "æĥĳ": 7467,
      "Param": 7468,
      "26Ġ": 7469,
      "midd": 7470,
      "è°¨": 7471,
      "çĪµ": 7472,
      "Map": 7473,
      "ett": 7474,
      "strip": 7475,
      "ãĢĤĊãĢĢãĢĢ": 7476,
      "æ¡Ĥ": 7477,
      "attack": 7478,
      "max_": 7479,
      "æģ¢å¤į": 7480,
      "Lu": 7481,
      "i.": 7482,
      "cityĠ": 7483,
      "flag": 7484,
      "+=Ġ": 7485,
      "repe": 7486,
      "internationalĠ": 7487,
      ">ĊĠĠ": 7488,
      "lett": 7489,
      "scal": 7490,
      "åįĵ": 7491,
      "èģ¯": 7492,
      "çĽ¸å½ĵ": 7493,
      "aroundĠtheĠ": 7494,
      "åĩ¶": 7495,
      "validĠ": 7496,
      "rul": 7497,
      "daĠ": 7498,
      "naĠ": 7499,
      "even": 7500,
      "èĶ¡": 7501,
      ";ĊĠĠĠĠĠĠĠĠĠĠĠĠ": 7502,
      "oot": 7503,
      "èĪ°": 7504,
      "setting": 7505,
      "åŃ¦ä¼ļ": 7506,
      "_B": 7507,
      "boardĠ": 7508,
      "mitt": 7509,
      "esĊ": 7510,
      "å®£ä¼ł": 7511,
      "è´¸æĺĵ": 7512,
      "ï¼Įäºº": 7513,
      "èĤ¿": 7514,
      "1.0": 7515,
      "ç¥¥": 7516,
      "makesĠ": 7517,
      "insideĠ": 7518,
      "éľį": 7519,
      "onĠhisĠ": 7520,
      "Cour": 7521,
      "face": 7522,
      "æ»¡è¶³": 7523,
      "CT": 7524,
      "åĪĨä¸º": 7525,
      "tru": 7526,
      "text-": 7527,
      "tro": 7528,
      "heardĠ": 7529,
      "ç¾©": 7530,
      "ake": 7531,
      "ãĢīĊĊãĢĪ": 7532,
      "God": 7533,
      "æĪª": 7534,
      "çµĦ": 7535,
      "ï¼ĮåĲĮæĹ¶": 7536,
      "Button": 7537,
      "equation": 7538,
      "hr": 7539,
      "åıĳæĮ¥": 7540,
      "contentĠ": 7541,
      "èĪŁ": 7542,
      "çĽ´åĪ°": 7543,
      "($": 7544,
      "çĸ¼": 7545,
      "Nam": 7546,
      "cach": 7547,
      "periodĠ": 7548,
      "Request": 7549,
      "father": 7550,
      "asp": 7551,
      "æµĵ": 7552,
      "Result": 7553,
      "pu": 7554,
      "useĠtheĠ": 7555,
      "ithĠ": 7556,
      "ç¬¬åħŃ": 7557,
      "tionĠandĠ": 7558,
      "Doc": 7559,
      "åħ¹": 7560,
      "éĵľ": 7561,
      "}\\": 7562,
      "le-": 7563,
      ".ĊĊInĠ": 7564,
      "1.Ġ": 7565,
      "12.": 7566,
      "æ¡£": 7567,
      "equalĠ": 7568,
      "thes": 7569,
      "fordĠ": 7570,
      "correc": 7571,
      ".ĠHowever,Ġ": 7572,
      ".ĠThatĠ": 7573,
      "backĠtoĠ": 7574,
      "187": 7575,
      "}ĊĠĠ": 7576,
      "åĨħéĥ¨": 7577,
      "bound": 7578,
      "linkĠ": 7579,
      "Window": 7580,
      "thub": 7581,
      "NOTĠ": 7582,
      "è¯´éģĵï¼ļâĢľ": 7583,
      "Thom": 7584,
      "doorĠ": 7585,
      "example,Ġ": 7586,
      "isĠ$": 7587,
      "é¢ĩ": 7588,
      "onĠandĠ": 7589,
      "kindĠofĠ": 7590,
      "factĠ": 7591,
      "sĠonĠtheĠ": 7592,
      "æĶ¾åľ¨": 7593,
      "çº²": 7594,
      "from": 7595,
      "JamesĠ": 7596,
      "ç¢ĳ": 7597,
      "arryĠ": 7598,
      "clean": 7599,
      "æĲľ": 7600,
      "ioĠ": 7601,
      "æ¨¡åŀĭ": 7602,
      ":Ġ0": 7603,
      "æĢ»æĺ¯": 7604,
      "msg": 7605,
      "similarĠ": 7606,
      "\\cdotĠ": 7607,
      "éĤĳ": 7608,
      "bumĠ": 7609,
      "æĲŃ": 7610,
      "åĮĸåŃ¦": 7611,
      "1000": 7612,
      "pattern": 7613,
      "å±Ī": 7614,
      "plant": 7615,
      "aticĠ": 7616,
      "althoughĠ": 7617,
      "secur": 7618,
      "SP": 7619,
      "alĠofĠ": 7620,
      "bigĠ": 7621,
      "åįıè°ĥ": 7622,
      "Sim": 7623,
      ";Ċĉĉ": 7624,
      "Vol": 7625,
      "h,Ġ": 7626,
      "æ·»": 7627,
      "atterĠ": 7628,
      "band": 7629,
      "assum": 7630,
      ":Ċ-Ġ": 7631,
      "languageĠ": 7632,
      "ãĢĤæĺ¯": 7633,
      "esĊĊ": 7634,
      "ä¹³": 7635,
      ");ĊĠĠĠĠĠĠĠĠĠĠĠĠ": 7636,
      "åħ³æ³¨": 7637,
      "åĨįæ¬¡": 7638,
      "allĠofĠ": 7639,
      "effect": 7640,
      "GermanĠ": 7641,
      "Tot": 7642,
      "atedĠbyĠ": 7643,
      "åħĪè¿Ľ": 7644,
      "unk": 7645,
      "æĶ»åĩ»": 7646,
      "```": 7647,
      "åıĳè¡¨": 7648,
      "volum": 7649,
      "URL": 7650,
      "cut": 7651,
      "å¾Īå¿«": 7652,
      "èİİ": 7653,
      "yĠinĠ": 7654,
      "åĦ¿åŃĲ": 7655,
      "Component": 7656,
      "execut": 7657,
      "control": 7658,
      "Franc": 7659,
      "s.ĠĊĊ": 7660,
      "å»ī": 7661,
      "finish": 7662,
      "4âĢĵ": 7663,
      "Ðµ": 7664,
      "è¾ī": 7665,
      "cutĠ": 7666,
      "æŃ»äº¡": 7667,
      "careĠ": 7668,
      "distribut": 7669,
      "2æľĪ": 7670,
      "aelĠ": 7671,
      "ä¸įå°ĳ": 7672,
      "é¼»": 7673,
      "çī©è´¨": 7674,
      "ĊĊĠĠĠĠ#Ġ": 7675,
      "èĤĮ": 7676,
      "zeĠ": 7677,
      "äººãĢģ": 7678,
      "ource": 7679,
      "çĤ¸": 7680,
      "quick": 7681,
      "EuropeanĠ": 7682,
      "æĦıåĳ³": 7683,
      "bum": 7684,
      "yetĠ": 7685,
      "ressĠ": 7686,
      "practic": 7687,
      "datab": 7688,
      "delet": 7689,
      "éĥ½ä¼ļ": 7690,
      "temp": 7691,
      "å®ļä¹ī": 7692,
      "os.path.": 7693,
      "KE": 7694,
      "Ãª": 7695,
      "å®ĹæķĻ": 7696,
      "åĩ¯": 7697,
      "recordĠ": 7698,
      "positiveĠ": 7699,
      "spaceĠ": 7700,
      "$x": 7701,
      "HĠ": 7702,
      "deathĠ": 7703,
      "ĊĠĠĠĠdefĠ": 7704,
      "éĩįè¦ģçļĦ": 7705,
      "-Ċ": 7706,
      "èĥĥ": 7707,
      "ĊĊĠĠĠĠĠĠĠĠĠĠĠĠ": 7708,
      "aĠfewĠ": 7709,
      "åĨħçļĦ": 7710,
      "immedi": 7711,
      "æĴ°": 7712,
      "å®ĥçļĦ": 7713,
      "400": 7714,
      "lookedĠ": 7715,
      "leadĠ": 7716,
      "toĠgetĠ": 7717,
      "èĢĮè¨Ģ": 7718,
      "æĪ¿éĹ´": 7719,
      "é©»": 7720,
      "aĠsingleĠ": 7721,
      "è®¨è®º": 7722,
      "Mart": 7723,
      "maryĠ": 7724,
      "çĽ¸å¯¹": 7725,
      "s()": 7726,
      "livingĠ": 7727,
      "å¤©åľ°": 7728,
      "ularlyĠ": 7729,
      "rou": 7730,
      "å¿ĥï¼Į": 7731,
      "withinĠtheĠ": 7732,
      "propos": 7733,
      "es,ĠtheĠ": 7734,
      "situ": 7735,
      "chem": 7736,
      "place": 7737,
      "treat": 7738,
      "girl": 7739,
      "æķ°åŃ¦": 7740,
      "éŁµ": 7741,
      "åĽŀåĪ°": 7742,
      "ç»Łè®¡": 7743,
      "(ĊĠĠĠĠ": 7744,
      "æµ©": 7745,
      "çĿĢä¸Ģ": 7746,
      "earli": 7747,
      "Mari": 7748,
      "specialĠ": 7749,
      "æī¿æĭħ": 7750,
      "ç«ŁçĦ¶": 7751,
      "fire": 7752,
      "æĩī": 7753,
      "æİĮæı¡": 7754,
      "aint": 7755,
      ".ĠToĠ": 7756,
      "I'dĠ": 7757,
      "mitĠ": 7758,
      "ï¼ļãĢĬ": 7759,
      ",ĠD": 7760,
      "æ¡Ĩ": 7761,
      "ãĢĤå¤§": 7762,
      "ed:Ġ": 7763,
      "è½¯ä»¶": 7764,
      "Vir": 7765,
      "()ĊĠĠ}ĊĊĠĠ": 7766,
      "stra": 7767,
      "inĠwhichĠ": 7768,
      "=Ġself.": 7769,
      "processĠ": 7770,
      "éĽķ": 7771,
      "questionĠ": 7772,
      "sĠtoĠtheĠ": 7773,
      "rati": 7774,
      "Je": 7775,
      "sĊĠĠĠĠ": 7776,
      "shortĠ": 7777,
      "çľŁæĺ¯": 7778,
      "visi": 7779,
      "Command": 7780,
      "æĺĶ": 7781,
      "ushĠ": 7782,
      "description": 7783,
      "awaitĠ": 7784,
      "e,ĠbutĠ": 7785,
      "å¿«éĢŁ": 7786,
      "[1]": 7787,
      "edĠbyĠaĠ": 7788,
      "turnĠ": 7789,
      "github": 7790,
      "DavidĠ": 7791,
      "ym": 7792,
      "ï¼ĮåĲİ": 7793,
      "è®¼": 7794,
      ":Ġ{e}\")": 7795,
      "Call": 7796,
      "s.ĠHeĠ": 7797,
      "180": 7798,
      "buildingĠ": 7799,
      "ï¼ĮèĢĮä¸įæĺ¯": 7800,
      "es_": 7801,
      "exceptĠExceptionĠasĠe": 7802,
      "profession": 7803,
      "GP": 7804,
      "thatĠisĠ": 7805,
      "åł¡": 7806,
      "çļĦçłĶç©¶": 7807,
      "åĬĿ": 7808,
      "éĵº": 7809,
      "è®¡ç®Ĺæľº": 7810,
      "consum": 7811,
      "è§ĤçĤ¹": 7812,
      "}Ċ}": 7813,
      "filename": 7814,
      "ï¼ĮçĶļèĩ³": 7815,
      "nerĠ": 7816,
      "researchĠ": 7817,
      "æĬĳ": 7818,
      "thĠofĠ": 7819,
      "å¡ĳ": 7820,
      "Jav": 7821,
      "è§ĦåĪĻ": 7822,
      "(b": 7823,
      "unt": 7824,
      "åĩıå°ĳ": 7825,
      "éĺħè¯»": 7826,
      "ä½©": 7827,
      "areĠtheĠ": 7828,
      "æııè¿°": 7829,
      "CA": 7830,
      "èµł": 7831,
      "11.": 7832,
      "43": 7833,
      "King": 7834,
      "cross": 7835,
      "wro": 7836,
      "ĊĠĠĠĠĠĠĠĠreturnĠ": 7837,
      "å¾·åĽ½": 7838,
      "Govern": 7839,
      "å²Ń": 7840,
      "ãĢģĠ": 7841,
      "ashĠ": 7842,
      "æī«": 7843,
      "libr": 7844,
      "WilliamĠ": 7845,
      "äººåľ¨": 7846,
      "migr": 7847,
      "Valid": 7848,
      "è¡£æľį": 7849,
      "âĢ¢Ġ": 7850,
      "ãĢĤåĽłæŃ¤": 7851,
      "believ": 7852,
      "Mac": 7853,
      "æľīä»Ģä¹Ī": 7854,
      "tra": 7855,
      "childĠ": 7856,
      "SanĠ": 7857,
      "wis": 7858,
      "è¾©": 7859,
      "Mad": 7860,
      "âĨĴ": 7861,
      "æ¬§æ´²": 7862,
      "RI": 7863,
      "ndarray": 7864,
      "(){ĊĠĠĠĠfoo": 7865,
      "()ĊĠĠ}ĊĊĠĠfunĠfoo": 7866,
      "æĺı": 7867,
      "eth": 7868,
      "symb": 7869,
      "çī©çĲĨ": 7870,
      "oĠandĠ": 7871,
      "åĸĬ": 7872,
      "éĽĨä¸Ń": 7873,
      "ç¾¤ä¼Ĺ": 7874,
      "éĶĻè¯¯": 7875,
      "\"><": 7876,
      "Japan": 7877,
      "çĲĨå¿µ": 7878,
      "ä½ĵèĤ²": 7879,
      "chan": 7880,
      "èĢĹ": 7881,
      "sibleĠ": 7882,
      "ideaĠ": 7883,
      "éģĵå¾·": 7884,
      "5-": 7885,
      "GE": 7886,
      "sus": 7887,
      "çļĦéĩįè¦ģ": 7888,
      "yĊ": 7889,
      "å®ħ": 7890,
      "ĉĉĉ": 7891,
      "anceĠofĠ": 7892,
      "éģĭ": 7893,
      "qui": 7894,
      "åĳĢ": 7895,
      "beforeĠtheĠ": 7896,
      "\"ĊĠĠĠĠ": 7897,
      "n,Ġ": 7898,
      "åĬĩ": 7899,
      "é£Łåĵģ": 7900,
      "27Ġ": 7901,
      "1Ġ+Ġ": 7902,
      "keep": 7903,
      "çľĭçĿĢ": 7904,
      ".ĠAtĠ": 7905,
      "ampleĠ": 7906,
      "ï¼Įæ²¡æľī": 7907,
      "éĢ»": 7908,
      "ationĠinĠ": 7909,
      "screen": 7910,
      "materi": 7911,
      "understand": 7912,
      "edĠthatĠtheĠ": 7913,
      "pedĠ": 7914,
      "å¥ĳ": 7915,
      "auti": 7916,
      "eeĠ": 7917,
      "userĠ": 7918,
      "çļĦå·¥ä½ľ": 7919,
      "è´ŀ": 7920,
      "è®©æĪĳ": 7921,
      "acrossĠtheĠ": 7922,
      "May": 7923,
      "mind": 7924,
      "pair": 7925,
      "D_": 7926,
      "éķ¿ï¼Į": 7927,
      "provideĠ": 7928,
      "Cali": 7929,
      "Ð¸": 7930,
      "åī©": 7931,
      "aboveĠ": 7932,
      "ï¼īĊĊ": 7933,
      "æīĵå¼Ģ": 7934,
      "likelyĠ": 7935,
      "dueĠtoĠ": 7936,
      "éĶĭ": 7937,
      "ï¼Įä¹Łæĺ¯": 7938,
      "Men": 7939,
      "èĤł": 7940,
      "NumberĠofĠ": 7941,
      "æĭħä»»": 7942,
      "2007": 7943,
      "è°±": 7944,
      "åĤ³": 7945,
      "ä¸»å¸Ń": 7946,
      "ç³Ĭ": 7947,
      "Colleg": 7948,
      "distribu": 7949,
      "åı¦å¤ĸ": 7950,
      "inĠandĠ": 7951,
      "è¡Įï¼Į": 7952,
      "ĊĊĠĠĠĠĠĠĠĠ#Ġ": 7953,
      "ç§°ä¸º": 7954,
      "Lay": 7955,
      "Add": 7956,
      "ocket": 7957,
      "asĠanĠ": 7958,
      "åĴ¸": 7959,
      "èĩªèº«": 7960,
      "factor": 7961,
      "sort": 7962,
      "size:Ġ": 7963,
      "yĠofĠtheĠ": 7964,
      "æī°": 7965,
      "styleĠ": 7966,
      "æĽ¾ç»ı": 7967,
      "neigh": 7968,
      "Î±": 7969,
      "Democ": 7970,
      "concern": 7971,
      "\"ĠandĠ": 7972,
      "è¶ĬæĿ¥": 7973,
      "2010å¹´": 7974,
      "2.Ġ": 7975,
      "env": 7976,
      ")ĊĊĠĠĠĠdefĠ": 7977,
      "pastĠ": 7978,
      "mas": 7979,
      "urb": 7980,
      "çİ°è±¡": 7981,
      "anythingĠ": 7982,
      "receivedĠ": 7983,
      "multipleĠ": 7984,
      "æĤ¬": 7985,
      "soonĠ": 7986,
      "{}": 7987,
      "edit": 7988,
      "countri": 7989,
      "èº«è¾¹": 7990,
      "åłª": 7991,
      "åĩ½æķ°": 7992,
      "æĤł": 7993,
      "rep": 7994,
      "el,Ġ": 7995,
      "åĮ¹": 7996,
      ",åľ¨": 7997,
      "st,Ġ": 7998,
      "ç»ĻæĪĳ": 7999,
      "Image": 8000,
      "Bal": 8001,
      "ferenceĠ": 8002,
      "y:Ġ": 8003,
      "temper": 8004,
      "HisĠ": 8005,
      "Mil": 8006,
      "aulĠ": 8007,
      "å¾ŀ": 8008,
      "3,": 8009,
      "ä»ĵ": 8010,
      "basedĠ": 8011,
      "full": 8012,
      "æħĪ": 8013,
      "ailĠ": 8014,
      "çĭł": 8015,
      "politic": 8016,
      "ersĠofĠ": 8017,
      "éŁ¦": 8018,
      "modernĠ": 8019,
      "cod": 8020,
      "åıĳå¸ĥ": 8021,
      "çļĦåŁºæľ¬": 8022,
      "çļĦå¿ĥ": 8023,
      "æĴŀ": 8024,
      "sound": 8025,
      "åĨĽäºĭ": 8026,
      "Emp": 8027,
      "ether": 8028,
      "er(": 8029,
      "æľªæĿ¥": 8030,
      "éģ¥": 8031,
      "endĠofĠtheĠ": 8032,
      "æ¾³": 8033,
      "ingĠitĠ": 8034,
      "ugg": 8035,
      "æ¶Īæģ¯": 8036,
      "costĠ": 8037,
      "ram": 8038,
      "éĸĢ": 8039,
      "speak": 8040,
      "controll": 8041,
      "77": 8042,
      "?\"ĊĊ": 8043,
      "è¶ĬæĿ¥è¶Ĭ": 8044,
      "s,ĠwhichĠ": 8045,
      "delĠ": 8046,
      "Go": 8047,
      "ä¸īåįģ": 8048,
      "Prov": 8049,
      "previousĠ": 8050,
      "feĠ": 8051,
      "ingĠonĠ": 8052,
      "ãĢĤä»ĸä»¬": 8053,
      "å°ıåŃ¦": 8054,
      "åį±éĻ©": 8055,
      "åı¥è¯Ŀ": 8056,
      "erĠthanĠ": 8057,
      "demon": 8058,
      "æīĭï¼Į": 8059,
      "åŁºäºİ": 8060,
      ".ĊĊĠ": 8061,
      "othersĠ": 8062,
      "er:Ġ": 8063,
      "argument": 8064,
      "datas": 8065,
      "alĠandĠ": 8066,
      "Inte": 8067,
      "izedĠ": 8068,
      ")ï¼Į": 8069,
      "n_": 8070,
      "y,ĠtheĠ": 8071,
      "UM": 8072,
      "ä¸įå¥½": 8073,
      "è¬": 8074,
      "æ¶Ĥ": 8075,
      "èŃ°": 8076,
      "io": 8077,
      "promis": 8078,
      "è¨Ī": 8079,
      "å¾½": 8080,
      "ä¼ĺåĬ¿": 8081,
      "function(": 8082,
      "Cli": 8083,
      "ing,ĠandĠ": 8084,
      "hamĠ": 8085,
      "åªĴä½ĵ": 8086,
      "had": 8087,
      "ä½Ĩæĺ¯": 8088,
      "âĹĭ": 8089,
      "suggest": 8090,
      "ĠãĢĬ": 8091,
      "CD": 8092,
      "It": 8093,
      "ä¸įåľ¨": 8094,
      "civ": 8095,
      "hous": 8096,
      "åĪĨç±»": 8097,
      "Tok": 8098,
      "GeorgeĠ": 8099,
      "(-": 8100,
      "w.": 8101,
      "2017": 8102,
      "ç¢į": 8103,
      "edĠintoĠ": 8104,
      "analys": 8105,
      "plit": 8106,
      "however,Ġ": 8107,
      "2)Ġ": 8108,
      "åĿĽ": 8109,
      "ç»Ŀå¯¹": 8110,
      "åĩºæĿ¥ï¼Į": 8111,
      "contribut": 8112,
      "å¹¿åĳĬ": 8113,
      "èĽĩ": 8114,
      "åĽ½æ°ĳ": 8115,
      "ç§Ĵ": 8116,
      "tryingĠtoĠ": 8117,
      "Run": 8118,
      "yĠ(": 8119,
      "LaĠ": 8120,
      "strong": 8121,
      "np.ndarray": 8122,
      "princip": 8123,
      "å£°ï¼Į": 8124,
      "encesĠ": 8125,
      "ä¸ĳ": 8126,
      "arrow": 8127,
      "ç´Ħ": 8128,
      "raĠ": 8129,
      "sĠatĠ": 8130,
      "(x)": 8131,
      "Args:ĊĠĠĠĠĠĠĠĠĠĠĠĠ": 8132,
      "NE": 8133,
      "onesĠ": 8134,
      "ãĢĤæīĢä»¥": 8135,
      "åĲĮæł·": 8136,
      "æģ°": 8137,
      "æĴ¤": 8138,
      "Head": 8139,
      "pal": 8140,
      "ä¸ĭåİ»": 8141,
      "èĦĤ": 8142,
      "ä¹łæĥ¯": 8143,
      "èĥĮæĻ¯": 8144,
      "thereĠisĠ": 8145,
      "æĽ´å¤ļ": 8146,
      "éĹ¹": 8147,
      "ï¼ļĊ": 8148,
      "å°±åľ¨": 8149,
      "æĲŀ": 8150,
      "çµĲ": 8151,
      "è¡ĮçļĦ": 8152,
      "ChapterĠ": 8153,
      "æĿ¥åĪ°": 8154,
      "spentĠ": 8155,
      "å®ŀåľ¨": 8156,
      "Child": 8157,
      "beginn": 8158,
      "Spec": 8159,
      "km": 8160,
      "å±±ä¸ľ": 8161,
      "aĠsmallĠ": 8162,
      "FromĠ": 8163,
      "æ¸ł": 8164,
      "deriv": 8165,
      "orĠtheĠ": 8166,
      "æĭĵ": 8167,
      "Ã§": 8168,
      "exact": 8169,
      "æīĭæľº": 8170,
      "non": 8171,
      "æľĢå¤§": 8172,
      "åıªè¦ģ": 8173,
      "è³ĩ": 8174,
      "messageĠ": 8175,
      "[str,Ġ": 8176,
      "åľ¨ä¸Ģèµ·": 8177,
      "s.ĠInĠ": 8178,
      "door": 8179,
      "hur": 8180,
      "Che": 8181,
      "èĢķ": 8182,
      "===Ġ": 8183,
      "ç©´": 8184,
      "98": 8185,
      "ç¥ŀç»ı": 8186,
      "å¤ªéĺ³": 8187,
      "ãĢĭï¼ļâĢľ": 8188,
      "##ĠStepĠ": 8189,
      "spr": 8190,
      "æĢ§ï¼Į": 8191,
      "çĨĻ": 8192,
      "serviceĠ": 8193,
      "Do": 8194,
      "kep": 8195,
      "y,ĠandĠ": 8196,
      "{ĊĠĠĠĠĠĠĠĠĠĠĠĠĠĠĠĠ": 8197,
      "è¿ĲçĶ¨": 8198,
      "critic": 8199,
      "ensĠ": 8200,
      "æĹ¶çļĦ": 8201,
      "ç¢°": 8202,
      "rib": 8203,
      "IĠdon'tĠ": 8204,
      "ian": 8205,
      "åĶĩ": 8206,
      "æĭ³": 8207,
      "absolut": 8208,
      "Arch": 8209,
      "è«ĸ": 8210,
      "Read": 8211,
      "åĽ¢éĺŁ": 8212,
      "ectorĠ": 8213,
      "æĺ¯âĢľ": 8214,
      "chap": 8215,
      "95": 8216,
      "(4": 8217,
      "allowĠ": 8218,
      "ï¼ĽĊĊ": 8219,
      "150": 8220,
      "coordin": 8221,
      "ç²Ĵ": 8222,
      "çĭ¼": 8223,
      ".d": 8224,
      "åĪĨå¸ĥ": 8225,
      "leaveĠ": 8226,
      "æ·±åħ¥": 8227,
      "++": 8228,
      "oud": 8229,
      "è´·": 8230,
      "USĠ": 8231,
      "Wil": 8232,
      "intel": 8233,
      "2.0": 8234,
      "patch": 8235,
      "win": 8236,
      "Sci": 8237,
      "oppos": 8238,
      "è©²": 8239,
      "*ĊĠ*Ġ": 8240,
      "æ³ķï¼Į": 8241,
      "([": 8242,
      "mit": 8243,
      "ih": 8244,
      "baseĠ": 8245,
      "éĴĪå¯¹": 8246,
      "ainedĠ": 8247,
      "èĩ³å°ĳ": 8248,
      "local": 8249,
      "everythingĠ": 8250,
      "agon": 8251,
      "åĵªéĩĮ": 8252,
      "èģĺ": 8253,
      "financ": 8254,
      "Net": 8255,
      "thous": 8256,
      "printĠ": 8257,
      "packageĠ": 8258,
      "Ros": 8259,
      "Counc": 8260,
      "}Ġ+Ġ": 8261,
      "effici": 8262,
      "Roy": 8263,
      "Ġç¬¬äºĮ": 8264,
      "compan": 8265,
      "ade": 8266,
      "Web": 8267,
      "withĠhisĠ": 8268,
      "Inst": 8269,
      "aughtĠ": 8270,
      "é©¶": 8271,
      "æķ¦": 8272,
      "raticĠ": 8273,
      "å¹³åĿĩ": 8274,
      "tip": 8275,
      "stopĠ": 8276,
      "âĶ": 8277,
      ",ĊĠĠĠĠ\"": 8278,
      "relativ": 8279,
      "less": 8280,
      "t_": 8281,
      "æ¶µ": 8282,
      ").to": 8283,
      "My": 8284,
      "çĶ·åŃĲ": 8285,
      "\")Ġ": 8286,
      "edg": 8287,
      "ingĠinĠtheĠ": 8288,
      "ä¸įåĨį": 8289,
      "äººçĶŁ": 8290,
      "æĸ°éĹ»": 8291,
      "background-": 8292,
      "åį§": 8293,
      "ï¼ĽĊ": 8294,
      "å½¢è±¡": 8295,
      "âĢ¦âĢ¦âĢĿ": 8296,
      "æĺ¨": 8297,
      "',ĊĠĠĠĠ": 8298,
      "æĽ°ï¼ļ": 8299,
      ".ĠĊĊInĠ": 8300,
      "margin-": 8301,
      "voc": 8302,
      "ingĠherĠ": 8303,
      "Califor": 8304,
      "è¯´çļĦ": 8305,
      "éĻª": 8306,
      "ï¼ŁâĢĿâĢľ": 8307,
      "sometimesĠ": 8308,
      "å§ĳå¨ĺ": 8309,
      "EastĠ": 8310,
      "fres": 8311,
      "2011å¹´": 8312,
      "2/": 8313,
      "çĸ¾çĹħ": 8314,
      "å¤ļå¹´": 8315,
      "scienti": 8316,
      "ĊĠĠĠĠĠ": 8317,
      "ed.Ġ\"": 8318,
      "è®©ä½ł": 8319,
      "ä¹ĭä¸Ń": 8320,
      "Proper": 8321,
      "åıĻ": 8322,
      "ï¼Įä¸ĭ": 8323,
      "modi": 8324,
      "canc": 8325,
      "torĠ": 8326,
      "Ð½": 8327,
      "erĠforĠ": 8328,
      "è¡¨è¾¾": 8329,
      "çļĦä¸»è¦ģ": 8330,
      "metĠ": 8331,
      "éĻĲåĪ¶": 8332,
      "Mul": 8333,
      "ä¸»æĮģ": 8334,
      "åĭĻ": 8335,
      "ãĢĤĠĊĊ": 8336,
      "ä»ĬæĹ¥": 8337,
      "he'dĠ": 8338,
      "èĻķ": 8339,
      "Point": 8340,
      "bothĠsid": 8341,
      "Pan": 8342,
      "æħİ": 8343,
      "asc": 8344,
      "cred": 8345,
      "å¤±è´¥": 8346,
      "town": 8347,
      "bitĠ": 8348,
      "çĽ¸äºĴ": 8349,
      "ä¸įè§ģ": 8350,
      "åŃ¦èĢħ": 8351,
      "æ²»çĲĨ": 8352,
      "éĿ¢åīį": 8353,
      "propertyĠ": 8354,
      "********************************": 8355,
      "èĺŃ": 8356,
      "estig": 8357,
      "Sty": 8358,
      "countryĠ": 8359,
      "ä»¥åīį": 8360,
      "foreĠ": 8361,
      "å¹¶æ²¡æľī": 8362,
      "è®°å¿Ĩ": 8363,
      ">Ċ</": 8364,
      "Tre": 8365,
      "éĤĢ": 8366,
      "secret": 8367,
      "death": 8368,
      "æĶ¯ä»ĺ": 8369,
      "ä¸Ľ": 8370,
      "Ear": 8371,
      ",ĠthenĠ": 8372,
      "6-": 8373,
      "cat": 8374,
      "å¹¿æ³Ľ": 8375,
      "thereĠwasĠ": 8376,
      ">ĊĠĠĠĠĠĠĠĠĠĠĠĠĠĠĠĠ": 8377,
      "Sen": 8378,
      "2015": 8379,
      "æ¡Īä»¶": 8380,
      "Contain": 8381,
      "Rac": 8382,
      "æĪĺæĸĹ": 8383,
      "ho": 8384,
      "çļĦæĥħ": 8385,
      "kw": 8386,
      "éŀĭ": 8387,
      "edi": 8388,
      "åĪļåĪļ": 8389,
      "åĬŀåħ¬å®¤": 8390,
      "å¦ĸ": 8391,
      "æį·": 8392,
      "(t": 8393,
      "çļĦæĹ¶éĹ´": 8394,
      "p.Ġ": 8395,
      "ovi": 8396,
      "SC": 8397,
      "aĠnewĠ": 8398,
      "Writ": 8399,
      "ãĢĤĊĊ[": 8400,
      "Dep": 8401,
      "sesĠ": 8402,
      "ä¸ĬãĢĤ": 8403,
      "roadĠ": 8404,
      "4-": 8405,
      "enter": 8406,
      "mother": 8407,
      "close": 8408,
      "ÃŃaĠ": 8409,
      "]ĊĠĠĠĠ": 8410,
      "hund": 8411,
      "ï¼ĮåĮħæĭ¬": 8412,
      "åŃ¦ç§ĳ": 8413,
      "num_": 8414,
      "great": 8415,
      "quiteĠ": 8416,
      "Wom": 8417,
      "assign": 8418,
      "çĽ¾": 8419,
      "åĩºçĶŁ": 8420,
      "ä¼łæĴŃ": 8421,
      "example": 8422,
      "3)": 8423,
      "==Ġ\"": 8424,
      "Chur": 8425,
      "Context": 8426,
      "lic": 8427,
      ";ĠandĠ": 8428,
      "ç¥¸": 8429,
      "Scot": 8430,
      "sourceĠ": 8431,
      "evalu": 8432,
      "éĢ¼": 8433,
      "çºł": 8434,
      "åıĺæĪĲ": 8435,
      "atherĠ": 8436,
      "attĠ": 8437,
      "ç»´æĬ¤": 8438,
      "send": 8439,
      "inglyĠ": 8440,
      "nov": 8441,
      "(B": 8442,
      "strongĠ": 8443,
      "NULL": 8444,
      "isticĠ": 8445,
      "å¤§å¤«": 8446,
      "ter,Ġ": 8447,
      "publicĠvoidĠfoo": 8448,
      "Si": 8449,
      "carĠ": 8450,
      "}ĊĠĠĠĠĠĠĠĠĠĠĠĠ": 8451,
      "ileĠtheĠ": 8452,
      "agu": 8453,
      "That'sĠ": 8454,
      "æĦ¿æĦı": 8455,
      "couldn'tĠ": 8456,
      "entireĠ": 8457,
      "è®©äºº": 8458,
      "edĠasĠaĠ": 8459,
      "day,Ġ": 8460,
      "install": 8461,
      "stitu": 8462,
      "Ġ1.": 8463,
      "å®ł": 8464,
      "åĽ½çļĦ": 8465,
      "æķ°éĩı": 8466,
      "ouĠ": 8467,
      "edĠofĠ": 8468,
      "åĨľæ°ĳ": 8469,
      "èµ´": 8470,
      "Produc": 8471,
      "æī£": 8472,
      "cleĠ": 8473,
      "sâĢĶ": 8474,
      "æľīä¸Ģä¸ª": 8475,
      "d_": 8476,
      "s:": 8477,
      "wrap": 8478,
      "isĠtoĠ": 8479,
      "tu": 8480,
      "engine": 8481,
      "èħĲ": 8482,
      "æĢľ": 8483,
      "ãĢĤãĢĪ": 8484,
      "regard": 8485,
      "Award": 8486,
      "å¾³": 8487,
      "åĨ¯": 8488,
      ");ĊĊĠĠĠĠ": 8489,
      "Group": 8490,
      "å®ŀéĻħä¸Ĭ": 8491,
      "(a": 8492,
      "Jew": 8493,
      "djang": 8494,
      "inten": 8495,
      "ç¨¿": 8496,
      "Ã³nĠ": 8497,
      "CityĠ": 8498,
      "efĠ": 8499,
      "edĠwithĠtheĠ": 8500,
      "buildĠ": 8501,
      "sha": 8502,
      "å¤±åİ»": 8503,
      "ï¼Įè¿ĺæĺ¯": 8504,
      "çļĦå£°éŁ³": 8505,
      ":Ġstring": 8506,
      "conv": 8507,
      "åĲĽåŃĲ": 8508,
      "çŃĸçķ¥": 8509,
      "è´¾": 8510,
      "comingĠ": 8511,
      "Back": 8512,
      "ä»¥æĿ¥": 8513,
      "æĤ¦": 8514,
      "downĠtheĠ": 8515,
      "bul": 8516,
      "locatedĠ": 8517,
      "å¸ķ": 8518,
      "pret": 8519,
      "åĪ¥": 8520,
      "List[": 8521,
      "ratherĠthanĠ": 8522,
      "ï¼Įä¸Ń": 8523,
      "ä¹ĭæīĢ": 8524,
      "I'veĠ": 8525,
      "bow": 8526,
      "æ²ĥ": 8527,
      "ashing": 8528,
      "etsĠ": 8529,
      "è·ĥ": 8530,
      "çļĦå½±åĵį": 8531,
      "ves": 8532,
      "çº¹": 8533,
      "æ¼ı": 8534,
      "æ²³åįĹ": 8535,
      "æĽ¸": 8536,
      "æĹ¥Ġ": 8537,
      "ãĢĤå®ĥ": 8538,
      "186": 8539,
      "edĠinĠaĠ": 8540,
      "æ¼Ķåĳĺ": 8541,
      "1980": 8542,
      "wroteĠ": 8543,
      "Jes": 8544,
      "âĢĿï¼Ī": 8545,
      "èĭ±è¯Ń": 8546,
      "lan": 8547,
      "èµ·äºĨ": 8548,
      "Stor": 8549,
      ";ĠtheĠ": 8550,
      "èĨľ": 8551,
      "yrightĠ": 8552,
      "å¯ĵ": 8553,
      "çŃĶæ¡Ī": 8554,
      "ChineseĠ": 8555,
      "Act": 8556,
      "ä¸ĢçĻ¾": 8557,
      "èĤ¾": 8558,
      "discover": 8559,
      "uringĠ": 8560,
      "çĵľ": 8561,
      "Pat": 8562,
      "').": 8563,
      "åľ°çļĦ": 8564,
      "è¿ħéĢŁ": 8565,
      "æĬ¢": 8566,
      "Ġ=Ġ0": 8567,
      "é¢Ĺ": 8568,
      "standardĠ": 8569,
      "endi": 8570,
      "æľºæ¢°": 8571,
      "mou": 8572,
      "uponĠ": 8573,
      "feetĠ": 8574,
      "å¥³åŃĲ": 8575,
      "();ĊĠĠ}ĊĊĠĠ": 8576,
      "studentsĠ": 8577,
      "éģ¿åħį": 8578,
      "åľĺ": 8579,
      "voiceĠ": 8580,
      "Load": 8581,
      "Ġ2.": 8582,
      "i-": 8583,
      "0.5": 8584,
      "updat": 8585,
      "æ»ļ": 8586,
      "Defa": 8587,
      "adat": 8588,
      "åĴĮå¹³": 8589,
      "Ã±": 8590,
      "occup": 8591,
      "X_": 8592,
      "margin": 8593,
      "es(": 8594,
      "assist": 8595,
      "è¯»èĢħ": 8596,
      "broad": 8597,
      "è¥¿æĸ¹": 8598,
      "satis": 8599,
      "albumĠ": 8600,
      "å¦ĥ": 8601,
      "ersĠtoĠ": 8602,
      "begin": 8603,
      ",Ġ_": 8604,
      "æĿŃ": 8605,
      "ceed": 8606,
      "åĳ¨åĽ´": 8607,
      "Tit": 8608,
      "adaĠ": 8609,
      "(str": 8610,
      "29Ġ": 8611,
      "\"TheĠ": 8612,
      ")Ġ-Ġ": 8613,
      "lotĠ": 8614,
      "make": 8615,
      "å°ıçļĦ": 8616,
      "west": 8617,
      "è¸ª": 8618,
      "pleas": 8619,
      "escap": 8620,
      "wareĠ": 8621,
      "You'reĠ": 8622,
      "ï¼Įä¸Ķ": 8623,
      "tivi": 8624,
      "æĺ¥ç§ĭ": 8625,
      "height:Ġ": 8626,
      "2008å¹´": 8627,
      "DN": 8628,
      "è®ºæĸĩ": 8629,
      "will": 8630,
      "2009å¹´": 8631,
      "Content": 8632,
      "æľīäºĨ": 8633,
      "èĤº": 8634,
      "_file": 8635,
      "mic": 8636,
      "amaĠ": 8637,
      "æ¬º": 8638,
      "éļ¾ä»¥": 8639,
      "runningĠ": 8640,
      "squareĠ": 8641,
      "mindĠ": 8642,
      "################": 8643,
      "IĠhadĠ": 8644,
      "away": 8645,
      "thatĠwasĠ": 8646,
      "plann": 8647,
      "labor": 8648,
      ">ĊĠĠĠĠĠĠĠĠĠĠĠĠĠĠ<": 8649,
      "å°±åĥı": 8650,
      "whichĠisĠ": 8651,
      "wouldĠhaveĠ": 8652,
      "certainĠ": 8653,
      "SoĠ": 8654,
      "seg": 8655,
      "æķĻæĿĲ": 8656,
      "eyesĠ": 8657,
      "åµ": 8658,
      "outputĠ": 8659,
      "è½¨": 8660,
      "åı¸æ³ķ": 8661,
      "sĠtoĠbeĠ": 8662,
      "hot": 8663,
      "uff": 8664,
      "citi": 8665,
      "projectĠ": 8666,
      "çļĦæĸ¹å¼ı": 8667,
      "section": 8668,
      "ï¼Īä¸Ģ": 8669,
      "ç®Ń": 8670,
      "Over": 8671,
      "challeng": 8672,
      "\"></": 8673,
      "moment": 8674,
      "nb": 8675,
      "System": 8676,
      "120": 8677,
      "ae": 8678,
      "æĿ¥äºĨ": 8679,
      "),ĠandĠ": 8680,
      "å¿ĥçļĦ": 8681,
      "ä¼ª": 8682,
      "çĶ¢": 8683,
      "Gen": 8684,
      "åĢ¼å¾Ĺ": 8685,
      "(A": 8686,
      "é½¿": 8687,
      "ï¼Įåıªæĺ¯": 8688,
      "stro": 8689,
      "itchĠ": 8690,
      "é»ŀ": 8691,
      "ÏĢ": 8692,
      "partyĠ": 8693,
      "åı¤ä»£": 8694,
      "className": 8695,
      "çĸĨ": 8696,
      "sizeĠ": 8697,
      "try:ĊĠĠĠĠĠĠĠĠĠĠĠĠ": 8698,
      "$ĠandĠ$": 8699,
      "fromĠ\"": 8700,
      "react": 8701,
      "reve": 8702,
      "åĬ¨ä½ľ": 8703,
      "touch": 8704,
      "åĪ·": 8705,
      "é«ĺçº§": 8706,
      "åĲįç§°": 8707,
      "interestĠ": 8708,
      "tax": 8709,
      "åĮħåĲ«": 8710,
      "this._": 8711,
      "ellowĠ": 8712,
      "æĸ¯çī¹": 8713,
      "Open": 8714,
      "o_": 8715,
      "edĠfromĠtheĠ": 8716,
      "å¼¥": 8717,
      "deep": 8718,
      "åħ±äº§": 8719,
      "dol": 8720,
      "åĬ²": 8721,
      "enĠandĠ": 8722,
      "____": 8723,
      "(S": 8724,
      "vent": 8725,
      "ze": 8726,
      "æ°¸è¿ľ": 8727,
      "Moun": 8728,
      "ine,Ġ": 8729,
      "ï¼Įè¿Ļç§į": 8730,
      "dot": 8731,
      "åī²": 8732,
      ",\"ĠsaidĠ": 8733,
      "ç»Ļä½ł": 8734,
      "}/": 8735,
      "ä¹Łï¼Į": 8736,
      "asĠheĠ": 8737,
      "enderĠ": 8738,
      "æī¹åĩĨ": 8739,
      "(p": 8740,
      "conduc": 8741,
      "éĢĲæ¸Ĳ": 8742,
      "NameĠ": 8743,
      "ç¿ł": 8744,
      "Port": 8745,
      "EvenĠ": 8746,
      "å®°": 8747,
      "tive": 8748,
      "96": 8749,
      "ãĢĤĊĊâĢľ": 8750,
      "åĽĽãĢģ": 8751,
      "woodĠ": 8752,
      "çļĦåŁºç¡Ģ": 8753,
      "ä»Ķ": 8754,
      "ment,Ġ": 8755,
      "æ¼Ĥ": 8756,
      "½Ġ": 8757,
      "re-": 8758,
      "è½©": 8759,
      "itselfĠ": 8760,
      "name=\"": 8761,
      "wantedĠtoĠ": 8762,
      "usesĠ": 8763,
      "ç´ļ": 8764,
      "ç¥Ŀ": 8765,
      "uckĠ": 8766,
      "åłĨ": 8767,
      "ables": 8768,
      "ä¸Ģå¹´": 8769,
      "alistĠ": 8770,
      "éĤ£ç§į": 8771,
      "iefĠ": 8772,
      "âī": 8773,
      "åĲĵ": 8774,
      "éĻĽ": 8775,
      "ä¼ļè®¡": 8776,
      "knowled": 8777,
      "!\"Ġ": 8778,
      "wideĠ": 8779,
      "ä¸»æ¼Ķ": 8780,
      "atedĠtoĠ": 8781,
      "account": 8782,
      "çĻ»è®°": 8783,
      "Associ": 8784,
      "à¸": 8785,
      "ä¸įäºĨ": 8786,
      "istic": 8787,
      "0Ġ0Ġ": 8788,
      "éĢĤåºĶ": 8789,
      "čĊĠĠĠĠĠĠĠĠ": 8790,
      "\\left": 8791,
      "çīµ": 8792,
      "ä¸ľåĮĹ": 8793,
      "åħ´è¶£": 8794,
      "Ċ//": 8795,
      "éĢ¸": 8796,
      "ç¬¬ä¸ĥ": 8797,
      "German": 8798,
      "åĳ½ä»¤": 8799,
      "Mem": 8800,
      "near": 8801,
      "ä»¶äºĭ": 8802,
      "arrang": 8803,
      "vil": 8804,
      "s.ĠItĠ": 8805,
      "æŃ¦åĻ¨": 8806,
      "jav": 8807,
      "ä¹ĭå¤ĸ": 8808,
      "gettingĠ": 8809,
      "åķĨåĵģ": 8810,
      "stepĠ": 8811,
      "ä¸¸": 8812,
      "area": 8813,
      "liz": 8814,
      "**ĊĊ": 8815,
      "éĿ¢ï¼Į": 8816,
      "æ·ĭ": 8817,
      "exc": 8818,
      "èĹ¤": 8819,
      "Attribut": 8820,
      "westĠ": 8821,
      "42": 8822,
      "AtĠ": 8823,
      "åĽĽå·Ŀ": 8824,
      "bey": 8825,
      "é«ĺçļĦ": 8826,
      "å¡ĺ": 8827,
      "åĴ¨": 8828,
      "å°±ä¸ļ": 8829,
      "æĹłè®º": 8830,
      ",ĠL": 8831,
      "äººéĥ½": 8832,
      "æŀ«": 8833,
      "phil": 8834,
      "Tor": 8835,
      "entit": 8836,
      "32Ġ": 8837,
      "LeagueĠ": 8838,
      "try:ĊĠĠĠĠĠĠĠĠ": 8839,
      "):ĊĠĠĠĠĠĠĠĠĠĠĠĠ": 8840,
      "exĠ": 8841,
      "è¿½æ±Ĥ": 8842,
      "æİĴåĲį": 8843,
      "expect(": 8844,
      "country": 8845,
      "developmentĠ": 8846,
      "gin": 8847,
      "åħ¬ä¸»": 8848,
      "weightĠ": 8849,
      "æĻºæħ§": 8850,
      "({": 8851,
      "èªį": 8852,
      "200Ġ": 8853,
      "çĽ®åħī": 8854,
      "ï¼ŁâĢĿĊâĢľ": 8855,
      "';ĊĊ": 8856,
      "å¤¹": 8857,
      "èĥ¶": 8858,
      "çļĦåľ°": 8859,
      "Fact": 8860,
      "Mark": 8861,
      "quad": 8862,
      "simpleĠ": 8863,
      "programĠ": 8864,
      "Asi": 8865,
      "éĥ¨éĺŁ": 8866,
      "sheĠhadĠ": 8867,
      "è¿ĩç¨ĭä¸Ń": 8868,
      "ï¼Įè¯´": 8869,
      ".ĠThat'sĠ": 8870,
      "schem": 8871,
      "friendĠ": 8872,
      "æ¶īåıĬ": 8873,
      "Bur": 8874,
      "Äģ": 8875,
      "ä¸ľæĸ¹": 8876,
      "æ»´": 8877,
      "channel": 8878,
      "pic": 8879,
      "ï¼ĮåĬł": 8880,
      ",ĊĠĠĠĠĠĠĠĠĠĠĠĠ\"": 8881,
      "liesĠ": 8882,
      "}ĊĊĠĠĠĠĠĠĠĠ": 8883,
      "çĵ¶": 8884,
      "competi": 8885,
      "equiv": 8886,
      "px;ĊĠĠ": 8887,
      "kid": 8888,
      "æ¢¯": 8889,
      "_C": 8890,
      "df": 8891,
      "listĠofĠ": 8892,
      "èĥİ": 8893,
      "ranĠ": 8894,
      "};ĊĊ": 8895,
      "ï¼īĊĠ": 8896,
      "äººæ°ĳåħ±åĴĮåĽ½": 8897,
      "æĻºèĥ½": 8898,
      "particularĠ": 8899,
      "ç¸£": 8900,
      "é«ĺçŃī": 8901,
      ")Ġ{ĊĠĠ": 8902,
      "together": 8903,
      "acrossĠ": 8904,
      "Sun": 8905,
      "eters": 8906,
      ".ĠAllĠ": 8907,
      "handle": 8908,
      "éĢ»è¾ĳ": 8909,
      "2013": 8910,
      "æŀĦæĪĲ": 8911,
      "é£Łçī©": 8912,
      "adj": 8913,
      "ãĢĭä¸Ń": 8914,
      "åħ¬è·¯": 8915,
      "Republic": 8916,
      "#includeĠ": 8917,
      "éľ¸": 8918,
      "student": 8919,
      "èģª": 8920,
      "\\timesĠ": 8921,
      "sĠimportĠ": 8922,
      "ate,Ġ": 8923,
      "edĠanĠ": 8924,
      "ä¸įçĶ¨": 8925,
      "what": 8926,
      "èĩ³ä»Ĭ": 8927,
      "å²Ĺ": 8928,
      "è´¢åĬ¡": 8929,
      "wav": 8930,
      "éļ¶": 8931,
      "colorĠ": 8932,
      "æĢĿç»´": 8933,
      "ç¿ģ": 8934,
      "äºĨä»ĸ": 8935,
      "çĮª": 8936,
      "ĊB": 8937,
      "siĠ": 8938,
      "tin": 8939,
      "åıĬæĹ¶": 8940,
      "askedĠ": 8941,
      "åĽ°éļ¾": 8942,
      "].": 8943,
      "toĠhisĠ": 8944,
      "courseĠ": 8945,
      "æĦģ": 8946,
      "æ¡Īä¾ĭ": 8947,
      "co-": 8948,
      "æĢ§ãĢĤ": 8949,
      "said.Ġ\"": 8950,
      "ç§ĺä¹¦": 8951,
      "EL": 8952,
      "çľŁæŃ£çļĦ": 8953,
      "ãģ®": 8954,
      "UI": 8955,
      "entr": 8956,
      "æ¯ĶèµĽ": 8957,
      "WithĠ": 8958,
      "å¼ĺ": 8959,
      "shop": 8960,
      "feature": 8961,
      "çĽĪ": 8962,
      "doingĠ": 8963,
      "cook": 8964,
      "ãĢĤĊä»ĸ": 8965,
      "äºĭé¡¹": 8966,
      "çĮİ": 8967,
      "å¼¦": 8968,
      "diction": 8969,
      "inkĠ": 8970,
      "å·ŀå¸Ĥ": 8971,
      "ä»Ĩ": 8972,
      "economicĠ": 8973,
      "ientĠ": 8974,
      "whenĠheĠ": 8975,
      "campa": 8976,
      "ï¼Įåħ¨": 8977,
      "popularĠ": 8978,
      "85": 8979,
      "Gi": 8980,
      "æµĻæ±Ł": 8981,
      "Hum": 8982,
      "Angel": 8983,
      "bon": 8984,
      "sim": 8985,
      "æµĳ": 8986,
      "ÑĤ": 8987,
      ".ĠThenĠ": 8988,
      "æĬķåħ¥": 8989,
      "knownĠasĠ": 8990,
      "averageĠ": 8991,
      "èħĬ": 8992,
      "1Ġ-Ġ": 8993,
      "ç¡ķ": 8994,
      "byt": 8995,
      "e.Ġ": 8996,
      "å¸«": 8997,
      "fight": 8998,
      "çīĪæľ¬": 8999,
      "Scrip": 9000,
      "API": 9001,
      "relationshipĠ": 9002,
      "æĦıåĳ³çĿĢ": 9003,
      "TheseĠ": 9004,
      "I'llĠ": 9005,
      "]Ċ": 9006,
      "è¯ģæį®": 9007,
      "brid": 9008,
      "åħļçļĦ": 9009,
      "ï¼Įåıį": 9010,
      "ĊĠĠĠĠĠĠĠĠ#Ġ": 9011,
      "ç§ĳçłĶ": 9012,
      "rail": 9013,
      "è§£æĶ¾": 9014,
      "ensiveĠ": 9015,
      "ä¼ļåĦ¿": 9016,
      "åĲĮæĹ¶ï¼Į": 9017,
      "æįĲ": 9018,
      "YP": 9019,
      "ch,Ġ": 9020,
      "åı°æ¹¾": 9021,
      "Washing": 9022,
      "è¿Ī": 9023,
      "çĨĬ": 9024,
      "Cha": 9025,
      "Minist": 9026,
      "realiz": 9027,
      "å®´": 9028,
      "å±ħæ°ĳ": 9029,
      "å®ŀè¡Į": 9030,
      "Kar": 9031,
      "æĸĭ": 9032,
      "æĸ¯Â·": 9033,
      "asternĠ": 9034,
      "likeĠtheĠ": 9035,
      "rad": 9036,
      "alp": 9037,
      "å¿Į": 9038,
      "org/": 9039,
      "clim": 9040,
      "momentĠ": 9041,
      "Em": 9042,
      "structĠ": 9043,
      "Ã³Ġ": 9044,
      "believeĠ": 9045,
      "å¥³åĦ¿": 9046,
      "soldi": 9047,
      "æŃĮæĽ²": 9048,
      "æ¯ķç«Ł": 9049,
      "emerg": 9050,
      "he'sĠ": 9051,
      "ness": 9052,
      "password": 9053,
      "å·¥èīº": 9054,
      "businessĠ": 9055,
      "å¼µ": 9056,
      "progres": 9057,
      "ç»ıåħ¸": 9058,
      "candi": 9059,
      "Work": 9060,
      "åĪļæīį": 9061,
      "æĸ¹éĿ¢çļĦ": 9062,
      "utiveĠ": 9063,
      "singleĠ": 9064,
      "Index": 9065,
      "isĠthatĠ": 9066,
      "ä¸ŀ": 9067,
      "promot": 9068,
      "å¡«": 9069,
      "keptĠ": 9070,
      "o'sĠ": 9071,
      "spo": 9072,
      "åİ»ãĢĤ": 9073,
      "åĸ®": 9074,
      "éĻĦè¿ĳ": 9075,
      "1Ċ": 9076,
      "road": 9077,
      "æ»ĭ": 9078,
      "è¯·æ±Ĥ": 9079,
      "èĲ¥éĶĢ": 9080,
      "Oper": 9081,
      "percentĠ": 9082,
      "è®¯": 9083,
      "æİ©": 9084,
      "Code": 9085,
      "purpos": 9086,
      "breakĠ": 9087,
      "ä¸ĭäºĨ": 9088,
      "Christ": 9089,
      "=Ġ0": 9090,
      "Regi": 9091,
      "ãĢģå¤§": 9092,
      "å¤§åĪ©": 9093,
      "å¹¸ç¦ı": 9094,
      "earn": 9095,
      "clearĠ": 9096,
      "èŁ": 9097,
      "an'sĠ": 9098,
      "è¯Ħä¼°": 9099,
      "MichaelĠ": 9100,
      "experim": 9101,
      ">ĊĊ": 9102,
      "ts": 9103,
      "éĻįä½İ": 9104,
      "éĿĸ": 9105,
      "boxĠ": 9106,
      "èĢĢ": 9107,
      "Record": 9108,
      "individualĠ": 9109,
      "å¤ªåŃĲ": 9110,
      "variableĠ": 9111,
      "Rem": 9112,
      "aĊ": 9113,
      "Ġ3.": 9114,
      "additionalĠ": 9115,
      "videoĠ": 9116,
      "æľµ": 9117,
      "ley": 9118,
      "èĴĭ": 9119,
      "personalĠ": 9120,
      "Secon": 9121,
      "md": 9122,
      "2005": 9123,
      "Page": 9124,
      "suff": 9125,
      "æĺ¯æĪĳ": 9126,
      "2014": 9127,
      ".ĠSoĠ": 9128,
      "å°¿": 9129,
      "esĠfromĠ": 9130,
      "å«Į": 9131,
      "benef": 9132,
      "demonstr": 9133,
      "åħħæ»¡": 9134,
      "2006": 9135,
      "isĠalsoĠ": 9136,
      "åĳµ": 9137,
      "phĠ": 9138,
      "ä¹īåĬ¡": 9139,
      "outĠofĠtheĠ": 9140,
      "èı©": 9141,
      "ä¸Ńåįİäººæ°ĳåħ±åĴĮåĽ½": 9142,
      "Message": 9143,
      "MO": 9144,
      "pageĠ": 9145,
      "åīª": 9146,
      "åİŁæĿ¥": 9147,
      "fund": 9148,
      "ï¼Įä»İèĢĮ": 9149,
      "izeĠ": 9150,
      "2012å¹´": 9151,
      "es.Ġ": 9152,
      "offĠtheĠ": 9153,
      "ä»ĩ": 9154,
      "æĺĨ": 9155,
      "deb": 9156,
      "èĩĤ": 9157,
      "approach": 9158,
      "conven": 9159,
      "æİ¢ç´¢": 9160,
      "aught": 9161,
      "siv": 9162,
      "ãĢĤĊĠ": 9163,
      "boy": 9164,
      "largestĠ": 9165,
      "approxim": 9166,
      "RA": 9167,
      "checkĠ": 9168,
      "healthĠ": 9169,
      "fle": 9170,
      "an-": 9171,
      "exic": 9172,
      "alityĠ": 9173,
      "chas": 9174,
      "IĠhaveĠ": 9175,
      "é¡ŀ": 9176,
      ".ĊĠĠĠĠ\"\"\"ĊĠĠĠĠ": 9177,
      "BC": 9178,
      "charact": 9179,
      "å°İ": 9180,
      "lear": 9181,
      "compos": 9182,
      "<<": 9183,
      "åĲĮæĦı": 9184,
      "2016": 9185,
      "ION": 9186,
      "shallĠ": 9187,
      "simplyĠ": 9188,
      "ï¼ĮæĪĸèĢħ": 9189,
      "æ²Ĵ": 9190,
      "æµ¦": 9191,
      "PaulĠ": 9192,
      "speciesĠ": 9193,
      "ï¼ģâĢĿĊâĢľ": 9194,
      "åį°åº¦": 9195,
      "id=\"": 9196,
      "åĪ°çļĦ": 9197,
      "2007å¹´": 9198,
      "çĹħæ¯Ĵ": 9199,
      "æŁĲäºĽ": 9200,
      "åĪĨéħį": 9201,
      "actualĠ": 9202,
      "Fail": 9203,
      "Gl": 9204,
      "whomĠ": 9205,
      "èĢĮä¸Ķ": 9206,
      "void": 9207,
      "ï¼Įä¸Ģä¸ª": 9208,
      "icsĠ": 9209,
      "statusĠ": 9210,
      "connection": 9211,
      "æĪĪ": 9212,
      "ä¸ºä¹ĭ": 9213,
      "ï¼Įçİ°åľ¨": 9214,
      "gard": 9215,
      "grid": 9216,
      "æĢģåº¦": 9217,
      "_T": 9218,
      "æĦ¤": 9219,
      "ationĠ(": 9220,
      "åħ¬å¼Ģ": 9221,
      "çŀ¬éĹ´": 9222,
      "éĢ¢": 9223,
      "èµ¢": 9224,
      "hav": 9225,
      "æĸľ": 9226,
      "Right": 9227,
      "èĪī": 9228,
      "ãĢĤè¿ĻäºĽ": 9229,
      "takingĠ": 9230,
      "53": 9231,
      "çĶľ": 9232,
      ")Ċĉ": 9233,
      "kind": 9234,
      "thyĠ": 9235,
      "çģĮ": 9236,
      "2012": 9237,
      "twent": 9238,
      "communic": 9239,
      "card": 9240,
      "append(": 9241,
      "args": 9242,
      "åľ°çĲĥ": 9243,
      "éĤ£æł·": 9244,
      "ĊĠĠĠ\\[": 9245,
      "åº¶": 9246,
      "requestĠ": 9247,
      "èĭ±éĽĦ": 9248,
      "bind": 9249,
      "ç¥Ģ": 9250,
      "ware": 9251,
      "å¹¿ä¸ľ": 9252,
      "payĠ": 9253,
      "æĴĴ": 9254,
      "config.": 9255,
      "Committe": 9256,
      "ban": 9257,
      ",ĠweĠcanĠ": 9258,
      "å«ģ": 9259,
      "defined": 9260,
      "fing": 9261,
      "ĊãĢĬ": 9262,
      "=1": 9263,
      "matter": 9264,
      "lu": 9265,
      "è´¹çĶ¨": 9266,
      "models.": 9267,
      "expressionĠ": 9268,
      "ationsĠofĠ": 9269,
      ")Ġ(": 9270,
      ",ĠitĠ": 9271,
      "æ°§": 9272,
      "endedĠ": 9273,
      "å¼ºè°ĥ": 9274,
      "alg": 9275,
      "surviv": 9276,
      "directlyĠ": 9277,
      "å®Ļ": 9278,
      "çĮ«": 9279,
      "è¿ŀç»Ń": 9280,
      "åĴ¬": 9281,
      "fish": 9282,
      "andĠhisĠ": 9283,
      "where": 9284,
      ".ĠHerĠ": 9285,
      "winĠ": 9286,
      "conso": 9287,
      "front": 9288,
      "takesĠ": 9289,
      "')Ġ": 9290,
      "IIĠ": 9291,
      "grand": 9292,
      "2014å¹´": 9293,
      "IG": 9294,
      "çĬ¶åĨµ": 9295,
      "Sing": 9296,
      "Ġç¬¬ä¸Ģ": 9297,
      "agg": 9298,
      "çķı": 9299,
      "çļĦæĸ¹æ³ķ": 9300,
      "most": 9301,
      "address": 9302,
      "Lon": 9303,
      "crow": 9304,
      "çŁĽ": 9305,
      "alongĠtheĠ": 9306,
      "RobertĠ": 9307,
      "aren": 9308,
      "commandĠ": 9309,
      "writeĠ": 9310,
      "Well": 9311,
      "isonĠ": 9312,
      "åĮ»çĶŁ": 9313,
      "åĬ¨ï¼Į": 9314,
      "æĭĴç»Ŀ": 9315,
      "è¡ĮãĢĤ": 9316,
      "colon": 9317,
      "domin": 9318,
      "Bra": 9319,
      "thread": 9320,
      "æĦļ": 9321,
      "åİŁæľ¬": 9322,
      "åĲĮä¸Ģ": 9323,
      "èĦ¾": 9324,
      "é£İæł¼": 9325,
      "}$Ġ": 9326,
      "bed": 9327,
      "big": 9328,
      "å¯Ĥ": 9329,
      "()ĊĠĠĠĠĠĠĠĠĠĠĠĠ": 9330,
      "ply": 9331,
      "çº½": 9332,
      "çŁ©": 9333,
      "black": 9334,
      "åĪ¤æĸŃ": 9335,
      "Ã¥Ġ": 9336,
      "SS": 9337,
      "Hor": 9338,
      "rever": 9339,
      "elementĠ": 9340,
      "whoĠhadĠ": 9341,
      "ÃĹĠ": 9342,
      "reportĠ": 9343,
      "Ġ=Ġ$": 9344,
      "çĲĨæĥ³": 9345,
      "æħ°": 9346,
      "ç½ĳç«Ļ": 9347,
      "dimen": 9348,
      "1:Ġ": 9349,
      "slow": 9350,
      "åĪĽä¸ļ": 9351,
      "è®Ĭ": 9352,
      "æĬ¼": 9353,
      "siteĠ": 9354,
      "differenceĠ": 9355,
      "ation:Ġ": 9356,
      "evisionĠ": 9357,
      "åĹ¯": 9358,
      "lementĠ": 9359,
      "facil": 9360,
      "Depart": 9361,
      "éĺĶ": 9362,
      ".ĠOneĠ": 9363,
      "ç£ģ": 9364,
      "Ben": 9365,
      "æµ´": 9366,
      "é£ĺ": 9367,
      "common": 9368,
      "è´¦": 9369,
      "sinĠ": 9370,
      "songĠ": 9371,
      "click": 9372,
      "ĊĊĊclassĠ": 9373,
      "ere'sĠ": 9374,
      "burn": 9375,
      "ãĢĭæĺ¯": 9376,
      "åĳĺå·¥": 9377,
      "forĠhisĠ": 9378,
      "ĊĊĊ#Ġ": 9379,
      "LEĠ": 9380,
      "f(": 9381,
      "wayĠtoĠ": 9382,
      ").ĠTheĠ": 9383,
      "Buil": 9384,
      "Exp": 9385,
      "arriv": 9386,
      "ow,Ġ": 9387,
      "çĲĨçĶ±": 9388,
      "è¥¿åĮĹ": 9389,
      "éªĤ": 9390,
      "optim": 9391,
      ".ĠWithĠ": 9392,
      "mary": 9393,
      "particularlyĠ": 9394,
      ")ĊĊĠĠĠĠĠĠĠĠ#Ġ": 9395,
      "roĠ": 9396,
      "Ġï¼Į": 9397,
      "ingĠfromĠ": 9398,
      "æĭĸ": 9399,
      "GodĠ": 9400,
      "UP": 9401,
      "Ã£": 9402,
      "analy": 9403,
      "useĠofĠ": 9404,
      "talkĠ": 9405,
      "defe": 9406,
      "Pass": 9407,
      "wonĠ": 9408,
      "è¯īè®¼": 9409,
      "èī²ï¼Į": 9410,
      "archit": 9411,
      "Dar": 9412,
      "ä¸įæĥ³": 9413,
      "è§Ĵåº¦": 9414,
      "exactlyĠ": 9415,
      "å¿½çĦ¶": 9416,
      "Â²": 9417,
      "éĥ½åľ¨": 9418,
      "éĢĤåĲĪ": 9419,
      "å§¿": 9420,
      "loĠ": 9421,
      "dang": 9422,
      "alist": 9423,
      "streng": 9424,
      "initialĠ": 9425,
      "Exception": 9426,
      "symbol": 9427,
      "dÃ©": 9428,
      "tx": 9429,
      "collect": 9430,
      "åıĮæĸ¹": 9431,
      "edĠ=Ġ": 9432,
      "trackĠ": 9433,
      "1æĹ¥": 9434,
      "toĠhaveĠ": 9435,
      ",ĊĠĠĠĠĠĠĠĠĠĠĠĠĠĠĠĠĠĠĠĠ": 9436,
      "time.": 9437,
      "åı£ï¼Į": 9438,
      "Anim": 9439,
      "UnitedĠStat": 9440,
      "mentsĠ": 9441,
      "sport": 9442,
      "åĨ³çŃĸ": 9443,
      "()Ġ{ĊĠĠĠĠfoo": 9444,
      "();ĊĠĠ}ĊĊĠĠpublicĠvoidĠfoo": 9445,
      "76": 9446,
      "è±«": 9447,
      "that,Ġ": 9448,
      "éĲ": 9449,
      "ãĢĤãĢĢãĢĢ": 9450,
      "ary,Ġ": 9451,
      "æĭĨ": 9452,
      "longerĠ": 9453,
      "Cath": 9454,
      "TV": 9455,
      "psych": 9456,
      "æĮĩæĮ¥": 9457,
      "Du": 9458,
      "çļĦãĢģ": 9459,
      "activi": 9460,
      "(),Ġ": 9461,
      "çº¤": 9462,
      "æĦĽ": 9463,
      ");Ċĉ": 9464,
      "éłĺ": 9465,
      "äºĭåĬ¡": 9466,
      "ä½ĵçİ°": 9467,
      "å¹´åº¦": 9468,
      "productionĠ": 9469,
      "å¤Ħï¼Į": 9470,
      "regularĠ": 9471,
      "ament": 9472,
      "åħĪåĲİ": 9473,
      "jobĠ": 9474,
      "hus": 9475,
      "at,Ġ": 9476,
      "ï¼Įä»ĸçļĦ": 9477,
      "ãĢĤãĢĢãĢĢãĢĢãĢĢ": 9478,
      "èģĶç½ĳ": 9479,
      "é¸¿": 9480,
      "$(": 9481,
      "Tur": 9482,
      "stoneĠ": 9483,
      "åľ¨ä¸Ģ": 9484,
      "www.": 9485,
      "consci": 9486,
      "çī¢": 9487,
      "å¹²éĥ¨": 9488,
      "Muse": 9489,
      "SinceĠ": 9490,
      "åĪĽå»º": 9491,
      "Span": 9492,
      "Mu": 9493,
      "æıŃ": 9494,
      "2013å¹´": 9495,
      "erryĠ": 9496,
      "sched": 9497,
      "æĴĳ": 9498,
      "improv": 9499,
      "encod": 9500,
      "IndianĠ": 9501,
      "ï¼Įä¸ŃåĽ½": 9502,
      "ä¹Łä¼ļ": 9503,
      "ä¹Łæ²¡æľī": 9504,
      "byĠaĠ": 9505,
      "mechan": 9506,
      "();ĊĠĠĠĠ": 9507,
      "PresidentĠ": 9508,
      "æĭ¼": 9509,
      "ç¦Ħ": 9510,
      "Cas": 9511,
      "create_": 9512,
      "emĠ": 9513,
      "å¤§å¤ļæķ°": 9514,
      "abĠ": 9515,
      "pric": 9516,
      "mode": 9517,
      "corpor": 9518,
      "Vict": 9519,
      "nation": 9520,
      "å¦Ħ": 9521,
      "Ċ#defineĠ": 9522,
      "THEĠ": 9523,
      "nĠ=Ġ": 9524,
      "ç»ĦåĲĪ": 9525,
      "></li": 9526,
      "ãĢĤãĢī": 9527,
      "associatedĠ": 9528,
      "åº¸": 9529,
      "æłı": 9530,
      "2006å¹´": 9531,
      "è®¾ç«ĭ": 9532,
      "designĠ": 9533,
      "æĪĲå°±": 9534,
      "çī©çļĦ": 9535,
      "ãĢĤèĩª": 9536,
      "esĠwithĠ": 9537,
      "===": 9538,
      "ä¸²": 9539,
      "æ£Ģæµĭ": 9540,
      "æĪĲéķ¿": 9541,
      "FAUL": 9542,
      "100%": 9543,
      "CreateĠ": 9544,
      "åıĽ": 9545,
      "declar": 9546,
      "[i": 9547,
      "eu": 9548,
      "ä¸Ģä½į": 9549,
      "givesĠ": 9550,
      "repos": 9551,
      "ä½ľå®¶": 9552,
      "inch": 9553,
      "ï¼Įèĥ½": 9554,
      "plusĠ": 9555,
      "ocol": 9556,
      "æĢ§åĴĮ": 9557,
      "doubleĠ": 9558,
      "orderĠtoĠ": 9559,
      "boole": 9560,
      "åŃ¦å®¶": 9561,
      "åľ°çĲĨ": 9562,
      "ä¸¥æł¼": 9563,
      "Ċ<": 9564,
      "album": 9565,
      "ä¸¤ç§į": 9566,
      "ç«ĭåĪ»": 9567,
      "äºĮï¼ī": 9568,
      "éĢļçŁ¥": 9569,
      "PublicĠ": 9570,
      "å¤Ħäºİ": 9571,
      "éħįç½®": 9572,
      "energyĠ": 9573,
      "coĠ": 9574,
      "ä¾¿æĺ¯": 9575,
      "$\\boxed{": 9576,
      "2011": 9577,
      "è¡¨æ¼Ķ": 9578,
      "èĮĤ": 9579,
      "é©¬åħĭ": 9580,
      "Dict[str,Ġ": 9581,
      "Let'sĠ": 9582,
      "_F": 9583,
      "jus": 9584,
      "menu": 9585,
      "Info": 9586,
      "defini": 9587,
      "è¦ĭ": 9588,
      "hear": 9589,
      "è¿ĺè¦ģ": 9590,
      "Calcul": 9591,
      "Giv": 9592,
      "ationĠisĠ": 9593,
      "ãĢĤè¿Ļç§į": 9594,
      "fyĠ": 9595,
      "ï¼Įæľ¬": 9596,
      "æīĢæľīçļĦ": 9597,
      "pas": 9598,
      "ationĠforĠ": 9599,
      "å±ħçĦ¶": 9600,
      "Response": 9601,
      "æĺĤ": 9602,
      "éĹ¨ï¼Į": 9603,
      "å§Ķä¼ļ": 9604,
      "DEFAUL": 9605,
      ",_Ġ": 9606,
      "IĠthinkĠ": 9607,
      "ãĢĭçŃī": 9608,
      "éĴ¦": 9609,
      "lessĠthanĠ": 9610,
      "^2Ġ-Ġ": 9611,
      "MS": 9612,
      "*/ĊĠĠĠĠ": 9613,
      "Den": 9614,
      "ulĠ": 9615,
      "éĬ": 9616,
      ":00": 9617,
      "n'": 9618,
      "food": 9619,
      "acces": 9620,
      "æ¦ľ": 9621,
      "è´¢äº§": 9622,
      "Author": 9623,
      "çĽ¸åºĶ": 9624,
      "weĠhaveĠ": 9625,
      "to-": 9626,
      "Java": 9627,
      "æĿ¥æºĲ": 9628,
      "æĵ¦": 9629,
      "å¦ĩå¥³": 9630,
      "ãĢĤåĪĻ": 9631,
      "edĠtheirĠ": 9632,
      "fai": 9633,
      "é¼İ": 9634,
      "Initializ": 9635,
      "ely,Ġ": 9636,
      "æ¶Īå¤±": 9637,
      "statesĠ": 9638,
      "ä¸Ńæľī": 9639,
      "ç¨Ģ": 9640,
      "assertĠ": 9641,
      "èī°": 9642,
      "ifĠ(!": 9643,
      "CharlesĠ": 9644,
      "plug": 9645,
      "TVĠ": 9646,
      "////////": 9647,
      "ll": 9648,
      "åĩºæĿ¥çļĦ": 9649,
      ">ĊĠĠĠĠĠĠĠĠĠĠ": 9650,
      "Alex": 9651,
      "Lev": 9652,
      "æĢ§è´¨": 9653,
      "è¡¨æĥħ": 9654,
      "one-": 9655,
      ".ĠOn": 9656,
      "&quot;": 9657,
      "âĶĢ": 9658,
      "&nb": 9659,
      ".ĠIn": 9660,
      "æĺ¯ä¸įæĺ¯": 9661,
      "futureĠ": 9662,
      "investig": 9663,
      "ed.ĠTheĠ": 9664,
      "æ±¡æŁĵ": 9665,
      "å¤ļï¼Į": 9666,
      "ç»ıçĲĨ": 9667,
      "antlyĠ": 9668,
      "son,Ġ": 9669,
      "correctĠ": 9670,
      "{Ċĉĉĉ": 9671,
      "çĳŁ": 9672,
      "beganĠtoĠ": 9673,
      "sys.": 9674,
      "areasĠ": 9675,
      "esh": 9676,
      "omb": 9677,
      "UseĠ": 9678,
      "Pow": 9679,
      "äºĨåĩł": 9680,
      "æĿ¡ä¾ĭ": 9681,
      "said,Ġ\"": 9682,
      "èľľ": 9683,
      "çĥĤ": 9684,
      "vonĠ": 9685,
      "ä¸Ĭä¸ĭ": 9686,
      "autom": 9687,
      "Label": 9688,
      "è´¡çĮ®": 9689,
      "ĊĊThisĠ": 9690,
      "è¿ĽæŃ¥": 9691,
      "darkĠ": 9692,
      "iss": 9693,
      "ç¼ĸè¾ĳ": 9694,
      "å´©": 9695,
      "èĥ½éĩı": 9696,
      "é»¨": 9697,
      "remainingĠ": 9698,
      "å±¬": 9699,
      "97": 9700,
      ",ĠwhereĠ": 9701,
      "è°ĵä¹ĭ": 9702,
      "}Ċ}ĊĊ": 9703,
      "Ok": 9704,
      "å®¶ä¼Ļ": 9705,
      "ç¾İåľĭ": 9706,
      "Pop": 9707,
      "æĺ¯åĽłä¸º": 9708,
      "çĸ¯": 9709,
      "it.": 9710,
      "ä¸įèµ·": 9711,
      "å®Įæķ´": 9712,
      "Returns:ĊĠĠĠĠĠĠĠĠĠĠĠĠ": 9713,
      ",\"ĠsheĠ": 9714,
      ".ĊĊ'": 9715,
      "Start": 9716,
      "template": 9717,
      "django.": 9718,
      "Mexic": 9719,
      "yaĠ": 9720,
      "ï¼ĮåĪ°": 9721,
      "Bre": 9722,
[...]
