{
  "version": "1.0",
  "truncation": null,
  "padding": null,
  "added_tokens": [
    {
      "id": 0,
      "content": "<|pad|>",
      "single_word": false,
      "lstrip": false,
      "rstrip": false,
      "normalized": false,
      "special": true
    },
    {
      "id": 1,
      "content": "<|unk|>",
      "single_word": false,
      "lstrip": false,
      "rstrip": false,
      "normalized": false,
      "special": true
    },
    {
      "id": 2,
      "content": "<｜begin▁of▁sentence｜>",
      "single_word": false,
      "lstrip": false,
      "rstrip": false,
      "normalized": false,
      "special": true
    },
    {
      "id": 3,
      "content": "<｜end▁of▁sentence｜>",
      "single_word": false,
      "lstrip": false,
      "rstrip": false,
      "normalized": false,
      "special": true
    },
    {
      "id": 4,
      "content": "<｜User｜>",
      "single_word": false,
      "lstrip": false,
      "rstrip": false,
      "normalized": false,
      "special": true
    },
    {
      "id": 5,
      "content": "<｜Assistant｜>",
      "single_word": false,
      "lstrip": false,
      "rstrip": false,
      "normalized": false,
      "special": true
    },
    {
      "id": 6,
      "content": "<｜latest_reminder｜>",
      "single_word": false,
      "lstrip": false,
      "rstrip": false,
      "normalized": false,
      "special": true
    },
    {
      "id": 7,
      "content": "<think>",
      "single_word": false,
      "lstrip": false,
      "rstrip": false,
      "normalized": false,
      "special": true
    },
    {
      "id": 8,
      "content": "</think>",
      "single_word": false,
      "lstrip": false,
      "rstrip": false,
      "normalized": false,
      "special": true
    }
  ],
  "normalizer": {
    "type": "Sequence",
    "normalizers": []
  },
  "pre_tokenizer": {
    "type": "Sequence",
    "pretokenizers": [
      {
        "type": "Split",
        "pattern": {
          "String": "\\p{N}{1,3}"
        },
        "behavior": "Isolated",
        "invert": false
      },
      {
        "type": "Split",
        "pattern": {
          "String": "[\\u4e00-\\u9fa5\\u3040-\\u309f\\u30a0-\\u30ff]+"
        },
        "behavior": "Isolated",
        "invert": false
      },
      {
        "type": "Split",
        "pattern": {
          "String": "[!\\\"#$%&'()*+,\\-./:;<=>?@\\[\\]\\\\^_`{|}~][A-Za-z]+|[^\\r\\n\\p{L}\\p{P}\\p{S}]?[\\p{L}\\p{M}]+| ?[\\p{P}\\p{S}]+[\\r\\n]*|\\s*[\\r\\n]+|\\s+(?!\\S)|\\s+"
        },
        "behavior": "Isolated",
        "invert": false
      },
      {
        "type": "ByteLevel",
        "add_prefix_space": false,
        "trim_offsets": true,
        "use_regex": false
      }
    ]
  },
  "post_processor": {
    "type": "ByteLevel",
    "add_prefix_space": true,
    "trim_offsets": false,
    "use_regex": true
  },
  "decoder": {
    "type": "ByteLevel",
    "add_prefix_space": true,
    "trim_offsets": true,
    "use_regex": true
  },
  "model": {
    "type": "BPE",
    "dropout": null,
    "unk_token": "<|unk|>",
    "continuing_subword_prefix": null,
    "end_of_word_suffix": null,
    "fuse_unk": false,
    "byte_fallback": true,
    "ignore_merges": false,
    "vocab": {
      "<|pad|>": 0,
      "<|unk|>": 1,
      "<｜begin▁of▁sentence｜>": 2,
      "<｜end▁of▁sentence｜>": 3,
      "<｜User｜>": 4,
      "<｜Assistant｜>": 5,
      "<｜latest_reminder｜>": 6,
      "<think>": 7,
      "</think>": 8,
      "!": 9,
      "\"": 10,
      "#": 11,
      "$": 12,
      "%": 13,
      "&": 14,
      "'": 15,
      "(": 16,
      ")": 17,
      "*": 18,
      "+": 19,
      ",": 20,
      "-": 21,
      ".": 22,
      "/": 23,
      "0": 24,
      "1": 25,
      "2": 26,
      "3": 27,
      "4": 28,
      "5": 29,
      "6": 30,
      "7": 31,
      "8": 32,
      "9": 33,
      ":": 34,
      ";": 35,
      "<": 36,
      "=": 37,
      ">": 38,
      "?": 39,
      "@": 40,
      "A": 41,
      "B": 42,
      "C": 43,
      "D": 44,
      "E": 45,
      "F": 46,
      "G": 47,
      "H": 48,
      "I": 49,
      "J": 50,
      "K": 51,
      "L": 52,
      "M": 53,
      "N": 54,
      "O": 55,
      "P": 56,
      "Q": 57,
      "R": 58,
      "S": 59,
      "T": 60,
      "U": 61,
      "V": 62,
      "W": 63,
      "X": 64,
      "Y": 65,
      "Z": 66,
      "[": 67,
      "\\": 68,
      "]": 69,
      "^": 70,
      "_": 71,
      "`": 72,
      "a": 73,
      "b": 74,
      "c": 75,
      "d": 76,
      "e": 77,
      "f": 78,
      "g": 79,
      "h": 80,
      "i": 81,
      "j": 82,
      "k": 83,
      "l": 84,
      "m": 85,
      "n": 86,
      "o": 87,
      "p": 88,
      "q": 89,
      "r": 90,
      "s": 91,
      "t": 92,
      "u": 93,
      "v": 94,
      "w": 95,
      "x": 96,
      "y": 97,
      "z": 98,
      "{": 99,
      "|": 100,
      "}": 101,
      "~": 102,
      "¡": 103,
      "¢": 104,
      "£": 105,
      "¤": 106,
      "¥": 107,
      "¦": 108,
      "§": 109,
      "¨": 110,
      "©": 111,
      "ª": 112,
      "«": 113,
      "¬": 114,
      "®": 115,
      "¯": 116,
      "°": 117,
      "±": 118,
      "²": 119,
      "³": 120,
      "´": 121,
      "µ": 122,
      "¶": 123,
      "·": 124,
      "¸": 125,
      "¹": 126,
      "º": 127,
      "»": 128,
      "¼": 129,
      "½": 130,
      "¾": 131,
      "¿": 132,
      "À": 133,
      "Á": 134,
      "Â": 135,
      "Ã": 136,
      "Ä": 137,
      "Å": 138,
      "Æ": 139,
      "Ç": 140,
      "È": 141,
      "É": 142,
      "Ê": 143,
      "Ë": 144,
      "Ì": 145,
      "Í": 146,
      "Î": 147,
      "Ï": 148,
      "Ð": 149,
      "Ñ": 150,
      "Ò": 151,
      "Ó": 152,
      "Ô": 153,
      "Õ": 154,
      "Ö": 155,
      "×": 156,
      "Ø": 157,
      "Ù": 158,
      "Ú": 159,
      "Û": 160,
      "Ü": 161,
      "Ý": 162,
      "Þ": 163,
      "ß": 164,
      "à": 165,
      "á": 166,
      "â": 167,
      "ã": 168,
      "ä": 169,
      "å": 170,
      "æ": 171,
      "ç": 172,
      "è": 173,
      "é": 174,
      "ê": 175,
      "ë": 176,
      "ì": 177,
      "í": 178,
      "î": 179,
      "ï": 180,
      "ð": 181,
      "ñ": 182,
      "ò": 183,
      "ó": 184,
      "ô": 185,
      "õ": 186,
      "ö": 187,
      "÷": 188,
      "ø": 189,
      "ù": 190,
      "ú": 191,
      "û": 192,
      "ü": 193,
      "ý": 194,
      "þ": 195,
      "ÿ": 196,
      "Ā": 197,
      "ā": 198,
      "Ă": 199,
      "ă": 200,
      "Ą": 201,
      "ą": 202,
      "Ć": 203,
      "ć": 204,
      "Ĉ": 205,
      "ĉ": 206,
      "Ċ": 207,
      "ċ": 208,
      "Č": 209,
      "č": 210,
      "Ď": 211,
      "ď": 212,
      "Đ": 213,
      "đ": 214,
      "Ē": 215,
      "ē": 216,
      "Ĕ": 217,
      "ĕ": 218,
      "Ė": 219,
      "ė": 220,
      "Ę": 221,
      "ę": 222,
      "Ě": 223,
      "ě": 224,
      "Ĝ": 225,
      "ĝ": 226,
      "Ğ": 227,
      "ğ": 228,
      "Ġ": 229,
      "ġ": 230,
      "Ģ": 231,
      "ģ": 232,
      "Ĥ": 233,
      "ĥ": 234,
      "Ħ": 235,
      "ħ": 236,
      "Ĩ": 237,
      "ĩ": 238,
      "Ī": 239,
      "ī": 240,
      "Ĭ": 241,
      "ĭ": 242,
      "Į": 243,
      "į": 244,
      "İ": 245,
      "ı": 246,
      "Ĳ": 247,
      "ĳ": 248,
      "Ĵ": 249,
      "ĵ": 250,
      "Ķ": 251,
      "ķ": 252,
      "ĸ": 253,
      "Ĺ": 254,
      "ĺ": 255,
      "Ļ": 256,
      "ļ": 257,
      "Ľ": 258,
      "ľ": 259,
      "Ŀ": 260,
      "ŀ": 261,
      "Ł": 262,
      "ł": 263,
      "Ń": 264,
      "eĠ": 265,
      "ä¸": 266,
      "ĠĠ": 267,
      "ï¼": 268,
      "sĠ": 269,
      "ãĢ": 270,
      "th": 271,
      "in": 272,
      "çļ": 273,
      "çļĦ": 274,
      "ï¼Į": 275,
      "er": 276,
      "äº": 277,
      "on": 278,
      "dĠ": 279,
      "an": 280,
      "tĠ": 281,
      "åı": 282,
      "åħ": 283,
      "en": 284,
      "æľ": 285,
      "ti": 286,
      ",Ġ": 287,
      "or": 288,
      "ä»": 289,
      "theĠ": 290,
      "ãĢĤ": 291,
      "al": 292,
      "ĠĠĠĠ": 293,
      "åĪ": 294,
      "å®": 295,
      "re": 296,
      "yĠ": 297,
      "ar": 298,
      "å¤": 299,
      "çĶ": 300,
      "ä½": 301,
      "fĠ": 302,
      "åĲ": 303,
      "ä¹": 304,
      "è¿": 305,
      "åľ": 306,
      "ç»": 307,
      "æĸ": 308,
      ".Ġ": 309,
      "oĠ": 310,
      "åĬ": 311,
      "æĺ": 312,
      "ofĠ": 313,
      "åĽ": 314,
      "ãĢģ": 315,
      "ing": 316,
      "st": 317,
      "at": 318,
      "tion": 319,
      "ou": 320,
      "ĊĊ": 321,
      "edĠ": 322,
      "åŃ": 323,
      "andĠ": 324,
      "æĪ": 325,
      "âĢ": 326,
      "è®": 327,
      "ic": 328,
      "aĠ": 329,
      "ro": 330,
      "es": 331,
      "è¯": 332,
      "å¹": 333,
      "ingĠ": 334,
      "æķ": 335,
      "åį": 336,
      "ä¸Ģ": 337,
      "toĠ": 338,
      "ä¼": 339,
      "æĺ¯": 340,
      "åº": 341,
      "èĢ": 342,
      "æĹ": 343,
      "inĠ": 344,
      "isĠ": 345,
      "å°": 346,
      "ac": 347,
      "è¡": 348,
      "æĿ": 349,
      "ä¸Ń": 350,
      "le": 351,
      "åĴ": 352,
      "erĠ": 353,
      "åĮ": 354,
      "éĩ": 355,
      "å¯": 356,
      "åľ¨": 357,
      "åĴĮ": 358,
      "æĢ": 359,
      "it": 360,
      "äºº": 361,
      "æľī": 362,
      "å¾": 363,
      "å¼": 364,
      "éĢ": 365,
      "çĽ": 366,
      "ä¸į": 367,
      "el": 368,
      "åĨ": 369,
      "alĠ": 370,
      "æī": 371,
      "esĠ": 372,
      "as": 373,
      "æ³": 374,
      "è§": 375,
      "om": 376,
      "orĠ": 377,
      "ä¸º": 378,
      "ec": 379,
      "å·": 380,
      "æĶ": 381,
      "ä»¥": 382,
      "èĥ": 383,
      "çİ": 384,
      "åĩ": 385,
      "å±": 386,
      "åĽ½": 387,
      "å¸": 388,
      "ç§": 389,
      "il": 390,
      "æ°": 391,
      "is": 392,
      "ĠĠĠĠĠĠĠĠ": 393,
      "ol": 394,
      "åŃ¦": 395,
      "ation": 396,
      "æł": 397,
      "æŃ": 398,
      "éĻ": 399,
      "è´": 400,
      "çī": 401,
      "æĬ": 402,
      "atĠ": 403,
      "çĶŁ": 404,
      "è¦": 405,
      "ur": 406,
      "å½": 407,
      "çĶ¨": 408,
      "am": 409,
      "ch": 410,
      "å¤§": 411,
      "çĲ": 412,
      "ãĢĢ": 413,
      "et": 414,
      "si": 415,
      "ä¹ĭ": 416,
      "æŀ": 417,
      "ä¿": 418,
      "èĩ": 419,
      "asĠ": 420,
      "åıĳ": 421,
      "ãĢĤĊ": 422,
      "di": 423,
      "Th": 424,
      "anĠ": 425,
      "æ³ķ": 426,
      "éĿ": 427,
      "ent": 428,
      "è¡Į": 429,
      "æµ": 430,
      "è¦ģ": 431,
      "èĥ½": 432,
      "äºĨ": 433,
      "åŁ": 434,
      "èµ": 435,
      "ow": 436,
      "æİ": 437,
      "çŃ": 438,
      "em": 439,
      "å¿": 440,
      "çĲĨ": 441,
      "ul": 442,
      "ri": 443,
      "å¹´": 444,
      "us": 445,
      "å¯¹": 446,
      "onĠ": 447,
      "éĹ": 448,
      "çº": 449,
      "åĮĸ": 450,
      "thĠ": 451,
      "äºİ": 452,
      "æĪĲ": 453,
      "20": 454,
      "æĢ§": 455,
      "ä¸ļ": 456,
      "åİ": 457,
      "ä½ľ": 458,
      "pl": 459,
      "pro": 460,
      "un": 461,
      "åı¯": 462,
      "é¢": 463,
      "æĸ¹": 464,
      "åĪĨ": 465,
      "con": 466,
      "ä¾": 467,
      "ab": 468,
      "enĠ": 469,
      "ex": 470,
      "éĥ": 471,
      ")Ġ": 472,
      "ä¼ļ": 473,
      "ç¨": 474,
      "å®ļ": 475,
      "mĠ": 476,
      "veĠ": 477,
      "ä¸Ĭ": 478,
      "åĳ": 479,
      "æĮ": 480,
      "æ²": 481,
      "ag": 482,
      "ä¸ª": 483,
      "æĹ¶": 484,
      "åħ¶": 485,
      "ä¸İ": 486,
      ".Ċ": 487,
      "ap": 488,
      "ä½ĵ": 489,
      "å®ŀ": 490,
      "è¾": 491,
      "de": 492,
      "lĠ": 493,
      "åľ°": 494,
      "èĢĮ": 495,
      "ä¸»": 496,
      "wh": 497,
      "ç«": 498,
      "åĩº": 499,
      "forĠ": 500,
      "ir": 501,
      "ad": 502,
      "res": 503,
      "ig": 504,
      "hĠ": 505,
      "os": 506,
      "wi": 507,
      "im": 508,
      "nĠ": 509,
      "entĠ": 510,
      "èĢħ": 511,
      "âĢľ": 512,
      "åĬ¨": 513,
      "âĢĿ": 514,
      "åĪ¶": 515,
      "éģ": 516,
      "åī": 517,
      "ç®": 518,
      "è¿Ľ": 519,
      "ver": 520,
      "æ±": 521,
      "åĲĪ": 522,
      "åĲĮ": 523,
      "ofĠtheĠ": 524,
      "çİ°": 525,
      "äº§": 526,
      "æĽ": 527,
      "--": 528,
      "thatĠ": 529,
      "qu": 530,
      "op": 531,
      "è¿Ļ": 532,
      "çŃī": 533,
      "æľ¬": 534,
      "çĤ": 535,
      "=Ġ": 536,
      "æı": 537,
      "å»": 538,
      ":Ġ": 539,
      "lyĠ": 540,
      "um": 541,
      "com": 542,
      "å·¥": 543,
      "ed": 544,
      "é«": 545,
      "å¦": 546,
      "èĤ": 547,
      "ationĠ": 548,
      "ç»ı": 549,
      "ç³": 550,
      "æį": 551,
      "TheĠ": 552,
      "tr": 553,
      "åĵ": 554,
      "åĬĽ": 555,
      "ç¬": 556,
      "æĭ": 557,
      "ç¤": 558,
      "æ¯": 559,
      "ç½": 560,
      "åºĶ": 561,
      "areĠ": 562,
      "æĸĩ": 563,
      "æķ°": 564,
      "åº¦": 565,
      "èĩª": 566,
      "éĺ": 567,
      "è¿ĩ": 568,
      "æīĢ": 569,
      "ä¹Ł": 570,
      "tic": 571,
      "è½": 572,
      "æĦ": 573,
      "åħ³": 574,
      "é«ĺ": 575,
      "å¥": 576,
      "å±ķ": 577,
      "çŁ": 578,
      "ç³»": 579,
      "æĸ°": 580,
      "æĥ": 581,
      "tionĠ": 582,
      "æĿ¥": 583,
      "ter": 584,
      "00": 585,
      "éĩį": 586,
      "çī©": 587,
      "åĪ°": 588,
      "id": 589,
      "for": 590,
      "ç©": 591,
      "æ°ĳ": 592,
      "su": 593,
      "ä¸ĭ": 594,
      "ãĢĢãĢĢ": 595,
      "kĠ": 596,
      "ma": 597,
      "se": 598,
      "åħ¨": 599,
      "å¤ļ": 600,
      "withĠ": 601,
      "ç¨ĭ": 602,
      "æķĻ": 603,
      "s,Ġ": 604,
      "leĠ": 605,
      "å¦Ĥ": 606,
      "oc": 607,
      "çĦ": 608,
      "çł": 609,
      "æ´": 610,
      "å»º": 611,
      "19": 612,
      "éĿ¢": 613,
      "å®¶": 614,
      "åħ¬": 615,
      "åıĬ": 616,
      "od": 617,
      "our": 618,
      ".ĊĊ": 619,
      "æĻ": 620,
      "æľº": 621,
      "å¢": 622,
      "æĶ¿": 623,
      "ĊĠĠĠĠĠĠĠĠ": 624,
      "éĢļ": 625,
      "èģ": 626,
      "æıĲ": 627,
      "åĢ": 628,
      "li": 629,
      "åŁº": 630,
      "ï¼ī": 631,
      "çķ": 632,
      "ç¬¬": 633,
      "çĽ¸": 634,
      "è®¾": 635,
      "åŃĲ": 636,
      "æ¸": 637,
      "ï¼Ī": 638,
      "æ¬": 639,
      "éĥ¨": 640,
      "é¡": 641,
      "éĩı": 642,
      "åĲİ": 643,
      "ceĠ": 644,
      "ha": 645,
      "per": 646,
      "**": 647,
      "éĽ": 648,
      "cl": 649,
      "ä¸ī": 650,
      "ĊĠĠĠĠ": 651,
      "ï¼ļ": 652,
      "byĠ": 653,
      "åĽł": 654,
      "ot": 655,
      "åĨħ": 656,
      "ç¡": 657,
      "éļ": 658,
      "äºĭ": 659,
      "ç§į": 660,
      "æĪĳ": 661,
      "çľ": 662,
      "æĪĸ": 663,
      "beĠ": 664,
      "ä»£": 665,
      "ff": 666,
      "sh": 667,
      "èµĦ": 668,
      "è·": 669,
      "å¾Ĺ": 670,
      "##": 671,
      "éķ": 672,
      "åĬł": 673,
      "uc": 674,
      "åıĳå±ķ": 675,
      "ä½¿": 676,
      "the": 677,
      "è°": 678,
      "oun": 679,
      "ç´": 680,
      "åĬ¡": 681,
      "æį®": 682,
      "ut": 683,
      "itĠ": 684,
      "åĪ©": 685,
      "ĉĉ": 686,
      "äºĮ": 687,
      "ä¿Ŀ": 688,
      "ne": 689,
      "ç»Ł": 690,
      "æŃ¤": 691,
      "og": 692,
      "ç¾": 693,
      "æĺİ": 694,
      "icĠ": 695,
      "str": 696,
      "ç®¡": 697,
      "e,Ġ": 698,
      "å¼ı": 699,
      "inĠtheĠ": 700,
      "è¶": 701,
      "sp": 702,
      "åģ": 703,
      "è§Ħ": 704,
      "èī": 705,
      "è®¡": 706,
      "ay": 707,
      "ç¤¾": 708,
      "éĹ´": 709,
      "çĻ": 710,
      "ateĠ": 711,
      "Âł": 712,
      "ereĠ": 713,
      "ç»ĵ": 714,
      "çī¹": 715,
      "åĿ": 716,
      "è¡¨": 717,
      "å¼Ģ": 718,
      "æĹ¥": 719,
      "åīį": 720,
      "è§£": 721,
      "æľŁ": 722,
      "ç±": 723,
      "åįģ": 724,
      "åħ¥": 725,
      "å¹¶": 726,
      "å°±": 727,
      "æľ¯": 728,
      "æŁ": 729,
      "çłĶ": 730,
      "be": 731,
      "å½ĵ": 732,
      "éľ": 733,
      "ä¿¡": 734,
      "å¿ĥ": 735,
      "æģ": 736,
      "æĿĥ": 737,
      "par": 738,
      "æĬĢ": 739,
      "fro": 740,
      "å¹³": 741,
      "æ°´": 742,
      "å¤ĸ": 743,
      "ä¹ī": 744,
      "ä»¬": 745,
      "ä»İ": 746,
      "me": 747,
      "10": 748,
      "æ²»": 749,
      "çĹ": 750,
      "and": 751,
      "-Ġ": 752,
      "çĶ±": 753,
      "arĠ": 754,
      "èĪ": 755,
      "çĶµ": 756,
      "ä»ĸ": 757,
      "ä¸ŃåĽ½": 758,
      "æ¶": 759,
      "çĽ®": 760,
      "é£": 761,
      "fromĠ": 762,
      "æº": 763,
      "no": 764,
      "2Ġ": 765,
      "ityĠ": 766,
      "ç«ĭ": 767,
      "å¸Ĥ": 768,
      "å½¢": 769,
      "åŀ": 770,
      "çĤ¹": 771,
      "é¢ĺ": 772,
      "æľĪ": 773,
      "s.Ġ": 774,
      "sĠofĠ": 775,
      "æłĩ": 776,
      "æĦı": 777,
      "pĠ": 778,
      "ãĢĬ": 779,
      "ãĢĭ": 780,
      "æŀĦ": 781,
      "è´¨": 782,
      "ç©¶": 783,
      "çĸ": 784,
      "ang": 785,
      "1Ġ": 786,
      "åĮº": 787,
      "ç¤¾ä¼ļ": 788,
      "ç§ĳ": 789,
      "gr": 790,
      "owĠ": 791,
      "æľĢ": 792,
      "åıĺ": 793,
      "å°Ĩ": 794,
      "por": 795,
      "çĦ¶": 796,
      "wor": 797,
      "ht": 798,
      "æ¨": 799,
      "ud": 800,
      "éķ¿": 801,
      "ä½į": 802,
      "åħ·": 803,
      "ç¥": 804,
      "ate": 805,
      "å§": 806,
      "ta": 807,
      "çŁ¥": 808,
      "æ¡": 809,
      "sĠandĠ": 810,
      "ĊãĢĢãĢĢ": 811,
      "wasĠ": 812,
      "thisĠ": 813,
      "èĬ": 814,
      "æĽ´": 815,
      "ï¼Ľ": 816,
      "åİŁ": 817,
      "å°ı": 818,
      "æŃ£": 819,
      "çłĶç©¶": 820,
      "ect": 821,
      "æķĪ": 822,
      "åĵģ": 823,
      "éĩĳ": 824,
      "ä»¶": 825,
      "ç¼": 826,
      "æ±Ĥ": 827,
      "åı¯ä»¥": 828,
      "éħ": 829,
      "all": 830,
      ",ĠandĠ": 831,
      "//": 832,
      "èĭ": 833,
      "te": 834,
      "æ·": 835,
      "è®º": 836,
      "In": 837,
      "åħ±": 838,
      "è¨": 839,
      "ç»Ħ": 840,
      ";Ġ": 841,
      "åĲĳ": 842,
      "ouĠ": 843,
      "chĠ": 844,
      "eĠofĠ": 845,
      "åŀĭ": 846,
      "èĲ": 847,
      "bu": 848,
      "canĠ": 849,
      "ç±»": 850,
      "æµİ": 851,
      "ce": 852,
      "oo": 853,
      "éľĢ": 854,
      "å¯¼": 855,
      "å¼º": 856,
      "$Ġ": 857,
      "éģĵ": 858,
      "ear": 859,
      "æŀľ": 860,
      "å¸¸": 861,
      "wĠ": 862,
      "éĹ®": 863,
      "çĿ": 864,
      "ra": 865,
      "éª": 866,
      "end": 867,
      "ä¸Ģä¸ª": 868,
      "å®ī": 869,
      "åĲĦ": 870,
      ";Ċ": 871,
      "æºĲ": 872,
      "è¢": 873,
      "æ®": 874,
      "ourĠ": 875,
      "vi": 876,
      "bl": 877,
      "ç»ıæµİ": 878,
      "æĥħ": 879,
      "therĠ": 880,
      "æĮĩ": 881,
      "è¿Ľè¡Į": 882,
      "èĤ²": 883,
      "ç²": 884,
      "æ´»": 885,
      "ass": 886,
      "ä»»": 887,
      "æ¯Ķ": 888,
      ".ĠTheĠ": 889,
      "ä½Ĩ": 890,
      "----": 891,
      "haveĠ": 892,
      "atedĠ": 893,
      "comp": 894,
      "éĥ½": 895,
      "æĶ¹": 896,
      "ä¼ł": 897,
      "æĬĢæľ¯": 898,
      "ãĢĤĊĊ": 899,
      "æĮģ": 900,
      "æµģ": 901,
      "y,Ġ": 902,
      "ati": 903,
      "ob": 904,
      "toĠtheĠ": 905,
      "æĹł": 906,
      "åľº": 907,
      "æĢĿ": 908,
      "po": 909,
      "å£": 910,
      "èµ·": 911,
      "å¤©": 912,
      "ä¸ĸ": 913,
      "ph": 914,
      "åĽĽ": 915,
      "form": 916,
      "*Ġ": 917,
      "vel": 918,
      "ç¦": 919,
      "ichĠ": 920,
      "allĠ": 921,
      "èĻ": 922,
      ".ĠI": 923,
      "è¯Ĩ": 924,
      "ersĠ": 925,
      "è®¤": 926,
      "åĳĺ": 927,
      "æĿ¡": 928,
      "äºĽ": 929,
      "notĠ": 930,
      "we": 931,
      "æ¨¡": 932,
      "0Ġ": 933,
      "æİ¥": 934,
      "å¢ŀ": 935,
      "è¢«": 936,
      "rec": 937,
      "ç¡®": 938,
      "é¦": 939,
      "éĢł": 940,
      "201": 941,
      "tim": 942,
      "åĻ": 943,
      "åĪĽ": 944,
      "æľį": 945,
      "youĠ": 946,
      "int": 947,
      "å¤Ħ": 948,
      "etĠ": 949,
      "è¿Ĳ": 950,
      "éĶ": 951,
      "èĩ³": 952,
      "èį": 953,
      "ureĠ": 954,
      "èĦ": 955,
      "äº¤": 956,
      "Ġ(": 957,
      "ä¼ģ": 958,
      "ldĠ": 959,
      "ft": 960,
      "ment": 961,
      "pe": 962,
      "fi": 963,
      "whichĠ": 964,
      "åķ": 965,
      "åŃĺ": 966,
      "è°ĥ": 967,
      "åĸ": 968,
      "åĲį": 969,
      "éĵ": 970,
      "fin": 971,
      "ess": 972,
      "ä»·": 973,
      "dis": 974,
      "âĢĻ": 975,
      "åıĹ": 976,
      "ç®¡çĲĨ": 977,
      "ç½ĳ": 978,
      "ev": 979,
      "éĹ®é¢ĺ": 980,
      "åıĸ": 981,
      "soĠ": 982,
      "çİ¯": 983,
      "è¯ģ": 984,
      "outĠ": 985,
      "av": 986,
      "éĤ": 987,
      "æ¬¡": 988,
      "åĪĻ": 989,
      "pres": 990,
      "æķ°æį®": 991,
      "åįķ": 992,
      "è½¬": 993,
      "sc": 994,
      "iz": 995,
      "å¥½": 996,
      "ä¼ģä¸ļ": 997,
      "åĽ½å®¶": 998,
      "è£": 999,
      "act": 1000,
      "åı¸": 1001,
      "èĮ": 1002,
      "çĤº": 1003,
      "æĢģ": 1004,
      "AĠ": 1005,
      "ä¾Ľ": 1006,
      "è¯´": 1007,
      "ov": 1008,
      "è¥": 1009,
      "çĹħ": 1010,
      "åĻ¨": 1011,
      "çĪ": 1012,
      "200": 1013,
      "der": 1014,
      "ç³»ç»Ł": 1015,
      ")Ċ": 1016,
      "duc": 1017,
      "irĠ": 1018,
      "å·²": 1019,
      "he": 1020,
      "æģ¯": 1021,
      "åĨ³": 1022,
      "éĢļè¿ĩ": 1023,
      "éĻ¢": 1024,
      "3Ġ": 1025,
      "æĶ¶": 1026,
      "åı²": 1027,
      "éĿŀ": 1028,
      "è·¯": 1029,
      "\"Ġ": 1030,
      "ingĠtheĠ": 1031,
      "è§Ĥ": 1032,
      "åħĥ": 1033,
      "èī²": 1034,
      "gi": 1035,
      ".ĠTh": 1036,
      "çİĩ": 1037,
      "oneĠ": 1038,
      "è¿ĺ": 1039,
      "sy": 1040,
      "xĠ": 1041,
      "åĩĨ": 1042,
      "é©": 1043,
      "åĢ¼": 1044,
      "äºĶ": 1045,
      "umb": 1046,
      "ç´ł": 1047,
      "gĠ": 1048,
      "lin": 1049,
      "allyĠ": 1050,
      "æĸ½": 1051,
      "ableĠ": 1052,
      "çĬ": 1053,
      "èĢĥ": 1054,
      "_{": 1055,
      "ç¾İ": 1056,
      "keĠ": 1057,
      "es,Ġ": 1058,
      "å¢ĥ": 1059,
      "åıį": 1060,
      "1.": 1061,
      "weĠ": 1062,
      "ä¹ł": 1063,
      "enc": 1064,
      "edĠtoĠ": 1065,
      "lec": 1066,
      "5Ġ": 1067,
      "åĽ¾": 1068,
      "âĢĶ": 1069,
      "æİ¨": 1070,
      "ayĠ": 1071,
      "çģ": 1072,
      "ä¸¤": 1073,
      "èº": 1074,
      "cont": 1075,
      "åħļ": 1076,
      "icalĠ": 1077,
      "éĽĨ": 1078,
      "ouldĠ": 1079,
      "åħĪ": 1080,
      "å·¥ä½ľ": 1081,
      "æĪĺ": 1082,
      "å½±": 1083,
      "illĠ": 1084,
      "çķĮ": 1085,
      "4Ġ": 1086,
      "èģĶ": 1087,
      "æĤ": 1088,
      "é¡¹": 1089,
      "çĿĢ": 1090,
      "ure": 1091,
      "ä¸ĵ": 1092,
      "è±": 1093,
      "antĠ": 1094,
      "æķĻèĤ²": 1095,
      "2.": 1096,
      "igh": 1097,
      "æµĭ": 1098,
      "çº¿": 1099,
      "å¿ħ": 1100,
      "åŁİ": 1101,
      "åĮħ": 1102,
      "man": 1103,
      "è¥¿": 1104,
      "fr": 1105,
      "å¾ĭ": 1106,
      "ä½ķ": 1107,
      "åŃ¦çĶŁ": 1108,
      "éªĮ": 1109,
      "val": 1110,
      "æ»": 1111,
      "æľª": 1112,
      "å®¹": 1113,
      "oreĠ": 1114,
      "çĥ": 1115,
      "åķĨ": 1116,
      "ory": 1117,
      "çº§": 1118,
      "è¨Ģ": 1119,
      "ser": 1120,
      "æ¡Ī": 1121,
      "IĠ": 1122,
      "èº«": 1123,
      "âĢĵ": 1124,
      "ticĠ": 1125,
      "æł·": 1126,
      "åį³": 1127,
      "éĻħ": 1128,
      "hasĠ": 1129,
      "ell": 1130,
      "ari": 1131,
      "enceĠ": 1132,
      "fl": 1133,
      "edĠbyĠ": 1134,
      "é¢Ĩ": 1135,
      "18": 1136,
      "è¾ĥ": 1137,
      "æ£": 1138,
      "åŃĹ": 1139,
      "oug": 1140,
      "ant": 1141,
      "co": 1142,
      "è¾¾": 1143,
      "åĪ«": 1144,
      "ifĠ": 1145,
      "enti": 1146,
      "min": 1147,
      "æł¹": 1148,
      "éĴ": 1149,
      "mentĠ": 1150,
      "æĢ»": 1151,
      "æµ·": 1152,
      "æĶ¾": 1153,
      "Ch": 1154,
      "pre": 1155,
      "æł¼": 1156,
      "est": 1157,
      "ä¾ĭ": 1158,
      "ç®Ĺ": 1159,
      "æĪĳä»¬": 1160,
      "ty": 1161,
      "å¤į": 1162,
      "pu": 1163,
      "åĨľ": 1164,
      "æŃ¥": 1165,
      "åŁŁ": 1166,
      "åĬŁ": 1167,
      "tur": 1168,
      "è¯¥": 1169,
      "ç¤º": 1170,
      "çİĭ": 1171,
      "ä½¿çĶ¨": 1172,
      "estĠ": 1173,
      "æĬ¤": 1174,
      "èĬĤ": 1175,
      "æķ´": 1176,
      "ä¸»ä¹ī": 1177,
      "'sĠ": 1178,
      "are": 1179,
      "cre": 1180,
      "ageĠ": 1181,
      "å®Į": 1182,
      "å°ĳ": 1183,
      "inter": 1184,
      "ÂłÂł": 1185,
      "ä¸»è¦ģ": 1186,
      "èŀ": 1187,
      "unc": 1188,
      "ist": 1189,
      ");": 1190,
      "é»": 1191,
      "æĥ³": 1192,
      "éĩįè¦ģ": 1193,
      "==": 1194,
      "St": 1195,
      "ni": 1196,
      "çĽĬ": 1197,
      "åįĹ": 1198,
      "arg": 1199,
      "..": 1200,
      "æĸĻ": 1201,
      "willĠ": 1202,
      "ä¹¦": 1203,
      "æĶ¯": 1204,
      "stĠ": 1205,
      "é£İ": 1206,
      "åĳ½": 1207,
      "åı£": 1208,
      "ateg": 1209,
      "ä¿¡æģ¯": 1210,
      "åıĤ": 1211,
      "åĭ": 1212,
      "äººæ°ĳ": 1213,
      "sĠtoĠ": 1214,
      "æİ§": 1215,
      "èİ": 1216,
      "å¼ķ": 1217,
      "æ¢": 1218,
      ",ĠtheĠ": 1219,
      "æķħ": 1220,
      "ener": 1221,
      "pos": 1222,
      "éĿ©": 1223,
      "12": 1224,
      "æ°Ķ": 1225,
      "Con": 1226,
      "å®ĥ": 1227,
      "åİĨ": 1228,
      "çħ": 1229,
      "ç¥ŀ": 1230,
      "ext": 1231,
      "éľĢè¦ģ": 1232,
      "aryĠ": 1233,
      "theirĠ": 1234,
      "rig": 1235,
      "åĵį": 1236,
      "eĠtheĠ": 1237,
      "Re": 1238,
      "pr": 1239,
      "=\"": 1240,
      "å±±": 1241,
      "å¤ĩ": 1242,
      "è¿ĩç¨ĭ": 1243,
      "ä½İ": 1244,
      "èŀį": 1245,
      "0.": 1246,
      "çĽ´": 1247,
      "æĦŁ": 1248,
      "tĠofĠ": 1249,
      "ä¾Ŀ": 1250,
      "æ¸ħ": 1251,
      "æ³¨": 1252,
      "æĸĩåĮĸ": 1253,
      "ther": 1254,
      "æ·±": 1255,
      "æĺĵ": 1256,
      "æľįåĬ¡": 1257,
      "æĸŃ": 1258,
      "å»ºè®¾": 1259,
      "è¯¾": 1260,
      "ç©º": 1261,
      "æĸ¹æ³ķ": 1262,
      "port": 1263,
      "è®®": 1264,
      "bo": 1265,
      "ind": 1266,
      "ple": 1267,
      "èĮĥ": 1268,
      "è¯Ń": 1269,
      "Ġ=Ġ": 1270,
      "itsĠ": 1271,
      "å¸Ī": 1272,
      "çŃĸ": 1273,
      "ç»´": 1274,
      "11": 1275,
      "ä¸ľ": 1276,
      "éĹ¨": 1277,
      ".ĠA": 1278,
      "ç»Ĩ": 1279,
      "éĢī": 1280,
      "col": 1281,
      "åºľ": 1282,
      "onĠtheĠ": 1283,
      "æĸ¹éĿ¢": 1284,
      "numb": 1285,
      "eseĠ": 1286,
      "å¸ĥ": 1287,
      "æ¼": 1288,
      "æīĭ": 1289,
      "æŀĲ": 1290,
      "å¾·": 1291,
      "ä¸įåĲĮ": 1292,
      "ï¼Įåľ¨": 1293,
      "dat": 1294,
      "derĠ": 1295,
      "å±Ĥ": 1296,
      "ç²¾": 1297,
      "èĩ´": 1298,
      "+Ġ": 1299,
      "mod": 1300,
      "seĠ": 1301,
      "ä¸ŃçļĦ": 1302,
      "åıĪ": 1303,
      "</": 1304,
      "åħī": 1305,
      "ä¼ĺ": 1306,
      "ack": 1307,
      "ach": 1308,
      "ult": 1309,
      "anc": 1310,
      "to": 1311,
      "idĠ": 1312,
      "è§Ĩ": 1313,
      "æ®µ": 1314,
      "åĮĹ": 1315,
      "åı°": 1316,
      "å½±åĵį": 1317,
      "Wh": 1318,
      "wereĠ": 1319,
      "åħĭ": 1320,
      "#Ġ": 1321,
      "æł¡": 1322,
      "å®ŀçİ°": 1323,
      "comm": 1324,
      "æĸ¼": 1325,
      "ç¡Ģ": 1326,
      "åħ·æľī": 1327,
      "ain": 1328,
      "çĦ¡": 1329,
      "åŁºç¡Ģ": 1330,
      "åħ¬åı¸": 1331,
      "èĥ½åĬĽ": 1332,
      "å¾Ī": 1333,
      "éĻ©": 1334,
      "sĠinĠ": 1335,
      "è¿ĳ": 1336,
      "åħ»": 1337,
      "éŁ": 1338,
      "omeĠ": 1339,
      "èĳ": 1340,
      "çº¦": 1341,
      "3.": 1342,
      "è«": 1343,
      "stem": 1344,
      "nam": 1345,
      "ategory": 1346,
      "è±¡": 1347,
      "ffer": 1348,
      "``": 1349,
      "sion": 1350,
      "ĠandĠ": 1351,
      "ĊĠĠ": 1352,
      "éĩĮ": 1353,
      "ç½®": 1354,
      "pleĠ": 1355,
      "ans": 1356,
      "moreĠ": 1357,
      "|Ġ": 1358,
      "tw": 1359,
      "tiveĠ": 1360,
      "çİ¯å¢ĥ": 1361,
      "$\\": 1362,
      "pt": 1363,
      "åĤ": 1364,
      "16": 1365,
      "åĶ": 1366,
      "alsoĠ": 1367,
      "anceĠ": 1368,
      "otherĠ": 1369,
      "å¸Ĥåľº": 1370,
      "ä¸Ńï¼Į": 1371,
      "Category": 1372,
      "fe": 1373,
      "æŁ¥": 1374,
      "func": 1375,
      "olog": 1376,
      "ç¢": 1377,
      "è®°": 1378,
      "åľŁ": 1379,
      "åĨĽ": 1380,
      "çľĭ": 1381,
      "rel": 1382,
      "Category:": 1383,
      "åıª": 1384,
      "éĻ¤": 1385,
      "aseĠ": 1386,
      "æł¸": 1387,
      "essĠ": 1388,
      "æĺ¾": 1389,
      "åİ»": 1390,
      "ousĠ": 1391,
      "åįĩ": 1392,
      "15": 1393,
      "è¯Ħ": 1394,
      "çĶŁäº§": 1395,
      "çª": 1396,
      "useĠ": 1397,
      "è´£": 1398,
      "éĩĩ": 1399,
      "cor": 1400,
      "ç»ĩ": 1401,
      "æīį": 1402,
      "æ²¡": 1403,
      "æĬ¥": 1404,
      "éĻĲ": 1405,
      "æĬķ": 1406,
      "sĊ": 1407,
      "åħ³ç³»": 1408,
      "entsĠ": 1409,
      "),Ġ": 1410,
      "åĪĨæŀĲ": 1411,
      "åĪĹ": 1412,
      "ialĠ": 1413,
      "yourĠ": 1414,
      "butĠ": 1415,
      "ä¸Ķ": 1416,
      "theyĠ": 1417,
      "è®¾è®¡": 1418,
      "ĊĠĠĠĠĠĠĠĠĠĠĠĠ": 1419,
      "åĨµ": 1420,
      "æĽ°": 1421,
      "ï¼ĮèĢĮ": 1422,
      "çĻ½": 1423,
      "vid": 1424,
      "éĢŁ": 1425,
      "èĲ¥": 1426,
      "å§ĭ": 1427,
      "å¿µ": 1428,
      "åĪĴ": 1429,
      "æŀģ": 1430,
      "åºı": 1431,
      "^{": 1432,
      "èģĮ": 1433,
      "æī¿": 1434,
      "edĠinĠ": 1435,
      "equ": 1436,
      "è¯ķ": 1437,
      "åĸĦ": 1438,
      "achĠ": 1439,
      "å¹¿": 1440,
      "ueĠ": 1441,
      "æıĲä¾Ľ": 1442,
      "è¶³": 1443,
      "ä»¥åıĬ": 1444,
      "bet": 1445,
      "æ¶Ī": 1446,
      "åºĶçĶ¨": 1447,
      "éħį": 1448,
      "sionĠ": 1449,
      "æĸ¯": 1450,
      "è§Ħå®ļ": 1451,
      "br": 1452,
      "ke": 1453,
      "çĬ¶": 1454,
      "å®īåħ¨": 1455,
      "æĴ": 1456,
      "åı¯èĥ½": 1457,
      "cur": 1458,
      "ç»Ń": 1459,
      "ï¼Įå¹¶": 1460,
      "mat": 1461,
      "èħ": 1462,
      "è´¹": 1463,
      "isĠaĠ": 1464,
      "æķĻåŃ¦": 1465,
      "åŃ¦ä¹ł": 1466,
      "åįı": 1467,
      "è§ģ": 1468,
      "if": 1469,
      "ç§°": 1470,
      "åĪ¶åº¦": 1471,
      "mo": 1472,
      "éĢĤ": 1473,
      "ç§ĳåŃ¦": 1474,
      ">Ġ": 1475,
      "çĽĳ": 1476,
      "sĠareĠ": 1477,
      "è¦ģæ±Ĥ": 1478,
      "ard": 1479,
      "des": 1480,
      "å²": 1481,
      "sol": 1482,
      "ç»Ħç»ĩ": 1483,
      "Ex": 1484,
      "èª": 1485,
      "æĹı": 1486,
      "low": 1487,
      "éĺ²": 1488,
      "up": 1489,
      "æĭ¬": 1490,
      "ĠĠĠĠĠĠĠĠĠĠĠĠĠĠĠĠ": 1491,
      "çĭ": 1492,
      "out": 1493,
      "ys": 1494,
      "incl": 1495,
      "å¤±": 1496,
      "çĲĥ": 1497,
      "å¸¦": 1498,
      "æĻº": 1499,
      "ostĠ": 1500,
      "åĳĬ": 1501,
      "esĠofĠ": 1502,
      "è¡Ģ": 1503,
      "äºĴ": 1504,
      "ç»ĵæŀĦ": 1505,
      "spec": 1506,
      "eng": 1507,
      "åı·": 1508,
      "ä½ľçĶ¨": 1509,
      "ä½ľä¸º": 1510,
      "åĽŀ": 1511,
      "ech": 1512,
      "æĶ¿åºľ": 1513,
      "ç§¯": 1514,
      "ast": 1515,
      "äºī": 1516,
      "forĠtheĠ": 1517,
      "iĠ": 1518,
      "Pro": 1519,
      "adĠ": 1520,
      "bas": 1521,
      "kn": 1522,
      "ownĠ": 1523,
      "ail": 1524,
      "ãĢĤĠ": 1525,
      "âĢĻsĠ": 1526,
      "åŁºæľ¬": 1527,
      "ç»Ļ": 1528,
      "ip": 1529,
      "ï¼Įè¿Ļ": 1530,
      "Ċĉĉ": 1531,
      "__": 1532,
      "åģļ": 1533,
      "æ£Ģ": 1534,
      "æĸ¹å¼ı": 1535,
      "é¢Ħ": 1536,
      "åı¤": 1537,
      "them": 1538,
      "fir": 1539,
      "ï¼Įä½Ĩ": 1540,
      "æĪĳåĽ½": 1541,
      "çľŁ": 1542,
      "æĬĬ": 1543,
      "åĦ": 1544,
      "åħŃ": 1545,
      "elĠ": 1546,
      ".ĠS": 1547,
      "æ¯ı": 1548,
      "æĵ": 1549,
      "æ³ķå¾ĭ": 1550,
      "è¿°": 1551,
      "sec": 1552,
      "s.": 1553,
      "sub": 1554,
      "ä¸Ģç§į": 1555,
      "åł": 1556,
      "--------": 1557,
      "ve": 1558,
      "oughĠ": 1559,
      "æ²¡æľī": 1560,
      "è¡Įä¸º": 1561,
      "å±Ģ": 1562,
      "æ¿": 1563,
      "ä»Ĭ": 1564,
      "usĠ": 1565,
      "ï¼Įä¸į": 1566,
      "èı": 1567,
      "17": 1568,
      "çĲĨè®º": 1569,
      "ill": 1570,
      "oundĠ": 1571,
      "å·ŀ": 1572,
      "å¾ģ": 1573,
      "SĠ": 1574,
      "ç«ł": 1575,
      "åħ¶ä»ĸ": 1576,
      "åĥ": 1577,
      "åĬ©": 1578,
      "éĻį": 1579,
      "åįİ": 1580,
      "åĨį": 1581,
      "åĪĩ": 1582,
      "çĽ¸åħ³": 1583,
      "åĳ¨": 1584,
      "å±ŀ": 1585,
      "beenĠ": 1586,
      "sig": 1587,
      "æĿĲ": 1588,
      "iti": 1589,
      "åĮ»": 1590,
      "çĸĹ": 1591,
      "å¡": 1592,
      "ble": 1593,
      "6Ġ": 1594,
      "work": 1595,
      "åĬ¿": 1596,
      "4.": 1597,
      "çĻ¾": 1598,
      "ä¹Ī": 1599,
      "åĮħæĭ¬": 1600,
      "æħ": 1601,
      "ä¿®": 1602,
      "åİĨåı²": 1603,
      "tionsĠ": 1604,
      "åĲĮæĹ¶": 1605,
      "ãĢĤåľ¨": 1606,
      "over": 1607,
      "æ¦": 1608,
      "publ": 1609,
      "isĠtheĠ": 1610,
      "æ¹": 1611,
      "au": 1612,
      "é£Ł": 1613,
      "é©¬": 1614,
      "differ": 1615,
      "struc": 1616,
      "]Ġ": 1617,
      "dr": 1618,
      "ĊĠ": 1619,
      "è½¦": 1620,
      "ä½ĵç³»": 1621,
      "ub": 1622,
      "retur": 1623,
      "ï¼Įæĺ¯": 1624,
      "èµĦæºĲ": 1625,
      "}Ġ": 1626,
      "stud": 1627,
      "ongĠ": 1628,
      "ä¸ĸçķĮ": 1629,
      "pri": 1630,
      "é¦ĸ": 1631,
      "ãĢĮ": 1632,
      "æĿĳ": 1633,
      "rit": 1634,
      "do": 1635,
      "pa": 1636,
      "å¤ª": 1637,
      "8Ġ": 1638,
      "éĸ": 1639,
      "ever": 1640,
      "åĪĽæĸ°": 1641,
      "##Ġ": 1642,
      "}{": 1643,
      "éĥ¨åĪĨ": 1644,
      "è´¢": 1645,
      "An": 1646,
      ".ĠH": 1647,
      "ustĠ": 1648,
      "å®¡": 1649,
      "umĠ": 1650,
      "requ": 1651,
      "ï¼Ł": 1652,
      "ameĠ": 1653,
      "åŁ¹": 1654,
      "ound": 1655,
      "å°±æĺ¯": 1656,
      "å½¢æĪĲ": 1657,
      "çķ¥": 1658,
      "è¶Ĭ": 1659,
      "ĠĠĠ": 1660,
      "portĠ": 1661,
      "åĨħå®¹": 1662,
      "thanĠ": 1663,
      "includ": 1664,
      "ectĠ": 1665,
      "13": 1666,
      "twoĠ": 1667,
      "æĪ·": 1668,
      "âĢ¢": 1669,
      "ç¦»": 1670,
      "çŁ¥è¯Ĩ": 1671,
      "ç»ľ": 1672,
      "æĹ¶éĹ´": 1673,
      "Com": 1674,
      "iv": 1675,
      "å£«": 1676,
      "åĽłæŃ¤": 1677,
      "mar": 1678,
      "ationĠofĠ": 1679,
      "åŃĺåľ¨": 1680,
      "ens": 1681,
      "éļı": 1682,
      "éļ¾": 1683,
      "ä¸ĩ": 1684,
      "Â·": 1685,
      "frac": 1686,
      "å·±": 1687,
      "æĥħåĨµ": 1688,
      "cri": 1689,
      "ful": 1690,
      "å¯Ĩ": 1691,
      "åĪĿ": 1692,
      "çħ§": 1693,
      "å¤ĦçĲĨ": 1694,
      "ãĢį": 1695,
      "ä»ħ": 1696,
      "14": 1697,
      "ish": 1698,
      "å°Ķ": 1699,
      "ï¼Įä»¥": 1700,
      "æıĲé«ĺ": 1701,
      "system": 1702,
      "get": 1703,
      "}ĊĊ": 1704,
      "InĠ": 1705,
      "aceĠ": 1706,
      "suchĠ": 1707,
      "mayĠ": 1708,
      "æ¥": 1709,
      "ew": 1710,
      "åĿĩ": 1711,
      "25": 1712,
      "iesĠ": 1713,
      "è®©": 1714,
      "ãĢĤè¿Ļ": 1715,
      "äº§åĵģ": 1716,
      "ationsĠ": 1717,
      "æł¹æį®": 1718,
      "En": 1719,
      "æłĩåĩĨ": 1720,
      "å¾Ģ": 1721,
      "set": 1722,
      "oryĠ": 1723,
      "ellĠ": 1724,
      "ue": 1725,
      "çĮ": 1726,
      "org": 1727,
      "ity": 1728,
      "eff": 1729,
      "age": 1730,
      "amĠ": 1731,
      "å®³": 1732,
      "Ċĉ": 1733,
      "åĽ´": 1734,
      "å®ĺ": 1735,
      "çľģ": 1736,
      "theseĠ": 1737,
      "whenĠ": 1738,
      "andĠtheĠ": 1739,
      "}\\": 1740,
      "ç¬¬ä¸Ģ": 1741,
      "éĺ¶": 1742,
      "newĠ": 1743,
      "çŁ³": 1744,
      "gre": 1745,
      "æ´»åĬ¨": 1746,
      "åĩı": 1747,
      "ref": 1748,
      "hisĠ": 1749,
      "æİ§åĪ¶": 1750,
      "ä¿ĿæĬ¤": 1751,
      "bec": 1752,
      "vari": 1753,
      "èİ·": 1754,
      ")Ġ{": 1755,
      "resp": 1756,
      "able": 1757,
      "æĮī": 1758,
      "æİĴ": 1759,
      "ç½ĳç»ľ": 1760,
      "ightĠ": 1761,
      "èĹ": 1762,
      "thr": 1763,
      "fol": 1764,
      "èĥŀ": 1765,
      "cent": 1766,
      "åİĭ": 1767,
      "æĪĲä¸º": 1768,
      "ç¾¤": 1769,
      "åĬ³": 1770,
      "lo": 1771,
      "æĪĸèĢħ": 1772,
      "åħ«": 1773,
      "è·µ": 1774,
      "æ¬¾": 1775,
      ")ĊĊ": 1776,
      "aboutĠ": 1777,
      "loc": 1778,
      "mon": 1779,
      "å·®": 1780,
      "astĠ": 1781,
      "èŃ": 1782,
      "row": 1783,
      "éł": 1784,
      "withĠtheĠ": 1785,
      "å¿«": 1786,
      "çĨ": 1787,
      ".ĠInĠ": 1788,
      "199": 1789,
      "ä¾¿": 1790,
      "å¯¹äºİ": 1791,
      "anyĠ": 1792,
      "100": 1793,
      "é¡»": 1794,
      "å¹²": 1795,
      "åıĳçĶŁ": 1796,
      "tri": 1797,
      "oodĠ": 1798,
      "dec": 1799,
      "è§Ĵ": 1800,
      "ardĠ": 1801,
      "****": 1802,
      "dist": 1803,
      "äº§ä¸ļ": 1804,
      "äººçļĦ": 1805,
      "ï¼Įåħ¶": 1806,
      "coun": 1807,
      "ak": 1808,
      "bi": 1809,
      "å§Ķ": 1810,
      "terĠ": 1811,
      "è£ħ": 1812,
      "åħħ": 1813,
      "éĤ£": 1814,
      "èĢģ": 1815,
      "oseĠ": 1816,
      "èį¯": 1817,
      "tain": 1818,
      "åĪ¤": 1819,
      "æĤ£": 1820,
      "heĠ": 1821,
      "åĽ½éĻħ": 1822,
      "ineĠ": 1823,
      "âĢ¢Ġ": 1824,
      "fromĠtheĠ": 1825,
      "numberĠ": 1826,
      "serv": 1827,
      "ä»¤": 1828,
      "gener": 1829,
      "å¼Ĥ": 1830,
      "gl": 1831,
      "ativeĠ": 1832,
      "ileĠ": 1833,
      "tp": 1834,
      "cul": 1835,
      "å¿Ĺ": 1836,
      "å®ŀè·µ": 1837,
      "sim": 1838,
      "Al": 1839,
      "of": 1840,
      "è²": 1841,
      "ä¹ĭéĹ´": 1842,
      "onlyĠ": 1843,
      "èĭ¥": 1844,
      "ç»Ĩèĥŀ": 1845,
      "fic": 1846,
      "tiv": 1847,
      "ä»·åĢ¼": 1848,
      "7Ġ": 1849,
      "sup": 1850,
      "cal": 1851,
      "canĠbeĠ": 1852,
      "det": 1853,
      "æĶ¹éĿ©": 1854,
      "çļĦï¼Į": 1855,
      "velop": 1856,
      "å¤Ł": 1857,
      "weenĠ": 1858,
      "pol": 1859,
      "æĻ¯": 1860,
      "30": 1861,
      "æıĲåĩº": 1862,
      "è¶ħ": 1863,
      "äº§çĶŁ": 1864,
      "è®¡ç®Ĺ": 1865,
      "a,Ġ": 1866,
      "éŁ³": 1867,
      "ä¸ĥ": 1868,
      "åĬŁèĥ½": 1869,
      "plic": 1870,
      "æŃ¢": 1871,
      "ight": 1872,
      "intĠ": 1873,
      "éļľ": 1874,
      "produc": 1875,
      "å¦Ĥæŀľ": 1876,
      "elyĠ": 1877,
      "vis": 1878,
      "å»ºç«ĭ": 1879,
      "åĽ¢": 1880,
      "tit": 1881,
      "çĽ®æłĩ": 1882,
      "with": 1883,
      "ç§»": 1884,
      "ĊãĢĢãĢĢĊãĢĢãĢĢ": 1885,
      "çĶŁæ´»": 1886,
      "è¯·": 1887,
      "äºĳ": 1888,
      "betweenĠ": 1889,
      "RE": 1890,
      "æŀĹ": 1891,
      "åĪ©çĶ¨": 1892,
      "ä¸¥": 1893,
      "éĺŁ": 1894,
      "ä¼Ĺ": 1895,
      "ject": 1896,
      ".ĠF": 1897,
      "èīº": 1898,
      "abil": 1899,
      "ç¼ĸ": 1900,
      "å¾®": 1901,
      "èĩªå·±": 1902,
      "æŁĲ": 1903,
      "æĻĤ": 1904,
      "æĬĹ": 1905,
      "å¼ł": 1906,
      "çĥŃ": 1907,
      "http": 1908,
      "æĢĿæĥ³": 1909,
      "æ²³": 1910,
      "()": 1911,
      "atesĠ": 1912,
      "æĶ¿çŃĸ": 1913,
      "bleĠ": 1914,
      "sĠtheĠ": 1915,
      "æ¦Ĥ": 1916,
      "å®¢": 1917,
      "åĿļ": 1918,
      "app": 1919,
      "ĊĠĠĠĠĠĠĠĠĠĠĠĠĠĠĠĠ": 1920,
      "è´¨éĩı": 1921,
      "è³": 1922,
      "howĠ": 1923,
      "firstĠ": 1924,
      "å¥³": 1925,
      "åĲ¦": 1926,
      "mostĠ": 1927,
      "sel": 1928,
      "æĻ®": 1929,
      "è®¸": 1930,
      "åīĩ": 1931,
      "æĶ¿æ²»": 1932,
      "çı": 1933,
      "æĳ": 1934,
      "ï¼Įä¹Ł": 1935,
      "æī§": 1936,
      "é¡¹çĽ®": 1937,
      "è®¤ä¸º": 1938,
      "ç¨İ": 1939,
      "edĠtheĠ": 1940,
      "s:": 1941,
      "åĬŀ": 1942,
      "ç¬¬äºĮ": 1943,
      "right": 1944,
      "IN": 1945,
      "ä¸įèĥ½": 1946,
      "è¡ĮæĶ¿": 1947,
      "TĠ": 1948,
      "De": 1949,
      "class": 1950,
      "DĠ": 1951,
      "&Ġ": 1952,
      "è¯ī": 1953,
      "sur": 1954,
      "çªģ": 1955,
      "é¾": 1956,
      "proc": 1957,
      "æįŁ": 1958,
      "hel": 1959,
      "upĠ": 1960,
      "æ±Ł": 1961,
      "chang": 1962,
      "reeĠ": 1963,
      "atĠtheĠ": 1964,
      "æļ": 1965,
      "Ar": 1966,
      "å±ħ": 1967,
      "\">": 1968,
      "tionĠofĠ": 1969,
      "returnĠ": 1970,
      "cho": 1971,
      "æŃ»": 1972,
      "è´Ł": 1973,
      "so": 1974,
      "è¿ŀ": 1975,
      "èĳĹ": 1976,
      "çİ°ä»£": 1977,
      "çĶ±äºİ": 1978,
      "ĊCategory:": 1979,
      "exam": 1980,
      "å¯Ł": 1981,
      "å¿ħé¡»": 1982,
      "åĲ«": 1983,
      "ong": 1984,
      "ç»Ī": 1985,
      "emb": 1986,
      "åħį": 1987,
      "å·¥ç¨ĭ": 1988,
      "art": 1989,
      "è¾ĵ": 1990,
      "vers": 1991,
      "éĩĳèŀį": 1992,
      "sĠthatĠ": 1993,
      "äº¦": 1994,
      "//Ġ": 1995,
      ".ĠThisĠ": 1996,
      "ge": 1997,
      "redĠ": 1998,
      "èĤ¡": 1999,
      "someĠ": 2000,
      "æ¸©": 2001,
      "{\\": 2002,
      "typ": 2003,
      "sid": 2004,
      "thereĠ": 2005,
      "eachĠ": 2006,
      "s.Ċ": 2007,
      "æľīæķĪ": 2008,
      "æ¿Ģ": 2009,
      "é»Ħ": 2010,
      "ä¿ĥ": 2011,
      "èĨ": 2012,
      "èĭ±": 2013,
      "ationalĠ": 2014,
      "ä¼łç»Ł": 2015,
      "usingĠ": 2016,
      "æŁĵ": 2017,
      "ER": 2018,
      "met": 2019,
      "æĭħ": 2020,
      "èĸ": 2021,
      "esĠandĠ": 2022,
      "æĹ¶ï¼Į": 2023,
      "æİ¢": 2024,
      "iteĠ": 2025,
      "æľĿ": 2026,
      "fact": 2027,
      "play": 2028,
      "kingĠ": 2029,
      "ing,Ġ": 2030,
      "ç½ª": 2031,
      "e.": 2032,
      "htĠ": 2033,
      "whereĠ": 2034,
      "workĠ": 2035,
      "\",": 2036,
      "âĢĵĠ": 2037,
      "mer": 2038,
      "22": 2039,
      "æ¨¡å¼ı": 2040,
      "åĲİï¼Į": 2041,
      "åħ´": 2042,
      "é¥": 2043,
      "hy": 2044,
      "develop": 2045,
      "è§£åĨ³": 2046,
      "vol": 2047,
      "åĢº": 2048,
      "ä¹Ŀ": 2049,
      "atingĠ": 2050,
      "æīĵ": 2051,
      "åĩł": 2052,
      "dingĠ": 2053,
      "è´£ä»»": 2054,
      "meth": 2055,
      "ç¿": 2056,
      "ĊĠĠĠĠĠĠ": 2057,
      "åĩºçİ°": 2058,
      "ningĠ": 2059,
      "go": 2060,
      "åĬ³åĬ¨": 2061,
      "åĲĪåĲĮ": 2062,
      "äººåĳĺ": 2063,
      "èĩªçĦ¶": 2064,
      "let": 2065,
      "äºļ": 2066,
      "ä¸ĵä¸ļ": 2067,
      "åº·": 2068,
      "sĠ(": 2069,
      "aw": 2070,
      "å¤´": 2071,
      "é¢ĨåŁŁ": 2072,
      "æīĢæľī": 2073,
      "è¬": 2074,
      "ep": 2075,
      "ç®Ģ": 2076,
      "aterĠ": 2077,
      "åĦ¿": 2078,
      "åģ¥": 2079,
      "====": 2080,
      "çł´": 2081,
      "é£İéĻ©": 2082,
      "åħ¸": 2083,
      "åĥı": 2084,
      "doĠ": 2085,
      "å¨": 2086,
      "æĩ": 2087,
      "æĿ¡ä»¶": 2088,
      "çºª": 2089,
      "æľºæŀĦ": 2090,
      "timeĠ": 2091,
      "ularĠ": 2092,
      "?Ġ": 2093,
      "ome": 2094,
      "å¯Į": 2095,
      "èĲ½": 2096,
      "ä»ĸä»¬": 2097,
      "thenĠ": 2098,
      "50": 2099,
      "WeĠ": 2100,
      "ial": 2101,
      "åıĺåĮĸ": 2102,
      "er,Ġ": 2103,
      "att": 2104,
      "CĠ": 2105,
      "ualĠ": 2106,
      "æ¸¸": 2107,
      "çĭ¬": 2108,
      "wouldĠ": 2109,
      "ä¸´": 2110,
      "å®ŀéĻħ": 2111,
      "èĪĩ": 2112,
      "ust": 2113,
      "manyĠ": 2114,
      "21": 2115,
      "EĠ": 2116,
      "ä¸ĬçļĦ": 2117,
      "whoĠ": 2118,
      "iceĠ": 2119,
      "å¸Ŀ": 2120,
      "ThisĠ": 2121,
      "èĪ¬": 2122,
      "$$": 2123,
      "err": 2124,
      "9Ġ": 2125,
      "æ³¢": 2126,
      "year": 2127,
      "æ½": 2128,
      "asĠaĠ": 2129,
      "å®ŀæĸ½": 2130,
      "æ°´å¹³": 2131,
      "å¤«": 2132,
      "ç¨³": 2133,
      "åıĳçİ°": 2134,
      "ç¾İåĽ½": 2135,
      "å®ļçļĦ": 2136,
      "read": 2137,
      "ä»Ģ": 2138,
      "overĠ": 2139,
      "å¤§åŃ¦": 2140,
      "ç¼º": 2141,
      "%Ġ": 2142,
      "intoĠ": 2143,
      "til": 2144,
      "è¿ĻäºĽ": 2145,
      "thatĠtheĠ": 2146,
      "but": 2147,
      "fterĠ": 2148,
      "appro": 2149,
      "ackĠ": 2150,
      "åľ°åĮº": 2151,
      "5.": 2152,
      "dition": 2153,
      ".ĠB": 2154,
      "æĭ©": 2155,
      "math": 2156,
      "1)": 2157,
      "æĪ¿": 2158,
      "çº³": 2159,
      "ON": 2160,
      "this": 2161,
      "æľºåĪ¶": 2162,
      "olĠ": 2163,
      "æĭī": 2164,
      "trans": 2165,
      "ç¶": 2166,
      "åıĮ": 2167,
      "ä¸ĢäºĽ": 2168,
      "ticalĠ": 2169,
      "çīĩ": 2170,
      "åı¦": 2171,
      "sa": 2172,
      "åĨĻ": 2173,
      "æ¼Ķ": 2174,
      "äº¬": 2175,
      "çĶŁæĢģ": 2176,
      "ewĠ": 2177,
      "inĠaĠ": 2178,
      "èĥ½å¤Ł": 2179,
      "æ°ĳæĹı": 2180,
      "èī¯": 2181,
      "çĶŁçī©": 2182,
      "çµ": 2183,
      "follow": 2184,
      "æĢ§çļĦ": 2185,
      "âĢĿçļĦ": 2186,
      "åĽº": 2187,
      "e-": 2188,
      "æĬķèµĦ": 2189,
      "åŁİå¸Ĥ": 2190,
      "æķ°åŃĹ": 2191,
      "çĩ": 2192,
      "ä½Ľ": 2193,
      "è¯»": 2194,
      "å¤§çļĦ": 2195,
      "è´§": 2196,
      "Un": 2197,
      "lear": 2198,
      "ä»ĭ": 2199,
      "}}": 2200,
      "ç´¢": 2201,
      "ign": 2202,
      "defin": 2203,
      ":Ċ": 2204,
      "ç¤¾ä¼ļä¸»ä¹ī": 2205,
      "24": 2206,
      "å¢ŀåĬł": 2207,
      "ç¬¬ä¸ī": 2208,
      "ityĠofĠ": 2209,
      "ç»ĵåĲĪ": 2210,
      "gen": 2211,
      "æīĢä»¥": 2212,
      "ç«¯": 2213,
      "tre": 2214,
      "å½ķ": 2215,
      "ç»¼": 2216,
      "hadĠ": 2217,
      "ion": 2218,
      "reg": 2219,
      "son": 2220,
      "ç¯": 2221,
      "éĢīæĭ©": 2222,
      "æĿĲæĸĻ": 2223,
      "éĥ¨éĹ¨": 2224,
      "MA": 2225,
      "åºĶå½ĵ": 2226,
      "result": 2227,
      "likeĠ": 2228,
      "'Ġ": 2229,
      "sĊĊ": 2230,
      "ç»ĵæŀľ": 2231,
      "ä¸Ńå¿ĥ": 2232,
      "ulti": 2233,
      "è©": 2234,
      "ris": 2235,
      "å®Ĺ": 2236,
      "åįķä½į": 2237,
      "æĺŁ": 2238,
      "test": 2239,
      "provid": 2240,
      "yĠofĠ": 2241,
      "(\"": 2242,
      "vir": 2243,
      "elec": 2244,
      "æ»¡": 2245,
      "ä¹Ĳ": 2246,
      "æ¤": 2247,
      "æĹ¶ä»£": 2248,
      "ä¸ĢèĪ¬": 2249,
      "under": 2250,
      ");Ċ": 2251,
      "text": 2252,
      "orsĠ": 2253,
      "åľĭ": 2254,
      "çīĪ": 2255,
      "whatĠ": 2256,
      "éĩĬ": 2257,
      "å·¥ä¸ļ": 2258,
      "éĿĴ": 2259,
      "æį¢": 2260,
      "fig": 2261,
      "ly": 2262,
      "è½½": 2263,
      "åĽłä¸º": 2264,
      "dep": 2265,
      "ug": 2266,
      "proble": 2267,
      ":ĊĊ": 2268,
      ".ĠItĠ": 2269,
      "sm": 2270,
      "grou": 2271,
      "writ": 2272,
      "éĵ¾": 2273,
      "çļĦæĺ¯": 2274,
      "âĢĿï¼Į": 2275,
      "consi": 2276,
      "å®¤": 2277,
      "ÂłÂłÂłÂł": 2278,
      "giv": 2279,
      "æ¯Ĵ": 2280,
      "è¯Ŀ": 2281,
      "ä½ı": 2282,
      "posi": 2283,
      "respon": 2284,
      "éĺ¿": 2285,
      "ä¸¾": 2286,
      "publicĠ": 2287,
      "Ac": 2288,
      "noĠ": 2289,
      "eas": 2290,
      "incre": 2291,
      ".ĠM": 2292,
      "è¯¾ç¨ĭ": 2293,
      "å·²ç»ı": 2294,
      "23": 2295,
      "ç±³": 2296,
      "å®ŀéªĮ": 2297,
      "add": 2298,
      "èĴ": 2299,
      "lesĠ": 2300,
      "sum": 2301,
      "fac": 2302,
      "è®Ń": 2303,
      "assĠ": 2304,
      "Str": 2305,
      "å¼Ģåıĳ": 2306,
      "rap": 2307,
      "ç«Ļ": 2308,
      "Cl": 2309,
      "åįł": 2310,
      "åħ¨éĿ¢": 2311,
      "differentĠ": 2312,
      "å¦Ĥä½ķ": 2313,
      "âĪ": 2314,
      "æī¹": 2315,
      "éľĢæ±Ĥ": 2316,
      "éĺ¶æ®µ": 2317,
      "hi": 2318,
      "ä¹¡": 2319,
      "ci": 2320,
      "çĹĩ": 2321,
      "è¡¥": 2322,
      "é¼": 2323,
      "èĬ±": 2324,
      "high": 2325,
      "ï¼Įä»İ": 2326,
      "importĠ": 2327,
      "éĶ®": 2328,
      "tedĠ": 2329,
      "çģ«": 2330,
      "shouldĠ": 2331,
      "åİ¿": 2332,
      "oci": 2333,
      "fer": 2334,
      "(x": 2335,
      "Res": 2336,
      "åħµ": 2337,
      "åįĥ": 2338,
      "æĵį": 2339,
      "car": 2340,
      "è«¸": 2341,
      "è¿ľ": 2342,
      "æĹ¢": 2343,
      "å¤®": 2344,
      "valu": 2345,
      "æŃ¦": 2346,
      "inst": 2347,
      "6.": 2348,
      "å½¢å¼ı": 2349,
      "boo": 2350,
      "ed,Ġ": 2351,
      "ç»§": 2352,
      "1,Ġ": 2353,
      "è¾¹": 2354,
      "ere": 2355,
      "tern": 2356,
      "æ²»çĸĹ": 2357,
      "exp": 2358,
      "way": 2359,
      "dataĠ": 2360,
      "ine": 2361,
      "direc": 2362,
      "ä»Ģä¹Ī": 2363,
      "AR": 2364,
      "åħ±åĲĮ": 2365,
      "æĤ£èĢħ": 2366,
      "),": 2367,
      "å°Ħ": 2368,
      "acc": 2369,
      "ä»į": 2370,
      "ord": 2371,
      "own": 2372,
      "ç¬¦": 2373,
      "chil": 2374,
      "ä¸ĢæŃ¥": 2375,
      "å¯¼èĩ´": 2376,
      "ä»£è¡¨": 2377,
      "è®¾å¤ĩ": 2378,
      "usedĠ": 2379,
      "åıĳå±ķçļĦ": 2380,
      "åŁ¹åħ»": 2381,
      "æİĪ": 2382,
      "throughĠ": 2383,
      "toĠbeĠ": 2384,
      "import": 2385,
      "çĺ": 2386,
      "éĵ¶": 2387,
      "æĲ": 2388,
      "sl": 2389,
      "tem": 2390,
      "\",Ġ": 2391,
      "å¼Ģå§ĭ": 2392,
      "ç²¾ç¥ŀ": 2393,
      "mis": 2394,
      "endĠ": 2395,
      "æķĻå¸Ī": 2396,
      "çļĦåıĳå±ķ": 2397,
      "put": 2398,
      "ock": 2399,
      "åħ·ä½ĵ": 2400,
      ",åľ¨": 2401,
      "partic": 2402,
      "åĪĳ": 2403,
      "æĹ©": 2404,
      "log": 2405,
      "åı³": 2406,
      "åºĵ": 2407,
      "ç¨ĭåºı": 2408,
      "äºĪ": 2409,
      "ä¿ĥè¿Ľ": 2410,
      "Ċ-Ġ": 2411,
      "å¹´ï¼Į": 2412,
      "ath": 2413,
      "çŃĳ": 2414,
      "itĠisĠ": 2415,
      "ç§ĳæĬĢ": 2416,
      "anal": 2417,
      "çĽ´æİ¥": 2418,
      ";ĊĊ": 2419,
      "éĢĲ": 2420,
      "åį±": 2421,
      "æľīåħ³": 2422,
      "æķ£": 2423,
      "esĠtheĠ": 2424,
      "çĶ³": 2425,
      "æĿĤ": 2426,
      "siz": 2427,
      "cas": 2428,
      "æĿİ": 2429,
      "å¾Į": 2430,
      "ation,Ġ": 2431,
      "ç»¼åĲĪ": 2432,
      "æĻºèĥ½": 2433,
      "åĲ¸": 2434,
      "ä¸įæĺ¯": 2435,
      "stand": 2436,
      "ä¸įæĸŃ": 2437,
      "èĮĥåĽ´": 2438,
      "è»": 2439,
      "é½": 2440,
      "larg": 2441,
      "ilĠ": 2442,
      "æĶ¯æĮģ": 2443,
      "###Ġ": 2444,
      "âĢ¦": 2445,
      "ST": 2446,
      "çĶ»": 2447,
      "orm": 2448,
      "åįĬ": 2449,
      "æł¸å¿ĥ": 2450,
      "å°ģ": 2451,
      "::": 2452,
      "ä»ĺ": 2453,
      "ä¸ĭï¼Į": 2454,
      "æ±¡": 2455,
      "eĠandĠ": 2456,
      "peri": 2457,
      "é¦Ļ": 2458,
      "èµ°": 2459,
      "veryĠ": 2460,
      "çļĨ": 2461,
      "curr": 2462,
      "ame": 2463,
      "çĶļ": 2464,
      "198": 2465,
      "æ³ķéĻ¢": 2466,
      "âĢĿĠ": 2467,
      "Uni": 2468,
      "ç©ºéĹ´": 2469,
      "tra": 2470,
      "ÂłĠ": 2471,
      "è¦ĭ": 2472,
      "OR": 2473,
      "èĢħï¼Į": 2474,
      "çĽ®åīį": 2475,
      "æĪĲæľ¬": 2476,
      "é¢Ŀ": 2477,
      "çĬ¯": 2478,
      "åĽłç´ł": 2479,
      "æī©": 2480,
      "fa": 2481,
      "ä¸ªäºº": 2482,
      "çķĻ": 2483,
      "buil": 2484,
      "ann": 2485,
      "è¿Ļç§į": 2486,
      "AN": 2487,
      "éģĹ": 2488,
      "å©": 2489,
      "s.ĊĊ": 2490,
      "ort": 2491,
      "mu": 2492,
      "40": 2493,
      "ca": 2494,
      "char": 2495,
      "åĢĻ": 2496,
      "åĲĪä½ľ": 2497,
      "ementĠ": 2498,
      "éŃ": 2499,
      "æĸ°çļĦ": 2500,
      "s,ĠandĠ": 2501,
      "ç£": 2502,
      "æĽ²": 2503,
      ",Ċ": 2504,
      "level": 2505,
      "éĩĩçĶ¨": 2506,
      "suchĠasĠ": 2507,
      "éĺ³": 2508,
      "æİ¨åĬ¨": 2509,
      "è¿Ļä¸Ģ": 2510,
      "çĿ£": 2511,
      "60": 2512,
      "cep": 2513,
      "sĠofĠtheĠ": 2514,
      "åħ³äºİ": 2515,
      "åħ¨çĲĥ": 2516,
      "åīĤ": 2517,
      "ä¸Ńå¤®": 2518,
      "éĶĢ": 2519,
      "non": 2520,
      "ï¼Įæľī": 2521,
      "ici": 2522,
      "è¿Ļä¸ª": 2523,
      "28": 2524,
      "ç¢³": 2525,
      "æľĽ": 2526,
      "æ±ī": 2527,
      "functionĠ": 2528,
      "æī§è¡Į": 2529,
      "åİŁåĪĻ": 2530,
      "æ¨¡åŀĭ": 2531,
      "00Ġ": 2532,
      "Ad": 2533,
      "Tr": 2534,
      "function": 2535,
      "çī¹å¾ģ": 2536,
      "ä½ł": 2537,
      "sameĠ": 2538,
      "withĠaĠ": 2539,
      "formĠ": 2540,
      "ä»½": 2541,
      "/Ġ": 2542,
      "part": 2543,
      "ä¸Ń,": 2544,
      "ä¸Ńåįİ": 2545,
      "åĨľä¸ļ": 2546,
      "å£°": 2547,
      "æĮ¥": 2548,
      "æĦıä¹ī": 2549,
      "æıĲåįĩ": 2550,
      "å¢ŀéķ¿": 2551,
      "-1": 2552,
      "ãĢĤâĢĿ": 2553,
      "åĩ»": 2554,
      "adeĠ": 2555,
      "éĴĪ": 2556,
      "é¤": 2557,
      ".ĠO": 2558,
      "basedĠ": 2559,
      "cer": 2560,
      "åį°": 2561,
      "èİ·å¾Ĺ": 2562,
      "rol": 2563,
      "æİ¨è¿Ľ": 2564,
      "mov": 2565,
      "frac{": 2566,
      "anti": 2567,
      "æ¶²": 2568,
      "Par": 2569,
      "tingĠ": 2570,
      "æľ¨": 2571,
      "äººç±»": 2572,
      "éĻĦ": 2573,
      "getĠ": 2574,
      "åĬłå¼º": 2575,
      "å®Ī": 2576,
      "oper": 2577,
      "cell": 2578,
      "åģ¿": 2579,
      "èĽ": 2580,
      "èģļ": 2581,
      "wayĠ": 2582,
      "çĪ¾": 2583,
      "åŃ¦æł¡": 2584,
      "è¿ĲåĬ¨": 2585,
      "ator": 2586,
      "ä¼°": 2587,
      "tech": 2588,
      "æ²»çĲĨ": 2589,
      "ä¹İ": 2590,
      "ä¸»ä½ĵ": 2591,
      "åľ°æĸ¹": 2592,
      "ous": 2593,
      "perĠ": 2594,
      "åĮĸçļĦ": 2595,
      "å·´": 2596,
      "inform": 2597,
      "æĺİç¡®": 2598,
      "bel": 2599,
      "çĶ¨äºİ": 2600,
      ".,Ġ": 2601,
      "bothĠ": 2602,
      "opleĠ": 2603,
      "åħ³éĶ®": 2604,
      "SS": 2605,
      "åºķ": 2606,
      "sk": 2607,
      "çº¢": 2608,
      "è¿Ľä¸ĢæŃ¥": 2609,
      "æĪĺçķ¥": 2610,
      "åŁºäºİ": 2611,
      "themĠ": 2612,
      "ï¼Įä¸º": 2613,
      "åĤ¨": 2614,
      "meas": 2615,
      "pi": 2616,
      "afterĠ": 2617,
      "cap": 2618,
      "ï¼Įå¯¹": 2619,
      "ore": 2620,
      "å¾ĹåĪ°": 2621,
      "åį·": 2622,
      "ç½Ĺ": 2623,
      "?Ċ": 2624,
      "present": 2625,
      "ele": 2626,
      "ori": 2627,
      "èĥĮ": 2628,
      "åĪ¶éĢł": 2629,
      "âĢĶĠ": 2630,
      "å®£": 2631,
      "éħ¸": 2632,
      "fiel": 2633,
      "ä¹ŁãĢĤ": 2634,
      "EN": 2635,
      "åį«": 2636,
      "27": 2637,
      "çļĦ,": 2638,
      "è®²": 2639,
      "underĠ": 2640,
      "æı¡": 2641,
      "}$": 2642,
      "ä¹ĥ": 2643,
      "ä¸įåı¯": 2644,
      "è¡¨çİ°": 2645,
      "actĠ": 2646,
      "sĠforĠ": 2647,
      "å·¦": 2648,
      "äº«": 2649,
      "å°½": 2650,
      "ä¿Ŀéļľ": 2651,
      "off": 2652,
      "èµĦæľ¬": 2653,
      "æĽ¸": 2654,
      "åħ¨åĽ½": 2655,
      "1,": 2656,
      "å»¶": 2657,
      "ä¸Ĭï¼Į": 2658,
      "ä¾µ": 2659,
      "åĲĦç§į": 2660,
      "left": 2661,
      "æĮģç»Ń": 2662,
      "è¼": 2663,
      "AD": 2664,
      "æĹ¶æľŁ": 2665,
      "åĪ©çĽĬ": 2666,
      "makeĠ": 2667,
      "å»ºçŃĳ": 2668,
      "ç«ŀ": 2669,
      "model": 2670,
      "ionĠ": 2671,
      "odĠ": 2672,
      "çļĦä¸Ģ": 2673,
      "epĠ": 2674,
      "multi": 2675,
      "çĵ": 2676,
      "eyĠ": 2677,
      "ä¼¼": 2678,
      "å¸ģ": 2679,
      "bin": 2680,
      "->": 2681,
      "ishĠ": 2682,
      "10Ġ": 2683,
      "æ¯Ķè¾ĥ": 2684,
      "è¡Įä¸ļ": 2685,
      "vo": 2686,
      "çļĦäºº": 2687,
      "point": 2688,
      ";ĊĠĠĠĠ": 2689,
      "inf": 2690,
      "heal": 2691,
      "æīĺ": 2692,
      "éº": 2693,
      "è¯į": 2694,
      "åıĤä¸İ": 2695,
      "æĴŃ": 2696,
      "rang": 2697,
      "æ¤į": 2698,
      "numberĠofĠ": 2699,
      "`Ġ": 2700,
      "sign": 2701,
      "esĠinĠ": 2702,
      "call": 2703,
      "divid": 2704,
      "çĸ«": 2705,
      "WhatĠ": 2706,
      "dur": 2707,
      "net": 2708,
      "æĿ¿": 2709,
      "ç¡®å®ļ": 2710,
      "ä¾Ĩ": 2711,
      "å¾Ħ": 2712,
      "Col": 2713,
      "å°ļ": 2714,
      "omĠ": 2715,
      "çļĦéĩįè¦ģ": 2716,
      "åĽŃ": 2717,
      "ç¹": 2718,
      "æĵįä½ľ": 2719,
      "èĥ½æºĲ": 2720,
      "ç¶ĵ": 2721,
      "couldĠ": 2722,
      "è¯Ħä»·": 2723,
      "ultĠ": 2724,
      "pati": 2725,
      ".com": 2726,
      "ç»¿": 2727,
      "resear": 2728,
      "ä¸¤ä¸ª": 2729,
      "men": 2730,
      "26": 2731,
      "plac": 2732,
      ",å¹¶": 2733,
      "ç§¯æŀģ": 2734,
      "beca": 2735,
      "Qu": 2736,
      "ä¹ĭä¸Ģ": 2737,
      "ç»ıèĲ¥": 2738,
      "2)": 2739,
      "åĳ³": 2740,
      "åĲĽ": 2741,
      "struct": 2742,
      "è¡¡": 2743,
      "çĮ®": 2744,
      "}$Ġ": 2745,
      "èĻļ": 2746,
      "vingĠ": 2747,
      "ond": 2748,
      "yĠandĠ": 2749,
      "çŁŃ": 2750,
      "[@": 2751,
      "acter": 2752,
      "ainĠ": 2753,
      "sty": 2754,
      "æĺ¯åĲ¦": 2755,
      "æİª": 2756,
      "ss": 2757,
      "è¿½": 2758,
      "æŀ¶": 2759,
      "è§ĦåĪĴ": 2760,
      "åĮºåŁŁ": 2761,
      "çĸ¾": 2762,
      "Ġ*Ġ": 2763,
      "æ°§": 2764,
      "éķĩ": 2765,
      "ç¸": 2766,
      "7.": 2767,
      "è§ī": 2768,
      "AT": 2769,
      "ques": 2770,
      "ĊĠ*Ġ": 2771,
      "asĠtheĠ": 2772,
      "IL": 2773,
      "é¢ĳ": 2774,
      "IT": 2775,
      "und": 2776,
      "ution": 2777,
      "çĻ»": 2778,
      "å¹³åı°": 2779,
      "èįī": 2780,
      "âĳ": 2781,
      "ï¼Įä½¿": 2782,
      "mi": 2783,
      "udi": 2784,
      "çļĦâĢľ": 2785,
      "entialĠ": 2786,
      "sin": 2787,
      "ç¦ı": 2788,
      "red": 2789,
      "ä½Ļ": 2790,
      "è¾¾åĪ°": 2791,
      "åłĤ": 2792,
      "æ¶ī": 2793,
      "CO": 2794,
      "æ¶Īè´¹": 2795,
      "æ²¹": 2796,
      "not": 2797,
      "åĺ": 2798,
      "owever": 2799,
      "è®¡åĪĴ": 2800,
      "æ°ı": 2801,
      "lim": 2802,
      "æ°£": 2803,
      "æ¦Ĥå¿µ": 2804,
      "top": 2805,
      "åĢŁ": 2806,
      "pow": 2807,
      "å¼Ģå±ķ": 2808,
      "èµĦäº§": 2809,
      "bĠ": 2810,
      "earĠ": 2811,
      "è½¯": 2812,
      "ofĠaĠ": 2813,
      "requi": 2814,
      "depend": 2815,
      "*/": 2816,
      "éĢłæĪĲ": 2817,
      "éĢģ": 2818,
      "å¾ħ": 2819,
      "ç¨ĭåº¦": 2820,
      "åħļçļĦ": 2821,
      "Di": 2822,
      "èĩ£": 2823,
      "etĠal": 2824,
      "çĶ²": 2825,
      "utĠ": 2826,
      "theĊ": 2827,
      "?ĊĊ": 2828,
      "éĿ©åĳ½": 2829,
      "å®ĮæĪĲ": 2830,
      "hol": 2831,
      "can": 2832,
      "ä»»åĬ¡": 2833,
      "çķ¶": 2834,
      "hum": 2835,
      "aliz": 2836,
      "####": 2837,
      "ighĠ": 2838,
      "](": 2839,
      "ï¼Įåį³": 2840,
      "éļıçĿĢ": 2841,
      "LĠ": 2842,
      "ä»¥ä¸ĭ": 2843,
      "----------------": 2844,
      "åĿļæĮģ": 2845,
      "peopleĠ": 2846,
      "pop": 2847,
      "çĲĨè§£": 2848,
      "åľŁåľ°": 2849,
      "åįļ": 2850,
      "jectĠ": 2851,
      "ick": 2852,
      "ax": 2853,
      "è¿Ŀ": 2854,
      "å°¼": 2855,
      "lab": 2856,
      "åĿĹ": 2857,
      "meĠ": 2858,
      "Fr": 2859,
      "wellĠ": 2860,
      "main": 2861,
      "self": 2862,
      "çļ®": 2863,
      "Sy": 2864,
      "çī¹åĪ«": 2865,
      "æĿĥåĪ©": 2866,
      "NA": 2867,
      "s/": 2868,
      "ï¼ļĊ": 2869,
      "s:Ġ": 2870,
      "é¢Ĩå¯¼": 2871,
      ",èĢĮ": 2872,
      "https:": 2873,
      "èģĮä¸ļ": 2874,
      "29": 2875,
      "ç»ĥ": 2876,
      "ç»Łä¸Ģ": 2877,
      "ld": 2878,
      "é²": 2879,
      "æ¸¯": 2880,
      "åħ¬åħ±": 2881,
      "2,Ġ": 2882,
      "proper": 2883,
      "å½Ĵ": 2884,
      ",ä½Ĩ": 2885,
      "èĵ": 2886,
      "descri": 2887,
      "æĺ¥": 2888,
      "æ¯į": 2889,
      "åºŃ": 2890,
      "åĨ³å®ļ": 2891,
      "geĠ": 2892,
      "ï¼īĊ": 2893,
      "ä¸ºäºĨ": 2894,
      "distri": 2895,
      "stit": 2896,
      "ingĠtoĠ": 2897,
      "nec": 2898,
      "åĨ²": 2899,
      "ven": 2900,
      "å®ĮåĸĦ": 2901,
      "increas": 2902,
      "çī¹èī²": 2903,
      "IS": 2904,
      "æĿ¥ï¼Į": 2905,
      "rightĠ": 2906,
      "Le": 2907,
      "Univers": 2908,
      "possi": 2909,
      "ãĢĤä½Ĩ": 2910,
      "è¬Ĥ": 2911,
      "abl": 2912,
      "deĠ": 2913,
      "iaĠ": 2914,
      "atur": 2915,
      "es.Ġ": 2916,
      "fulĠ": 2917,
      "ToĠ": 2918,
      "è´Ń": 2919,
      "ä¼¤": 2920,
      "beg": 2921,
      "PĠ": 2922,
      "mean": 2923,
      "ide": 2924,
      "https://": 2925,
      "lineĠ": 2926,
      "fil": 2927,
      "æĸ¹æ¡Ī": 2928,
      "æ¬§": 2929,
      "è¡¨ç¤º": 2930,
      "bre": 2931,
      "ict": 2932,
      "197": 2933,
      "éĢĢ": 2934,
      "amil": 2935,
      "å¨ģ": 2936,
      "inc": 2937,
      "000": 2938,
      "æĽ¾": 2939,
      "è§ĦèĮĥ": 2940,
      "æĢ¥": 2941,
      "æĿ¥çļĦ": 2942,
      "ox": 2943,
      "åħħåĪĨ": 2944,
      "80": 2945,
      "auth": 2946,
      "åģ¥åº·": 2947,
      "istĠ": 2948,
      "éģ¿": 2949,
      "stat": 2950,
      "æ´¾": 2951,
      "Mar": 2952,
      "éĨ": 2953,
      "èĹı": 2954,
      "ï¼İ": 2955,
      "å¼ĢæĶ¾": 2956,
      "itedĠ": 2957,
      "bod": 2958,
      "MĠ": 2959,
      "æİĮ": 2960,
      "æ¬²": 2961,
      "çī¹çĤ¹": 2962,
      ".ĊTheĠ": 2963,
      "èĻ½": 2964,
      "ä¾ĭå¦Ĥ": 2965,
      "ingĠaĠ": 2966,
      "æ´²": 2967,
      "æĸĹ": 2968,
      "eĊ": 2969,
      "class=\"": 2970,
      "âĢĶâĢĶ": 2971,
      "expres": 2972,
      "èĻĳ": 2973,
      "edĠbyĠtheĠ": 2974,
      "éĩįçĤ¹": 2975,
      "åģĩ": 2976,
      "ster": 2977,
      ");ĊĊ": 2978,
      "myĠ": 2979,
      "Ty": 2980,
      "å¥½çļĦ": 2981,
      "IfĠ": 2982,
      "esĠareĠ": 2983,
      "ey": 2984,
      "ä¸ĸçºª": 2985,
      "run": 2986,
      "lessĠ": 2987,
      "view": 2988,
      "extĠ": 2989,
      "icen": 2990,
      "ä¹Łæĺ¯": 2991,
      "example": 2992,
      "ï¼īï¼Į": 2993,
      "è¯Ĺ": 2994,
      "èĭı": 2995,
      "expl": 2996,
      "ä¸Ģå®ļ": 2997,
      "ç¨³å®ļ": 2998,
      "uallyĠ": 2999,
      "èīºæľ¯": 3000,
      "ondĠ": 3001,
      "35": 3002,
      "ry": 3003,
      "äº¤æĺĵ": 3004,
      "ä¹ĭéĹ´çļĦ": 3005,
      "Pl": 3006,
      "å¤ĸï¼Į": 3007,
      "esĠtoĠ": 3008,
      "ï¼ļãĢĮ": 3009,
      "day": 3010,
      "èĦī": 3011,
      "åİŁåĽł": 3012,
      ")ĠandĠ": 3013,
      "oy": 3014,
      ",ĠwhichĠ": 3015,
      "ï¼Įå¦Ĥ": 3016,
      "å´": 3017,
      "medi": 3018,
      "ifĠ(": 3019,
      "çłģ": 3020,
      "setĠ": 3021,
      "åĽ°": 3022,
      "**ĊĊ": 3023,
      "calcul": 3024,
      "çĶ°": 3025,
      "meric": 3026,
      "show": 3027,
      "foundĠ": 3028,
      "åıĳæĮ¥": 3029,
      "data": 3030,
      "********": 3031,
      "æĶ»": 3032,
      "justĠ": 3033,
      "method": 3034,
      "ID": 3035,
      "div": 3036,
      "è®¨": 3037,
      "éĻįä½İ": 3038,
      "pli": 3039,
      "è¾ĳ": 3040,
      "seeĠ": 3041,
      "sĠaĠ": 3042,
      "cop": 3043,
      "tro": 3044,
      "çĪ±": 3045,
      "2}": 3046,
      "chem": 3047,
      "energ": 3048,
      "sym": 3049,
      "findĠ": 3050,
      "è®¤è¯Ĩ": 3051,
      "è§Ħæ¨¡": 3052,
      "ä»¥ä¸Ĭ": 3053,
      "å³": 3054,
      "åıĸå¾Ĺ": 3055,
      "éĵģ": 3056,
      "specif": 3057,
      "è½»": 3058,
      "çĬ¶æĢģ": 3059,
      "Americ": 3060,
      "sta": 3061,
      "YouĠ": 3062,
      "s.ĠTheĠ": 3063,
      ").": 3064,
      "hasĠbeenĠ": 3065,
      "ingĠandĠ": 3066,
      "ric": 3067,
      "çĶµåŃĲ": 3068,
      "name": 3069,
      "ä¸ļåĬ¡": 3070,
      "mark": 3071,
      "Ph": 3072,
      "ä¸ĢåĪĩ": 3073,
      "ence": 3074,
      "äººæīį": 3075,
      "æĮĩå¯¼": 3076,
      "viron": 3077,
      "evenĠ": 3078,
      "abilityĠ": 3079,
      "åºĬ": 3080,
      "åıĬåħ¶": 3081,
      "cir": 3082,
      "çī©è´¨": 3083,
      "ance": 3084,
      "åĪ»": 3085,
      "è¿Ľåħ¥": 3086,
      "givenĠ": 3087,
      "å¾ª": 3088,
      "regi": 3089,
      "sit": 3090,
      "ature": 3091,
      "ater": 3092,
      ">Ċ": 3093,
      "ermin": 3094,
      "èµĽ": 3095,
      "è´¸": 3096,
      "alsĠ": 3097,
      ".Ġ(": 3098,
      "33": 3099,
      "verĠ": 3100,
      "inv": 3101,
      "Sh": 3102,
      "foreĠ": 3103,
      "æĭŁ": 3104,
      "dro": 3105,
      "éĶĻ": 3106,
      "led": 3107,
      "æĸ¹åĲĳ": 3108,
      "éĵ¶è¡Į": 3109,
      "gu": 3110,
      "è®¼": 3111,
      "}Ċ": 3112,
      "çļĦãĢĤ": 3113,
      "åŁºåĽł": 3114,
      "reĠ": 3115,
      "å¾©": 3116,
      "ww": 3117,
      "threeĠ": 3118,
      "èģĶç½ĳ": 3119,
      "ItĠ": 3120,
      "Se": 3121,
      "back": 3122,
      "æ³Ľ": 3123,
      "orderĠ": 3124,
      "è¯Ńè¨Ģ": 3125,
      "atureĠ": 3126,
      "ef": 3127,
      "éĥ½æĺ¯": 3128,
      "herĠ": 3129,
      "putĠ": 3130,
      "äº¿": 3131,
      "æĦıè¯Ĩ": 3132,
      "8.": 3133,
      "åĶĲ": 3134,
      "ç«ŀäºī": 3135,
      "çĹĽ": 3136,
      "utionĠ": 3137,
      "åĩıå°ĳ": 3138,
      "byĠtheĠ": 3139,
      "äºĨè§£": 3140,
      "time": 3141,
      "çĶ¨æĪ·": 3142,
      "æĮīçħ§": 3143,
      "FĠ": 3144,
      "contain": 3145,
      "çľ¼": 3146,
      "éĿŀå¸¸": 3147,
      "åĲ¯": 3148,
      "éª¨": 3149,
      "éĩįå¤§": 3150,
      "sour": 3151,
      "Ser": 3152,
      "ash": 3153,
      "sequ": 3154,
      "flu": 3155,
      "type": 3156,
      "sam": 3157,
      "doc": 3158,
      "äººä»¬": 3159,
      "æłĳ": 3160,
      "Fig": 3161,
      "includeĠ": 3162,
      "æŀĦå»º": 3163,
      "Po": 3164,
      "åį´": 3165,
      "tainĠ": 3166,
      "edĠaĠ": 3167,
      "æĬ¥åĳĬ": 3168,
      "arr": 3169,
      "åıįåºĶ": 3170,
      "some": 3171,
      "è¯īè®¼": 3172,
      "ingsĠ": 3173,
      "ationĠandĠ": 3174,
      "è¿Ĳè¡Į": 3175,
      "å°ĩ": 3176,
      "importantĠ": 3177,
      "**Ġ": 3178,
      "Ap": 3179,
      "No": 3180,
      "indĠ": 3181,
      "tran": 3182,
      "ä¿ĿéĻ©": 3183,
      "æİªæĸ½": 3184,
      "haveĠbeenĠ": 3185,
      "45": 3186,
      "éĿł": 3187,
      "éĩıçļĦ": 3188,
      "å°Ĭ": 3189,
      "owever,Ġ": 3190,
      "åıĤèĢĥ": 3191,
      "ä¿Ŀè¯ģ": 3192,
      "applic": 3193,
      "åĪĽéĢł": 3194,
      "çļĩ": 3195,
      "æĹ¥æľ¬": 3196,
      "ity,Ġ": 3197,
      "organ": 3198,
      "äºĮåįģ": 3199,
      "2020": 3200,
      "nolog": 3201,
      "problem": 3202,
      "äººï¼Į": 3203,
      "èĽĭ": 3204,
      "èĦĳ": 3205,
      "lit": 3206,
      "ä¹ħ": 3207,
      "è£ģ": 3208,
      "æĩī": 3209,
      "ç»Ŀ": 3210,
      "å®ľ": 3211,
      "ä¸°": 3212,
      "ç»ıéªĮ": 3213,
      "knownĠ": 3214,
      "willĠbeĠ": 3215,
      "emberĠ": 3216,
      "entlyĠ": 3217,
      "Wi": 3218,
      "loo": 3219,
      "illi": 3220,
      "amet": 3221,
      "âĢĿãĢĤ": 3222,
      "mag": 3223,
      "commun": 3224,
      "åĽ½åĨħ": 3225,
      "Ma": 3226,
      "IC": 3227,
      "('": 3228,
      "èĨľ": 3229,
      ");ĊĠĠĠĠ": 3230,
      "8å¹´": 3231,
      "è¯¯": 3232,
      "äº¡": 3233,
      "åºĶè¯¥": 3234,
      "çĳ": 3235,
      "å§Ķåĳĺ": 3236,
      "bor": 3237,
      "èĩªå·±çļĦ": 3238,
      "æĢ§ï¼Į": 3239,
      "ç»ĦæĪĲ": 3240,
      "çĪ¶": 3241,
      "çŃĶ": 3242,
      "||Ġ": 3243,
      "waterĠ": 3244,
      "sci": 3245,
      "åī§": 3246,
      "studi": 3247,
      "AC": 3248,
      "é©¬åħĭ": 3249,
      "cy": 3250,
      "éķ·": 3251,
      "highĠ": 3252,
      "äººåı£": 3253,
      "shi": 3254,
      "prot": 3255,
      "tis": 3256,
      ").Ġ": 3257,
      "åĮĸåŃ¦": 3258,
      "oft": 3259,
      "ask": 3260,
      "mater": 3261,
      "pot": 3262,
      "identi": 3263,
      "æľºåħ³": 3264,
      "å®ĭ": 3265,
      "æĺ¯åľ¨": 3266,
      "word": 3267,
      "ç§ģ": 3268,
      "thoseĠ": 3269,
      "iseĠ": 3270,
      "èĩªçĶ±": 3271,
      "ä»»ä½ķ": 3272,
      "ï¼ģ": 3273,
      "sever": 3274,
      "systemĠ": 3275,
      "çļĦåŁºæľ¬": 3276,
      "Wor": 3277,
      ".Ċ-Ġ": 3278,
      "ber": 3279,
      "hist": 3280,
      "grap": 3281,
      "æľ«": 3282,
      "èĢĥèĻĳ": 3283,
      "éħĴ": 3284,
      "\\\\": 3285,
      "36": 3286,
      "],Ġ": 3287,
      "siveĠ": 3288,
      "group": 3289,
      "cc": 3290,
      "ä½ĵçİ°": 3291,
      "}^{": 3292,
      "çį": 3293,
      "ĉĉĉĉ": 3294,
      "åĲĪçĲĨ": 3295,
      "éī": 3296,
      "(Ġ": 3297,
      "å±ŀäºİ": 3298,
      "Li": 3299,
      "AB": 3300,
      "ç´§": 3301,
      "ç«¥": 3302,
      "arm": 3303,
      "èıĮ": 3304,
      "æ¢Ŀ": 3305,
      "dem": 3306,
      "edĠinĠtheĠ": 3307,
      "èĦ±": 3308,
      "Co": 3309,
      "ä¸¥éĩį": 3310,
      "esĊ": 3311,
      "mustĠ": 3312,
      "1.Ġ": 3313,
      "ftĠ": 3314,
      "inalĠ": 3315,
      "thingĠ": 3316,
      "ood": 3317,
      "xim": 3318,
      "åĨľæĿĳ": 3319,
      "arch": 3320,
      "çŁ£": 3321,
      "la": 3322,
      "odeĠ": 3323,
      "beingĠ": 3324,
      "å¸Į": 3325,
      "sonĠ": 3326,
      "Sp": 3327,
      "followingĠ": 3328,
      ",ĠbutĠ": 3329,
      "inte": 3330,
      "90": 3331,
      "éķ¿æľŁ": 3332,
      "px": 3333,
      "æ··": 3334,
      "muchĠ": 3335,
      "'tĠ": 3336,
      "vic": 3337,
      "cept": 3338,
      "æĢ§åĴĮ": 3339,
      "ali": 3340,
      "Dat": 3341,
      "new": 3342,
      "ç±»åŀĭ": 3343,
      "åħ°": 3344,
      "helpĠ": 3345,
      "sing": 3346,
      "ç¥ĸ": 3347,
      "æķĪæŀľ": 3348,
      "perform": 3349,
      "ateĠtheĠ": 3350,
      "activ": 3351,
      "åĩ½": 3352,
      "éģĩ": 3353,
      "famil": 3354,
      "å¸®": 3355,
      "ank": 3356,
      "reas": 3357,
      "ĊĊãĢĢãĢĢ": 3358,
      "è®¸å¤ļ": 3359,
      "ä¸įåĲĮçļĦ": 3360,
      ");ĊĠĠĠĠĠĠĠĠ": 3361,
      "ace": 3362,
      "æĿŁ": 3363,
      "å¤ı": 3364,
      "\"çļĦ": 3365,
      "ont": 3366,
      "çĽ¸å¯¹": 3367,
      "<Ġ": 3368,
      "æķĪçİĩ": 3369,
      "icro": 3370,
      "leng": 3371,
      "(\\": 3372,
      "æĸĩæĺİ": 3373,
      "electr": 3374,
      "è´«": 3375,
      "è®¢": 3376,
      "ãĢĤåħ¶": 3377,
      "sist": 3378,
      "æĶ¶åħ¥": 3379,
      "çļĦå½±åĵį": 3380,
      "esĊĊ": 3381,
      "ml": 3382,
      "ç¾©": 3383,
      "éĻĪ": 3384,
      "çĶ·": 3385,
      "åŃ¦ç§ĳ": 3386,
      "å¯¹è±¡": 3387,
      "åıªæľī": 3388,
      "å¤įæĿĤ": 3389,
      "RĠ": 3390,
      "lang": 3391,
      "ä¸įä»ħ": 3392,
      "comple": 3393,
      "```": 3394,
      "è»į": 3395,
      "æĺİæĺ¾": 3396,
      "ull": 3397,
      "her": 3398,
      "ï¼ļâĢľ": 3399,
      "dom": 3400,
      "____": 3401,
      "é©¬åħĭæĢĿ": 3402,
      "æĶ¹åıĺ": 3403,
      "é¾Ļ": 3404,
      "æ±¡æŁĵ": 3405,
      "æķ¸": 3406,
      "æĸĩä»¶": 3407,
      "ç§Ł": 3408,
      "ãĢĤåĽłæŃ¤": 3409,
      ".com/": 3410,
      "uni": 3411,
      "ä½ĵçļĦ": 3412,
      "æ±ĩ": 3413,
      "ç¥¨": 3414,
      "one": 3415,
      "by": 3416,
      "path": 3417,
      "ForĠ": 3418,
      "Fi": 3419,
      "è¯Ħä¼°": 3420,
      "plyĠ": 3421,
      "becauseĠ": 3422,
      "çļĦéĹ®é¢ĺ": 3423,
      "å¾ŀ": 3424,
      "æ£Ģæµĭ": 3425,
      "He": 3426,
      "æ®Ĭ": 3427,
      "æĹłæ³ķ": 3428,
      "NĠ": 3429,
      ",ä»¥": 3430,
      "åĶ®": 3431,
      "äº²": 3432,
      "æķĳ": 3433,
      "æŀĦæĪĲ": 3434,
      "èĪª": 3435,
      "Val": 3436,
      "other": 3437,
      "valueĠ": 3438,
      "çĨŁ": 3439,
      "cle": 3440,
      "åį¡": 3441,
      "çĽ®çļĦ": 3442,
      "aff": 3443,
      "å¼±": 3444,
      "éĺ»": 3445,
      "æŃĮ": 3446,
      "contin": 3447,
      "TH": 3448,
      "åıĹåĪ°": 3449,
      "plan": 3450,
      "1-": 3451,
      "tyĠ": 3452,
      "åī¯": 3453,
      "çĻ¼": 3454,
      "è°ĥæķ´": 3455,
      "scri": 3456,
      "å°¤": 3457,
      ",æĺ¯": 3458,
      "æľīçļĦ": 3459,
      "gram": 3460,
      "hand": 3461,
      "orig": 3462,
      "æ©": 3463,
      "çĶ³è¯·": 3464,
      "æ³¨æĦı": 3465,
      "éĴĪå¯¹": 3466,
      "éĮ": 3467,
      "ä¹°": 3468,
      "æ´ĭ": 3469,
      "mentĠofĠ": 3470,
      "AL": 3471,
      "æĹħ": 3472,
      "a.": 3473,
      "mun": 3474,
      "æ¯Ľ": 3475,
      "ä¼ĺåĬ¿": 3476,
      "lif": 3477,
      "æĽ´åĬł": 3478,
      "AP": 3479,
      "ement": 3480,
      ")Ġ=Ġ": 3481,
      "70": 3482,
      "çĽĸ": 3483,
      "64": 3484,
      "We": 3485,
      "ÃĹ": 3486,
      "å®Įåħ¨": 3487,
      "äº¤éĢļ": 3488,
      "i.": 3489,
      "ary": 3490,
      "9.": 3491,
      "On": 3492,
      "æ¸Ĳ": 3493,
      "ãĢĤĊåľ¨": 3494,
      "èµĦæĸĻ": 3495,
      "çĸĳ": 3496,
      "o-": 3497,
      "determin": 3498,
      "çļĦåŁºç¡Ģ": 3499,
      "edĠandĠ": 3500,
      "childr": 3501,
      "Gr": 3502,
      "å¾Īå¤ļ": 3503,
      "analys": 3504,
      ",ĠweĠ": 3505,
      "æĺł": 3506,
      "SE": 3507,
      ".ĠIfĠ": 3508,
      "éĢĶ": 3509,
      "display": 3510,
      "whileĠ": 3511,
      "å·¨": 3512,
      "æĽ´å¤ļ": 3513,
      "è¯´ï¼Į": 3514,
      "7å¹´": 3515,
      "environ": 3516,
      "éĢļå¸¸": 3517,
      "è§£éĩĬ": 3518,
      "é¸": 3519,
      "studyĠ": 3520,
      "è¶ĭ": 3521,
      "é¢¨": 3522,
      "æĪĲæŀľ": 3523,
      "æł·çļĦ": 3524,
      ",ĠaĠ": 3525,
      "mathb": 3526,
      "è¡¨è¾¾": 3527,
      "è·Ŀ": 3528,
      "èĽĭçĻ½": 3529,
      "timesĠ": 3530,
      "åŃ£": 3531,
      "ä»·æł¼": 3532,
      "åª": 3533,
      "measure": 3534,
      "çĤİ": 3535,
      "isĠnotĠ": 3536,
      "========": 3537,
      "æ±ł": 3538,
      "ç»¿èī²": 3539,
      "forĠaĠ": 3540,
      "é¡º": 3541,
      "çģµ": 3542,
      "çĻĮ": 3543,
      "çĭ¬ç«ĭ": 3544,
      "nific": 3545,
      "sĠinĠtheĠ": 3546,
      "çļĦçłĶç©¶": 3547,
      "spe": 3548,
      "æıı": 3549,
      "2,": 3550,
      "squ": 3551,
      "åĬ±": 3552,
      "è¿ĩç¨ĭä¸Ń": 3553,
      "land": 3554,
      "informationĠ": 3555,
      "Per": 3556,
      "ument": 3557,
      "WhenĠ": 3558,
      "æ°¸": 3559,
      "ç¼©": 3560,
      "uceĠ": 3561,
      "takeĠ": 3562,
      "çĺ¤": 3563,
      "pur": 3564,
      "\"Ċ": 3565,
      "æĪĲç«ĭ": 3566,
      "è´·": 3567,
      "æ²Ļ": 3568,
      "éĸĢ": 3569,
      "list": 3570,
      "éĻ½": 3571,
      "term": 3572,
      "éī´": 3573,
      "åħ±äº§": 3574,
      "åĨ·": 3575,
      "5å¹´": 3576,
      "è¿ĲçĶ¨": 3577,
      "wid": 3578,
      "åĪ¶å®ļ": 3579,
      "âĢĺ": 3580,
      "æ¾": 3581,
      ".ĠD": 3582,
      "pointĠ": 3583,
      "onom": 3584,
      "æ°ĳä¸»": 3585,
      "ectionĠ": 3586,
      "åĲİ,": 3587,
      "é»ĳ": 3588,
      "æİĮæı¡": 3589,
      "cour": 3590,
      "çŃ¾": 3591,
      "tot": 3592,
      "prac": 3593,
      "ç¬¦åĲĪ": 3594,
      "åģľ": 3595,
      "ä¸įå¾Ĺ": 3596,
      "èĩªèº«": 3597,
      "1]": 3598,
      "esp": 3599,
      "{Ġ": 3600,
      "çıŃ": 3601,
      "æĢ§ãĢģ": 3602,
      "BĠ": 3603,
      "çĶļèĩ³": 3604,
      "Me": 3605,
      "Im": 3606,
      "è¯Ĭ": 3607,
      "number": 3608,
      "éĢı": 3609,
      ";ĊĠĠ": 3610,
      "del": 3611,
      "èĻ½çĦ¶": 3612,
      "withoutĠ": 3613,
      "edĠwithĠ": 3614,
      "é¦ĸåħĪ": 3615,
      "ationĠofĠtheĠ": 3616,
      "ï½": 3617,
      "ologicalĠ": 3618,
      "start": 3619,
      "æī¾": 3620,
      "å±¥": 3621,
      "ç·": 3622,
      "æĮ¯": 3623,
      "èĻķ": 3624,
      "1å¹´": 3625,
      "ton": 3626,
      "åħ³æ³¨": 3627,
      "éģį": 3628,
      "åģı": 3629,
      "è¿ĺæĺ¯": 3630,
      "æĹ¶,": 3631,
      "åŃĶ": 3632,
      "madeĠ": 3633,
      "(n": 3634,
      "å·¥åħ·": 3635,
      "èĤ¿": 3636,
      "æĢ§èĥ½": 3637,
      "æĮĩåĩº": 3638,
      ".ĠForĠ": 3639,
      "éĦ": 3640,
      "ger": 3641,
      "2019": 3642,
      "çĽ¸äºĴ": 3643,
      "|Ċ": 3644,
      "ä¼¯": 3645,
      "ãĢĤæŃ¤": 3646,
      "èµĦéĩĳ": 3647,
      "process": 3648,
      "doesĠ": 3649,
      "ĊĊTheĠ": 3650,
      "çĸ¾çĹħ": 3651,
      "çİ°è±¡": 3652,
      "å¹¿æ³Ľ": 3653,
      "toĠaĠ": 3654,
      "phys": 3655,
      "æĺ¾ç¤º": 3656,
      "åı¸æ³ķ": 3657,
      "ner": 3658,
      "pat": 3659,
      "ï¼Įå®ĥ": 3660,
      "selec": 3661,
      "RO": 3662,
      "impro": 3663,
      "æīįèĥ½": 3664,
      "tsĠ": 3665,
      "exper": 3666,
      "åįģäºĮ": 3667,
      "å½¼": 3668,
      "this.": 3669,
      "çĽĳçĿ£": 3670,
      "o,Ġ": 3671,
      "pap": 3672,
      "atorĠ": 3673,
      "ä¿ĿæĮģ": 3674,
      "consider": 3675,
      "1/": 3676,
      "you": 3677,
      ".ĠAĠ": 3678,
      "6å¹´": 3679,
      "Licen": 3680,
      "ç³»åĪĹ": 3681,
      "æĹ¥ï¼Į": 3682,
      "æ¹ĸ": 3683,
      "ãĢĤãĢį": 3684,
      "è½¯ä»¶": 3685,
      "Op": 3686,
      "uĠ": 3687,
      ";ĊimportĠ": 3688,
      "åįıè®®": 3689,
      "åı¥": 3690,
      "éļĲ": 3691,
      ".ĊĊTheĠ": 3692,
      "éĩįè¦ģçļĦ": 3693,
      "å¢ŀå¼º": 3694,
      "scho": 3695,
      "(3": 3696,
      "ustr": 3697,
      "è®¾æĸ½": 3698,
      "use": 3699,
      "ĠĠĠĠĠ": 3700,
      "==Ġ": 3701,
      "ç§°ä¸º": 3702,
      "æī¿æĭħ": 3703,
      "èªª": 3704,
      "åİĤ": 3705,
      "åĪĨåĪ«": 3706,
      "èĥľ": 3707,
      "0,Ġ": 3708,
      "ï¼Įä»İèĢĮ": 3709,
      "å¼ºè°ĥ": 3710,
      "ç´¯": 3711,
      "ros": 3712,
      "åĪĨåŃĲ": 3713,
      "\\frac{": 3714,
      "åķĨä¸ļ": 3715,
      "åľ°ä½į": 3716,
      "signific": 3717,
      "å¿ĥçĲĨ": 3718,
      "scal": 3719,
      "://": 3720,
      "æİ¢ç´¢": 3721,
      "etherĠ": 3722,
      "faceĠ": 3723,
      "grow": 3724,
      "ism": 3725,
      "},": 3726,
      "answ": 3727,
      "',Ġ": 3728,
      "popul": 3729,
      "adv": 3730,
      "æ»¡è¶³": 3731,
      "ograp": 3732,
      "alityĠ": 3733,
      "aut": 3734,
      "åĨħéĥ¨": 3735,
      "æĢĿç»´": 3736,
      "âĹ": 3737,
      "è´¢äº§": 3738,
      "presentĠ": 3739,
      "çİī": 3740,
      "tak": 3741,
      "åĪĨä¸º": 3742,
      "associ": 3743,
      "è´¸æĺĵ": 3744,
      "viewĠ": 3745,
      "enceĠofĠ": 3746,
      "çī©çļĦ": 3747,
      "åĪĨå¸ĥ": 3748,
      "treat": 3749,
      "éĻĨ": 3750,
      ".ĠN": 3751,
      "åĶ¯": 3752,
      "aredĠ": 3753,
      "åĳĪ": 3754,
      "ï¼Įä¸Ģ": 3755,
      "FigureĠ": 3756,
      "2å¹´": 3757,
      "aĊ": 3758,
      "åĮĹäº¬": 3759,
      "ĉĉĉ": 3760,
      "34": 3761,
      "ï¼Įåı¯ä»¥": 3762,
      "norm": 3763,
      "ç¡¬": 3764,
      "æ¡Īä»¶": 3765,
      "èŀįåĲĪ": 3766,
      "ç»į": 3767,
      "energyĠ": 3768,
      "ï¼Įå°Ĩ": 3769,
      "tion,Ġ": 3770,
      "çİ°å®ŀ": 3771,
      "çļĦä¸»è¦ģ": 3772,
      "eĠofĠtheĠ": 3773,
      "sĠwereĠ": 3774,
      "ç¬Ķ": 3775,
      "ä¾Ŀæį®": 3776,
      "å¯Ĵ": 3777,
      "ä¸´åºĬ": 3778,
      "éĻĲåĪ¶": 3779,
      "es.": 3780,
      "that": 3781,
      "æľªæĿ¥": 3782,
      "åĩ½æķ°": 3783,
      "ä¿¡åı·": 3784,
      "conver": 3785,
      "leg": 3786,
      "åıĭ": 3787,
      "artic": 3788,
      "otĠ": 3789,
      "knowĠ": 3790,
      "http://": 3791,
      "ä¾§": 3792,
      "å¯¦": 3793,
      "character": 3794,
      "ä»ģ": 3795,
      "ãĢĤèĢĮ": 3796,
      "ĠĠĠĠĠĠ": 3797,
      "ç¯ĩ": 3798,
      "avail": 3799,
      "Rec": 3800,
      "ç»´æĬ¤": 3801,
      "al,Ġ": 3802,
      "modelĠ": 3803,
      "äºĭä»¶": 3804,
      "æĺ¯ä¸Ģä¸ª": 3805,
      "artĠ": 3806,
      "åħ¼": 3807,
      "prote": 3808,
      "Jo": 3809,
      "need": 3810,
      "longĠ": 3811,
      "çĽĳç®¡": 3812,
      "onĠaĠ": 3813,
      "imag": 3814,
      "èĶ": 3815,
      "10.": 3816,
      "æŃ¸": 3817,
      "thoughĠ": 3818,
      "åı¶": 3819,
      "çļĦå¤§": 3820,
      "ignĠ": 3821,
      "çĬ¯ç½ª": 3822,
      "æīĭæ®µ": 3823,
      "éĩĩåıĸ": 3824,
      "dra": 3825,
      "æ£ĢæŁ¥": 3826,
      "åĲī": 3827,
      "gg": 3828,
      "sen": 3829,
      "ãĥ": 3830,
      "èĢ³": 3831,
      "æł¹æľ¬": 3832,
      "long": 3833,
      "å½ĵäºĭ": 3834,
      "ableĠtoĠ": 3835,
      "ingĠofĠ": 3836,
      "æĺ¯æĮĩ": 3837,
      "med": 3838,
      "99": 3839,
      "To": 3840,
      "20Ġ": 3841,
      "åŃ¸": 3842,
      "ä¹īåĬ¡": 3843,
      "è¯ģæĺİ": 3844,
      "nowĠ": 3845,
      "VĠ": 3846,
      "æµĭè¯ķ": 3847,
      "å¼ķèµ·": 3848,
      "bar": 3849,
      "èĢħçļĦ": 3850,
      "thin": 3851,
      "èĩªåĬ¨": 3852,
      "ç§ĭ": 3853,
      "ryĠ": 3854,
      "æ±½": 3855,
      "ç½ļ": 3856,
      "æĬµ": 3857,
      "ï¼ĽĊ": 3858,
      "æķ´ä½ĵ": 3859,
      "actionĠ": 3860,
      "å¥ĸ": 3861,
      "æľĢç»Ī": 3862,
      "e,ĠandĠ": 3863,
      "den": 3864,
      "ek": 3865,
      "icallyĠ": 3866,
      "èģĶç³»": 3867,
      "ru": 3868,
      "åªĴ": 3869,
      "priv": 3870,
      "E_": 3871,
      "HowĠ": 3872,
      "è¯¸": 3873,
      "æħ§": 3874,
      "non-": 3875,
      "Vi": 3876,
      "ãģ": 3877,
      "ç²Ĵ": 3878,
      "çī©çĲĨ": 3879,
      "èģĶåĲĪ": 3880,
      "lowĠ": 3881,
      "å¸®åĬ©": 3882,
      "ãĢĢãĢĢãĢĢ": 3883,
      "ä»ª": 3884,
      "å·Ŀ": 3885,
      "è§ĦåĪĻ": 3886,
      "ei": 3887,
      "ĊĠĠĠĠĠĠĠĠĠĠĠĠĠĠĠĠĠĠĠĠĠĠĠĠ": 3888,
      "åĮ»çĸĹ": 3889,
      "æ¥ļ": 3890,
      "é¼ĵ": 3891,
      "é£ŀ": 3892,
      "3å¹´": 3893,
      "éĽ¶": 3894,
      "åĸľ": 3895,
      "air": 3896,
      "dueĠ": 3897,
      "çļĦæĸ°": 3898,
      "az": 3899,
      "ly,Ġ": 3900,
      "bra": 3901,
      "32": 3902,
      "don": 3903,
      "åĮĸãĢģ": 3904,
      ")ĊĠĠĠĠ": 3905,
      "radi": 3906,
      "æŃ£ç¡®": 3907,
      "æİ¥åıĹ": 3908,
      "encyĠ": 3909,
      "####Ġ": 3910,
      "////": 3911,
      "è¶ħè¿ĩ": 3912,
      "æĪĲåĬŁ": 3913,
      "bit": 3914,
      "æĿ±": 3915,
      "classĠ": 3916,
      "å¥Ĺ": 3917,
      "oftenĠ": 3918,
      "bil": 3919,
      "sĠwithĠ": 3920,
      "US": 3921,
      "æĿ¾": 3922,
      "tiesĠ": 3923,
      "äºĭå®ŀ": 3924,
      "roll": 3925,
      "researchĠ": 3926,
      "åĵ²": 3927,
      "è´§å¸ģ": 3928,
      "Mod": 3929,
      "æľĢé«ĺ": 3930,
      "rele": 3931,
      "ä¾Ŀæ³ķ": 3932,
      ".ĠP": 3933,
      "åŃ¦çĶŁçļĦ": 3934,
      "uro": 3935,
      "åº§": 3936,
      "3,Ġ": 3937,
      "es.Ċ": 3938,
      "å¿ħè¦ģ": 3939,
      "éĩİ": 3940,
      "å§Ķåĳĺä¼ļ": 3941,
      "çľ¾": 3942,
      "åĲİçļĦ": 3943,
      ".ĠC": 3944,
      "ie": 3945,
      "aveĠ": 3946,
      "æĦ¿": 3947,
      "NewĠ": 3948,
      "37": 3949,
      "åĬĽçļĦ": 3950,
      "ION": 3951,
      "äºĴèģĶç½ĳ": 3952,
      ",åħ¶": 3953,
      "useĠofĠ": 3954,
      "needĠtoĠ": 3955,
      "åĪĨç±»": 3956,
      "color": 3957,
      "éĤ£ä¹Ī": 3958,
      "ress": 3959,
      "å¹´ä»£": 3960,
      "specificĠ": 3961,
      "(C": 3962,
      "oldĠ": 3963,
      "velyĠ": 3964,
      "ded": 3965,
      "lead": 3966,
      "000Ġ": 3967,
      "ç®Ģåįķ": 3968,
      "complet": 3969,
      "èĤĿ": 3970,
      "åĪ¸": 3971,
      "åĵª": 3972,
      "è®¡ç®Ĺæľº": 3973,
      "è·¨": 3974,
      "syn": 3975,
      "indic": 3976,
      "è¡¨æĺİ": 3977,
      "å®ļä¹ī": 3978,
      "ç»ıè¿ĩ": 3979,
      "èģŀ": 3980,
      "map": 3981,
      ":\"": 3982,
      "æľŁéĹ´": 3983,
      "ough": 3984,
      "æ¶īåıĬ": 3985,
      "æ³ķãĢĭ": 3986,
      "comput": 3987,
      "YĠ": 3988,
      "èµĶ": 3989,
      "everyĠ": 3990,
      "file": 3991,
      "195": 3992,
      "II": 3993,
      "Cont": 3994,
      "çĲĨå¿µ": 3995,
      "åĪº": 3996,
      "ç¬¬åĽĽ": 3997,
      "12Ġ": 3998,
      "ectiveĠ": 3999,
      "centr": 4000,
      "dig": 4001,
      "Man": 4002,
      "tillĠ": 4003,
      "åĲ¬": 4004,
      "tionalĠ": 4005,
      "ä½ľåĵģ": 4006,
      "ç³»ç»ŁçļĦ": 4007,
      "åºŁ": 4008,
      "è¯´æĺİ": 4009,
      "æ·±åħ¥": 4010,
      "individ": 4011,
      "vesĠ": 4012,
      "éĢĤåºĶ": 4013,
      "æķ°åŃ¦": 4014,
      "ç³ĸ": 4015,
      "isĠanĠ": 4016,
      "prob": 4017,
      "ally,Ġ": 4018,
      "stateĠ": 4019,
      "ä¼Ł": 4020,
      "reduc": 4021,
      "diff": 4022,
      "ç¦ģ": 4023,
      "æĮĩæłĩ": 4024,
      "AS": 4025,
      "çĨ±": 4026,
      "å»ºè®®": 4027,
      "å½ĵåīį": 4028,
      "ï¼Įå°±": 4029,
      "ç¥ŀç»ı": 4030,
      "Ob": 4031,
      "ç¼ĵ": 4032,
      "report": 4033,
      "omet": 4034,
      "èĭ¦": 4035,
      "æķ´ä¸ª": 4036,
      "e(": 4037,
      "poly": 4038,
      "ä½ĵåĪ¶": 4039,
      ",ĠandĠtheĠ": 4040,
      "åĩºçīĪ": 4041,
      ".ĠWeĠ": 4042,
      "åĦ¿ç«¥": 4043,
      "sw": 4044,
      "observ": 4045,
      "constĠ": 4046,
      "}_{": 4047,
      "2-": 4048,
      "èŃ¦": 4049,
      "åĪĺ": 4050,
      "pack": 4051,
      "éĴ¢": 4052,
      "æ½ľ": 4053,
      "ä¸Ģæĸ¹éĿ¢": 4054,
      "ä¸įè¶³": 4055,
      "EC": 4056,
      "mayĠbeĠ": 4057,
      "begin": 4058,
      "4å¹´": 4059,
      "caseĠ": 4060,
      "è¯ģæį®": 4061,
      "ectedĠ": 4062,
      "issu": 4063,
      "exist": 4064,
      "0,": 4065,
      "usedĠtoĠ": 4066,
      "ideĠ": 4067,
      "overn": 4068,
      "è°Ī": 4069,
      "})": 4070,
      "ä»ĭç»į": 4071,
      "langu": 4072,
      "ai": 4073,
      "éĢŁåº¦": 4074,
      "39": 4075,
      "erĠandĠ": 4076,
      "éĸĵ": 4077,
      "dayĠ": 4078,
      "ï¼ĮæĪĳä»¬": 4079,
      "éľ²": 4080,
      "ç»©": 4081,
      "s)Ġ": 4082,
      "å¡ŀ": 4083,
      "ES": 4084,
      "initi": 4085,
      "clos": 4086,
      "cus": 4087,
      "æ¢°": 4088,
      "è¦ģç´ł": 4089,
      "collec": 4090,
      "ä¼ĺåĮĸ": 4091,
      "edĠasĠ": 4092,
      "è°ĥæŁ¥": 4093,
      "åķĨåĵģ": 4094,
      "effici": 4095,
      "bri": 4096,
      "edĠforĠ": 4097,
      "erc": 4098,
      "åİļ": 4099,
      "includingĠ": 4100,
      "know": 4101,
      "humanĠ": 4102,
      "è°ĵ": 4103,
      "ãĢĲ": 4104,
      "éĽ¨": 4105,
      "num": 4106,
      "natur": 4107,
      "ä¾ĽåºĶ": 4108,
      "e,ĠtheĠ": 4109,
      "Ċĉĉĉ": 4110,
      "è´¢æĶ¿": 4111,
      "ãĢĳ": 4112,
      "æ²¿": 4113,
      "196": 4114,
      "=>Ġ": 4115,
      "èĲ¬": 4116,
      "å¯¸": 4117,
      "GĠ": 4118,
      "head": 4119,
      "æĬĳ": 4120,
      "æıĲä¾ĽäºĨ": 4121,
      "é¦Ĩ": 4122,
      "çĽ¸åºĶ": 4123,
      "cĠ": 4124,
      "ular": 4125,
      "Sol": 4126,
      "chec": 4127,
      "Ċ(": 4128,
      "âĢĻtĠ": 4129,
      "rowĠ": 4130,
      "ä¼ļè®®": 4131,
      "38": 4132,
      "æľĪï¼Į": 4133,
      "!Ġ": 4134,
      "ä¸°å¯Į": 4135,
      "æĢ§ãĢĤ": 4136,
      "çĽŁ": 4137,
      "èĤº": 4138,
      "invol": 4139,
      "smallĠ": 4140,
      "ä½ľèĢħ": 4141,
      ".ĠAl": 4142,
      "stor": 4143,
      "ï¼ĮåĽłæŃ¤": 4144,
      "ç»§ç»Ń": 4145,
      "goodĠ": 4146,
      "action": 4147,
      "Ab": 4148,
      "methodĠ": 4149,
      "åĿı": 4150,
      ",ä»İ": 4151,
      "manĠ": 4152,
      "varĠ": 4153,
      "largeĠ": 4154,
      "ç½²": 4155,
      "allow": 4156,
      ".ĠL": 4157,
      "areaĠ": 4158,
      "èĤī": 4159,
      "cover": 4160,
      "educ": 4161,
      "è§¦": 4162,
      "beforeĠ": 4163,
      "çĶŁåĳ½": 4164,
      "åħ©": 4165,
      "å®¶åºŃ": 4166,
      "åĳ¼": 4167,
      ".ĠE": 4168,
      "å¸«": 4169,
      "Dis": 4170,
      "manag": 4171,
      "éĿĻ": 4172,
      "shipĠ": 4173,
      "çĦ¶èĢĮ": 4174,
      "again": 4175,
      "ost": 4176,
      "link": 4177,
      "cr": 4178,
      "ç§Ģ": 4179,
      "åĿĢ": 4180,
      "severalĠ": 4181,
      "aroundĠ": 4182,
      "bur": 4183,
      "ben": 4184,
      "Tim": 4185,
      "çļĦ\"": 4186,
      "y-": 4187,
      "voidĠ": 4188,
      "èĢĹ": 4189,
      "æĦıè§ģ": 4190,
      "groupĠ": 4191,
      "ï¼Įå¤§": 4192,
      "targ": 4193,
      "thes": 4194,
      "ç¾¤ä¼Ĺ": 4195,
      "äººå·¥": 4196,
      "æĽ¿": 4197,
      "åŃ¦éĻ¢": 4198,
      "çī¹æ®Ĭ": 4199,
      "éĺħ": 4200,
      "ï¼ĮâĢľ": 4201,
      "éģİ": 4202,
      "åĢºåĬ¡": 4203,
      "æ¢ģ": 4204,
      "localĠ": 4205,
      "asĠwellĠ": 4206,
      "å²ģ": 4207,
      "äººæ°ĳæ³ķéĻ¢": 4208,
      "ä¹ı": 4209,
      ",è¿Ļ": 4210,
      "tĠtheĠ": 4211,
      "sinceĠ": 4212,
      "å±Ĭ": 4213,
      "çĩĥ": 4214,
      "è´Łè´£": 4215,
      "åĬĽéĩı": 4216,
      ").ĊĊ": 4217,
      "intoĠtheĠ": 4218,
      "....": 4219,
      "secondĠ": 4220,
      "ĊâĢ¢Ġ": 4221,
      "open": 4222,
      ",ä¹Ł": 4223,
      "Or": 4224,
      "mor": 4225,
      "ä¼łæĴŃ": 4226,
      "book": 4227,
      "å®½": 4228,
      "è®¿": 4229,
      "backĠ": 4230,
      "relatedĠ": 4231,
      "direct": 4232,
      "esĠthatĠ": 4233,
      "å¿«éĢŁ": 4234,
      ".S": 4235,
      "å·®å¼Ĥ": 4236,
      "æĮĳ": 4237,
      "Inter": 4238,
      "çİ°ä»£åĮĸ": 4239,
      "å¤ľ": 4240,
      "åŃ©": 4241,
      "75": 4242,
      "ĠĠĊ": 4243,
      "åĿĲ": 4244,
      "commonĠ": 4245,
      "ä½ľåĩº": 4246,
      "å¼ķå¯¼": 4247,
      "åĬłå¿«": 4248,
      "System": 4249,
      "ä¼Ĭ": 4250,
      "there": 4251,
      "æ¹¾": 4252,
      "çļĦæĥħåĨµ": 4253,
      "underĠtheĠ": 4254,
      "value": 4255,
      "haveĠaĠ": 4256,
      "distribu": 4257,
      "ä¹¡æĿĳ": 4258,
      "åĵĪ": 4259,
      "èĸ©": 4260,
      "ç§¦": 4261,
      "Pr": 4262,
      "éģ¿åħį": 4263,
      "194": 4264,
      "resour": 4265,
      "For": 4266,
      "æĸĩåŃ¦": 4267,
      "formul": 4268,
      "emĠ": 4269,
      ".ĊĠ": 4270,
      ".ĠHeĠ": 4271,
      "pp": 4272,
      "prof": 4273,
      "æĺ¯ä¸Ģç§į": 4274,
      "echan": 4275,
      "å°º": 4276,
      "åĨ³çŃĸ": 4277,
      "ä¸īä¸ª": 4278,
      "field": 4279,
      "ä¸ŃåĽ½çī¹èī²": 4280,
      "1)Ġ": 4281,
      "Id": 4282,
      "post": 4283,
      "æĭ¥": 4284,
      "ä½³": 4285,
      "oveĠ": 4286,
      "old": 4287,
      "key": 4288,
      "||": 4289,
      "æģ©": 4290,
      "å²Ľ": 4291,
      "çİ°åľ¨": 4292,
      "å®Ŀ": 4293,
      "å±¥è¡Į": 4294,
      "ä¼ļè®¡": 4295,
      "èĢĮè¨Ģ": 4296,
      "çĽĽ": 4297,
      "mainĠ": 4298,
      "æ¯Ķå¦Ĥ": 4299,
      "ç¤¼": 4300,
      "æĢ§è´¨": 4301,
      "0.0": 4302,
      "æĹ¶åĢĻ": 4303,
      "ç¾ħ": 4304,
      "å¥ĩ": 4305,
      "è¶£": 4306,
      "äºĭä¸ļ": 4307,
      "èľ": 4308,
      "ï¼Įåı¯": 4309,
      "OĠ": 4310,
      "possibleĠ": 4311,
      "CD": 4312,
      "s,ĠtheĠ": 4313,
      "index": 4314,
      "MP": 4315,
      "{ĊĠĠĠĠ": 4316,
      "ä¹ĺ": 4317,
      "ricĠ": 4318,
      "éĢĤçĶ¨": 4319,
      "ãĢĤĊï¼Ī": 4320,
      "en,Ġ": 4321,
      "ismĠ": 4322,
      "åİŁçĲĨ": 4323,
      "è§Ħå¾ĭ": 4324,
      "Coun": 4325,
      "At": 4326,
      "temper": 4327,
      "edĠthatĠ": 4328,
      "éĢ²": 4329,
      "ickĠ": 4330,
      "åĪĨéħį": 4331,
      "å§ĵ": 4332,
      "stillĠ": 4333,
      "åĩĿ": 4334,
      "es/": 4335,
      "mit": 4336,
      "\\[": 4337,
      "è¯ķéªĮ": 4338,
      "ï¼ĮéĢļè¿ĩ": 4339,
      "erĠofĠ": 4340,
      "ç¹ģ": 4341,
      ".get": 4342,
      "å®ĥä»¬": 4343,
      "æħ¢": 4344,
      "è½®": 4345,
      "æķı": 4346,
      "2010": 4347,
      "æĪı": 4348,
      "mem": 4349,
      "åĨĮ": 4350,
      "è¯ĳ": 4351,
      "ä»²": 4352,
      "å½ĵäºĭäºº": 4353,
      "é¡¾": 4354,
      "çīĮ": 4355,
      "config": 4356,
      "åĨł": 4357,
      "å¹ħ": 4358,
      "çŃīãĢĤ": 4359,
      "éģĤ": 4360,
      "åĭĴ": 4361,
      "é«ĺåº¦": 4362,
      "healthĠ": 4363,
      "ott": 4364,
      "è¡¨éĿ¢": 4365,
      "zer": 4366,
      "æľĢå¤§": 4367,
      "éĹ»": 4368,
      "æķ°éĩı": 4369,
      "represent": 4370,
      "partĠ": 4371,
      "æľĥ": 4372,
      "æĨ": 4373,
      "--Ġ": 4374,
      "æŃ£å¸¸": 4375,
      "foc": 4376,
      "æĪĺäºī": 4377,
      "-Ċ": 4378,
      "AmericanĠ": 4379,
      "simil": 4380,
      "s(": 4381,
      "sq": 4382,
      "2.Ġ": 4383,
      "çĽ¾": 4384,
      "testĠ": 4385,
      "åħ±äº§åħļ": 4386,
      "showĠ": 4387,
      "fal": 4388,
      "éĢ»": 4389,
      "çīĽ": 4390,
      "[@B": 4391,
      "circ": 4392,
      "well": 4393,
      "ingĊ": 4394,
      "ï¼Įæķħ": 4395,
      "è¦Ĩ": 4396,
      "succ": 4397,
      "è®¾ç½®": 4398,
      "ä¹Ļ": 4399,
      "æ¯ıä¸ª": 4400,
      "æĹ§": 4401,
      "éĽĨä¸Ń": 4402,
      "person": 4403,
      "è¿ģ": 4404,
      "æļ´": 4405,
      "éĹ®é¢ĺçļĦ": 4406,
      "é©¬åħĭæĢĿä¸»ä¹ī": 4407,
      "imp": 4408,
      "italĠ": 4409,
      "dic": 4410,
      "è´µ": 4411,
      "ated": 4412,
      "amoun": 4413,
      "any": 4414,
      "tig": 4415,
      "48": 4416,
      "atic": 4417,
      "èĪ¹": 4418,
      "ä¸Ĭæµ·": 4419,
      "fur": 4420,
      "åįģä¸Ģ": 4421,
      "è¿ĺæľī": 4422,
      "å¹¼": 4423,
      "æĬĢèĥ½": 4424,
      "æĬĺ": 4425,
      "sureĠ": 4426,
      "æ°§åĮĸ": 4427,
      "ãĢĤå¦Ĥ": 4428,
      "åĩ¡": 4429,
      "jo": 4430,
      "çĴ": 4431,
      "pass": 4432,
      "sĠorĠ": 4433,
      "Sci": 4434,
      "Be": 4435,
      "fieldĠ": 4436,
      "problemĠ": 4437,
      "allĠtheĠ": 4438,
      "åıįæĺł": 4439,
      "æĿ¥æºĲ": 4440,
      "äºĨä¸Ģ": 4441,
      "../": 4442,
      "åľ¨äºİ": 4443,
      "4,Ġ": 4444,
      "comeĠ": 4445,
      "è´¯": 4446,
      "æĦĪ": 4447,
      "currentĠ": 4448,
      "å©ļ": 4449,
      "æľīéĻĲ": 4450,
      "${": 4451,
      "ship": 4452,
      "ï¼Įåħ¶ä¸Ń": 4453,
      "æ³ķè§Ħ": 4454,
      "è¡ĮåĬ¨": 4455,
      "çĥĪ": 4456,
      "çĽĺ": 4457,
      "é¤ĺ": 4458,
      "shouldĠbeĠ": 4459,
      "ert": 4460,
      "èĴĻ": 4461,
      "å®¹æĺĵ": 4462,
      "ilyĠ": 4463,
      "\\d": 4464,
      "atis": 4465,
      "æ¸©åº¦": 4466,
      "user": 4467,
      "diag": 4468,
      "ä¾¯": 4469,
      "Cre": 4470,
      "Us": 4471,
      "æĸĩçĮ®": 4472,
      "å¥¥": 4473,
      "ditionalĠ": 4474,
      "å®«": 4475,
      "mightĠ": 4476,
      "plement": 4477,
      "æĺ¯ä¸Ģ": 4478,
      "dy": 4479,
      "æľīæľº": 4480,
      "è®Ńç»ĥ": 4481,
      "å¹´çļĦ": 4482,
      "help": 4483,
      "practic": 4484,
      "-0": 4485,
      "cordingĠ": 4486,
      "require": 4487,
      "experi": 4488,
      "ures": 4489,
      "ä½įç½®": 4490,
      "on,Ġ": 4491,
      "éĢ»è¾ĳ": 4492,
      "åĬ¨åĬĽ": 4493,
      "æ°ĳäºĭ": 4494,
      "Dec": 4495,
      "æĶ¯ä»ĺ": 4496,
      "é¦Ļæ¸¯": 4497,
      "ploy": 4498,
      ".ĠĊĊ": 4499,
      "micro": 4500,
      "ortĠ": 4501,
      "ç¢į": 4502,
      "bodyĠ": 4503,
      "itor": 4504,
      "calledĠ": 4505,
      "io": 4506,
      "äº¤æµģ": 4507,
      "technolog": 4508,
      "mot": 4509,
      "æĿĥçļĦ": 4510,
      "åĢį": 4511,
      "çŁĽ": 4512,
      "éģĵè·¯": 4513,
      "estim": 4514,
      "éĻ·": 4515,
      "$$Ġ": 4516,
      "æĭĵ": 4517,
      "æ¶µ": 4518,
      "af": 4519,
      "ç®Ĺæ³ķ": 4520,
      "cellĠ": 4521,
      "Engl": 4522,
      "youĠcanĠ": 4523,
      "\"\"": 4524,
      "org/": 4525,
      "éĹľ": 4526,
      "åĪ°äºĨ": 4527,
      "sĊCategory:": 4528,
      "è§Ĵåº¦": 4529,
      "âĪĴ": 4530,
      "ä¿Ĺ": 4531,
      "è½¬åŀĭ": 4532,
      "bro": 4533,
      "aĠh": 4534,
      "çĽ¸åĲĮ": 4535,
      "sheĠ": 4536,
      "ofĊ": 4537,
      "plant": 4538,
      "Pre": 4539,
      "é¥°": 4540,
      ",å¯¹": 4541,
      "æĶ¹åĸĦ": 4542,
      "ç»Łè®¡": 4543,
      "åįıè°ĥ": 4544,
      "element": 4545,
      "bookĠ": 4546,
      "Stat": 4547,
      "åĽ¢éĺŁ": 4548,
      "ä¸ĭçļĦ": 4549,
      "les": 4550,
      "æľºåĻ¨": 4551,
      "è«ĭ": 4552,
      "IP": 4553,
      "åıĬæĹ¶": 4554,
      "è´¥": 4555,
      "paramet": 4556,
      "esĠ(": 4557,
      "å½¢æĢģ": 4558,
      "stre": 4559,
      "æĭĽ": 4560,
      "fiedĠ": 4561,
      "åĵ²åŃ¦": 4562,
      "5,Ġ": 4563,
      "é©±": 4564,
      "dri": 4565,
      "soc": 4566,
      "78": 4567,
      "èĥĮæĻ¯": 4568,
      "alg": 4569,
      "åĤ³": 4570,
      "effect": 4571,
      "å±ĭ": 4572,
      "åĪ©äºİ": 4573,
      "ptĠ": 4574,
      "ç¨®": 4575,
      "Fe": 4576,
      "totalĠ": 4577,
      "amp": 4578,
      "å°¤åħ¶": 4579,
      "uteĠ": 4580,
      "List": 4581,
      "çĶĺ": 4582,
      "ä¼¦": 4583,
      "è§ĤçĤ¹": 4584,
      "Gre": 4585,
      "èį¯çī©": 4586,
      "æ²ī": 4587,
      "rect": 4588,
      "åĪ¤æĸŃ": 4589,
      "èµĶåģ¿": 4590,
      "contri": 4591,
      "maj": 4592,
      "è§Ĥå¯Ł": 4593,
      "><": 4594,
      "vect": 4595,
      "privateĠ": 4596,
      "const": 4597,
      "å¹³è¡¡": 4598,
      "éģµ": 4599,
      "entalĠ": 4600,
      "Mo": 4601,
      "ä¸ĭéĻį": 4602,
      "erg": 4603,
      "æĺ¾èĳĹ": 4604,
      "object": 4605,
      "èĤ¿çĺ¤": 4606,
      "Bu": 4607,
      "ä¸ģ": 4608,
      "changeĠ": 4609,
      "ia": 4610,
      "9å¹´": 4611,
      "æĸ¹éĿ¢çļĦ": 4612,
      "åĴĮåĽ½": 4613,
      "sĠonĠ": 4614,
      "]\\": 4615,
      "yĠtoĠ": 4616,
      "havi": 4617,
      "è¯¾åłĤ": 4618,
      "fo": 4619,
      "æįŁå¤±": 4620,
      "oneĠofĠtheĠ": 4621,
      "è½¬ç§»": 4622,
      "contro": 4623,
      "ich": 4624,
      "material": 4625,
      "éħįç½®": 4626,
      "ireĠ": 4627,
      "çĸı": 4628,
      "éĢĲæ¸Ĳ": 4629,
      "èµĸ": 4630,
      "è¿ŀæİ¥": 4631,
      "ç£ģ": 4632,
      ",ĠS": 4633,
      "å¤ļç§į": 4634,
      "return": 4635,
      "rece": 4636,
      "environment": 4637,
      "canc": 4638,
      "å½ĵæĹ¶": 4639,
      "ï¼ŁĊ": 4640,
      "studentsĠ": 4641,
      "compon": 4642,
      "ED": 4643,
      "èĤĮ": 4644,
      "tenĠ": 4645,
      "å¾ªçİ¯": 4646,
      "è¸": 4647,
      "çŁĽçĽ¾": 4648,
      "load": 4649,
      "experim": 4650,
      "çĹħæ¯Ĵ": 4651,
      "atelyĠ": 4652,
      "combin": 4653,
      "æĽ°ï¼ļãĢĮ": 4654,
      "publish": 4655,
      "finalĠ": 4656,
      "ä¸ĭ,": 4657,
      "ä¸Ĭè¿°": 4658,
      "frequ": 4659,
      "åįĸ": 4660,
      "æº¶": 4661,
      "variousĠ": 4662,
      "design": 4663,
      "yĊ": 4664,
      ":Ġ\"": 4665,
      "åħįçĸ«": 4666,
      "ï¼ĮåıĪ": 4667,
      "wantĠ": 4668,
      "equalĠ": 4669,
      "å¡Ķ": 4670,
      "å¤§éĩı": 4671,
      "å¤ĸéĥ¨": 4672,
      "aver": 4673,
      "æįŁå®³": 4674,
      "refer": 4675,
      "in-": 4676,
      "ä¸¤ç§į": 4677,
      "ecti": 4678,
      "matri": 4679,
      "s.ĠTh": 4680,
      "å¾Ģå¾Ģ": 4681,
      "String": 4682,
      "æĥł": 4683,
      "esĠaĠ": 4684,
      "staticĠ": 4685,
      "æĢ§,": 4686,
      "ç¡®ä¿Ŀ": 4687,
      "èİ«": 4688,
      "å·¥èīº": 4689,
      "extr": 4690,
      "åĨľæ°ĳ": 4691,
      "ä¸ºä¸»": 4692,
      "continu": 4693,
      "lay": 4694,
      ".ĠTheyĠ": 4695,
      "è¶ĭåĬ¿": 4696,
      "å®ģ": 4697,
      "ï¼ĮåĲĮæĹ¶": 4698,
      "éĩįè§Ĩ": 4699,
      "åı¬": 4700,
      "ianĠ": 4701,
      "es,ĠandĠ": 4702,
      "çļĦæĸ¹æ³ķ": 4703,
      "ï¼ĮçĶ±": 4704,
      "rĠ": 4705,
      "éģĵå¾·": 4706,
      "åĬª": 4707,
      "string": 4708,
      "down": 4709,
      "is,Ġ": 4710,
      "è£Ĥ": 4711,
      "éĽ·": 4712,
      "è¡£": 4713,
      "ADD": 4714,
      "å¾¡": 4715,
      "çº·": 4716,
      "æµĭéĩı": 4717,
      "vent": 4718,
      "true": 4719,
      "relation": 4720,
      "ï¼Įè¦ģ": 4721,
      "0x": 4722,
      "ä¸¹": 4723,
      "çŃĸçķ¥": 4724,
      "2)Ġ": 4725,
      "éŁ³ä¹Ĳ": 4726,
      "integr": 4727,
      "unĠ": 4728,
      "ereĠareĠ": 4729,
      "å¤Ħäºİ": 4730,
      "æ±½è½¦": 4731,
      "mak": 4732,
      "aĠandĠ": 4733,
      "mm": 4734,
      "levelĠ": 4735,
      "æģ¶": 4736,
      "ç¿»": 4737,
      "UnitedĠ": 4738,
      "çľŁæŃ£": 4739,
      "gres": 4740,
      "çļĦä¸Ģä¸ª": 4741,
      "childrenĠ": 4742,
      "edĠonĠ": 4743,
      "è¿Ľç¨ĭ": 4744,
      "ãĢĤä»İ": 4745,
      "55": 4746,
      "è¾ħ": 4747,
      "ĊĠĠĠĠĠĠĠĠĠĠĠĠĠĠĠĠĠĠĠĠ": 4748,
      "html": 4749,
      "ograph": 4750,
      "å¤ļæķ°": 4751,
      "train": 4752,
      "Ã©": 4753,
      "ä¸ĢãĢģ": 4754,
      "displaysty": 4755,
      "åŁ¹è®Ń": 4756,
      "çĦ¶åĲİ": 4757,
      "Ge": 4758,
      "waysĠ": 4759,
      "ditionĠ": 4760,
      "wom": 4761,
      "å¡ĳ": 4762,
      "çĪ²": 4763,
      "cos": 4764,
      "èĩªä¸»": 4765,
      "ç«ĭæ³ķ": 4766,
      "èı©": 4767,
      "æ³½": 4768,
      "lastĠ": 4769,
      "èķ": 4770,
      "ession": 4771,
      "zĠ": 4772,
      "angleĠ": 4773,
      "ernĠ": 4774,
      "typeĠ": 4775,
      "sideĠ": 4776,
      "åİĭåĬĽ": 4777,
      "åŃĺåĤ¨": 4778,
      "å³°": 4779,
      "Ne": 4780,
      "æ¶¦": 4781,
      "factor": 4782,
      "å¹³åĿĩ": 4783,
      "2021": 4784,
      "size": 4785,
      "queĠ": 4786,
      "é¹": 4787,
      "print": 4788,
      "å½©": 4789,
      "program": 4790,
      "æľºæ¢°": 4791,
      "cat": 4792,
      "cm": 4793,
      "åŃ¦æľ¯": 4794,
      "valĠ": 4795,
      "ãĢĤĊ(": 4796,
      "betweenĠtheĠ": 4797,
      "bus": 4798,
      "ãĤ": 4799,
      "anotherĠ": 4800,
      "éļĶ": 4801,
      "åĬłå·¥": 4802,
      "useĠtheĠ": 4803,
      "è§Ģ": 4804,
      "Er": 4805,
      "ä¸įä¼ļ": 4806,
      "PC": 4807,
      "placeĠ": 4808,
      "thub": 4809,
      "los": 4810,
      "mechan": 4811,
      "nameĠ": 4812,
      "Ver": 4813,
      "æľ¬èº«": 4814,
      "andĊ": 4815,
      "à¤": 4816,
      "ram": 4817,
      "downĠ": 4818,
      "Bas": 4819,
      "æĳ©": 4820,
      "çŁ¿": 4821,
      "æĻºæħ§": 4822,
      "åŃ©åŃĲ": 4823,
      "ron": 4824,
      "neg": 4825,
      "1}{": 4826,
      "Ed": 4827,
      "åį«çĶŁ": 4828,
      "éĻ¤äºĨ": 4829,
      "æķĻæİĪ": 4830,
      "graph": 4831,
      "shownĠ": 4832,
      "å¼Ł": 4833,
      "tleĠ": 4834,
      "èµ·æĿ¥": 4835,
      "æĮĳæĪĺ": 4836,
      "ansĠ": 4837,
      "å®¢æĪ·": 4838,
      "44": 4839,
      "teach": 4840,
      "mess": 4841,
      "duringĠ": 4842,
      "discus": 4843,
      "æ¯ķ": 4844,
      "letĠ": 4845,
      "ç«łĠ": 4846,
      "rateĠ": 4847,
      "è¯·æ±Ĥ": 4848,
      "ä¹ĭåīį": 4849,
      "è¯ĨåĪ«": 4850,
      "RESS": 4851,
      "Pol": 4852,
      "mus": 4853,
      "oughtĠ": 4854,
      "esĠforĠ": 4855,
      "æī©å¤§": 4856,
      "è«ĸ": 4857,
      "åĮħåĲ«": 4858,
      "è¥¿æĸ¹": 4859,
      "ä¼ĳ": 4860,
      "$$\\": 4861,
      "world": 4862,
      "ç§ĺ": 4863,
      "åĽ½æ°ĳ": 4864,
      "èĩªæĪĳ": 4865,
      "code": 4866,
      ".h": 4867,
      "provideĠ": 4868,
      "parti": 4869,
      "lik": 4870,
      "è°±": 4871,
      "30Ġ": 4872,
      "åįģåħ«": 4873,
      "count": 4874,
      "theyĠareĠ": 4875,
      "ï¼ĮèĢĮä¸Ķ": 4876,
      "å¯»": 4877,
      "èħ¹": 4878,
      ".ĠTheseĠ": 4879,
      "}=": 4880,
      "clas": 4881,
      "bestĠ": 4882,
      "Type": 4883,
      "èĥ¡": 4884,
      "health": 4885,
      ")=": 4886,
      "^2": 4887,
      "tog": 4888,
      "è®¨è®º": 4889,
      "èĮ¶": 4890,
      "sugg": 4891,
      "æĿĢ": 4892,
      ";ĊĠĠĠĠĠĠĠĠ": 4893,
      "sĠisĠ": 4894,
      "sor": 4895,
      "èĹ¥": 4896,
      "landĠ": 4897,
      "æīİ": 4898,
      "intro": 4899,
      "}Ġ\\": 4900,
      "line": 4901,
      "detail": 4902,
      "æĢİ": 4903,
      "éĿ¢ä¸´": 4904,
      "_ADD": 4905,
      "lat": 4906,
      "äºĮãĢģ": 4907,
      "ten": 4908,
      "çŀ": 4909,
      "éĢĨ": 4910,
      "goĠ": 4911,
      "åįģåĽĽ": 4912,
      "](https://": 4913,
      "event": 4914,
      "ä¼ģä¸ļçļĦ": 4915,
      "çº¯": 4916,
      "fewĠ": 4917,
      "è¿«": 4918,
      "è¿Ľè¡ĮäºĨ": 4919,
      "åħģ": 4920,
      ");Ġ": 4921,
      "thereĠareĠ": 4922,
      "é³": 4923,
      "Name": 4924,
      "è¯¢": 4925,
      "didĠ": 4926,
      "åĳ¨æľŁ": 4927,
      "ĊĊ##Ġ": 4928,
      "github": 4929,
      "eitherĠ": 4930,
      "1Ċ": 4931,
      "æĻĤï¼Į": 4932,
      "yingĠ": 4933,
      "å®ı": 4934,
      "åľ£": 4935,
      "toĠre": 4936,
      ";Ċĉ": 4937,
      "è½¬åıĺ": 4938,
      "3-": 4939,
      "ï¼īãĢģ": 4940,
      "ä¸ŃåĽ½çī¹èī²ç¤¾ä¼ļä¸»ä¹ī": 4941,
      "degre": 4942,
      "sĠfromĠ": 4943,
      "rc": 4944,
      "order": 4945,
      "teĠ": 4946,
      "moreĠthanĠ": 4947,
      "CH": 4948,
      "termĠ": 4949,
      "vedĠ": 4950,
      "ä¼´": 4951,
      "æĹĹ": 4952,
      "venĠ": 4953,
      "å¸¦æĿ¥": 4954,
      "çĻ»è®°": 4955,
      ">ĊĠĠĠĠĠĠĠĠ": 4956,
      "Nor": 4957,
      "ï¼ĮåĪĻ": 4958,
      "æ´Ľ": 4959,
      "é¦¬": 4960,
      "controlĠ": 4961,
      "æĹħæ¸¸": 4962,
      "è®°å½ķ": 4963,
      "XĠ": 4964,
      "åŁºéĩĳ": 4965,
      "_ADDRESS": 4966,
      "éĴ±": 4967,
      "è¿ĳå¹³": 4968,
      "a-": 4969,
      "say": 4970,
      "è®¤å®ļ": 4971,
      "æī¶": 4972,
      "describ": 4973,
      "ï¼Įä»¥åıĬ": 4974,
      "å°±ä¸ļ": 4975,
      "ä¹łè¿ĳå¹³": 4976,
      "å¼¹": 4977,
      "veĠtheĠ": 4978,
      "web": 4979,
      "çĽ¡": 4980,
      "Cent": 4981,
      "èĢĮä¸į": 4982,
      "fourĠ": 4983,
      "anim": 4984,
      "align": 4985,
      "aboveĠ": 4986,
      "çİ¯èĬĤ": 4987,
      "æ¯Ķä¾ĭ": 4988,
      "w.": 4989,
      "æ£®": 4990,
      "resultĠ": 4991,
      "è°¢": 4992,
      "èĭ±åĽ½": 4993,
      "åĩºçļĦ": 4994,
      ".\"": 4995,
      "interest": 4996,
      "åıĮæĸ¹": 4997,
      "associatedĠ": 4998,
      "æĬ½": 4999,
      "åħ±äº«": 5000,
      "æ¨Ĥ": 5001,
      "66": 5002,
      "earlyĠ": 5003,
      "happ": 5004,
      "å®ª": 5005,
      "content": 5006,
      "nalĠ": 5007,
      "patientsĠ": 5008,
      "ä¿Ħ": 5009,
      "æ¤įçī©": 5010,
      "åĨħçļĦ": 5011,
      "éĤ¦": 5012,
      "yearĠ": 5013,
      "propos": 5014,
      "é«ĺçļĦ": 5015,
      "åĩĨç¡®": 5016,
      "é¢Ħæµĭ": 5017,
      "Not": 5018,
      "èĦĤ": 5019,
      "æģ¢": 5020,
      "åħ·å¤ĩ": 5021,
      "ground": 5022,
      "å¸Ń": 5023,
      "le,Ġ": 5024,
      "èĤ¥": 5025,
      "ogen": 5026,
      "æĿ¥çľĭ": 5027,
      "EMA": 5028,
      "grad": 5029,
      "AM": 5030,
      "é²ľ": 5031,
      "ä¸ĺ": 5032,
      "hear": 5033,
      "âĢ¦âĢ¦": 5034,
      "opĠ": 5035,
      "acti": 5036,
      "æ¡£": 5037,
      "ste": 5038,
      "flow": 5039,
      "learningĠ": 5040,
      "ers,Ġ": 5041,
      "ç»ĺ": 5042,
      "positiveĠ": 5043,
      "hal": 5044,
      "powerĠ": 5045,
      "nes": 5046,
      "2000": 5047,
      "èµĭ": 5048,
      "ï¼ĮĠ": 5049,
      "æµģç¨ĭ": 5050,
      "ä¸Ģæ¬¡": 5051,
      "çºł": 5052,
      "amb": 5053,
      "ï¼ĮæīĢä»¥": 5054,
      "çīĻ": 5055,
      "å¿ł": 5056,
      "å¹¶ä¸į": 5057,
      "çģ¾": 5058,
      "govern": 5059,
      "çĶ¨çļĦ": 5060,
      "æĤī": 5061,
      "(S": 5062,
      "åįģä¸ī": 5063,
      "akĠ": 5064,
      "è¡°": 5065,
      "åħ±åĴĮåĽ½": 5066,
      "sĠ[": 5067,
      ".ĠT": 5068,
      "èŀįèµĦ": 5069,
      "condition": 5070,
      "super": 5071,
      "å¤©ä¸ĭ": 5072,
      "åķı": 5073,
      "ĠĠĠĠĠĠĠĠĠĠĠĠ": 5074,
      "æ¡¥": 5075,
      "',": 5076,
      "urĠ": 5077,
      "3,": 5078,
      "ãĢĤĊãĢĢãĢĢ": 5079,
      "againstĠ": 5080,
      "behavi": 5081,
      "è´¡": 5082,
      "æ¡Ĩ": 5083,
      "å°į": 5084,
      "æĪĲåĳĺ": 5085,
      "å¥ī": 5086,
      "æ¡Īä¾ĭ": 5087,
      "underst": 5088,
      "CT": 5089,
      "er.": 5090,
      "aboutĠtheĠ": 5091,
      "edĠfromĠ": 5092,
      "æ¥Ń": 5093,
      "èģ²": 5094,
      "è¾©": 5095,
      "ç¼ºä¹ı": 5096,
      "Car": 5097,
      "amongĠ": 5098,
      "ä¸Ģèĩ´": 5099,
      "çĽĳæµĭ": 5100,
      "NO": 5101,
      "çŃ¹": 5102,
      "lengthĠ": 5103,
      "çļĦè¿ĩç¨ĭ": 5104,
      "s)": 5105,
      "åıĤæķ°": 5106,
      "ĊTheĠ": 5107,
      "57": 5108,
      "ä¸ĵå®¶": 5109,
      "construc": 5110,
      "betterĠ": 5111,
      "æĿ¥èĩª": 5112,
      "jav": 5113,
      "é¾Ħ": 5114,
      "å®ŀè¡Į": 5115,
      ",ĠorĠ": 5116,
      "è¯º": 5117,
      "ç¦®": 5118,
      "econom": 5119,
      "ä¸»åĬ¨": 5120,
      "ç±į": 5121,
      ",ĠM": 5122,
      "previ": 5123,
      "çī¹åĪ«æĺ¯": 5124,
      "éĽĦ": 5125,
      "/**": 5126,
      "å¼ºåĮĸ": 5127,
      "author": 5128,
      "å¤ļä¸ª": 5129,
      "åħ¨éĥ¨": 5130,
      "she": 5131,
      "yearsĠ": 5132,
      "*ĊĊ": 5133,
      "èĢĲ": 5134,
      "dimen": 5135,
      "servic": 5136,
      "ET": 5137,
      "ç¸£": 5138,
      "light": 5139,
      "conn": 5140,
      "ä¸ĵåĪ©": 5141,
      "æĻ®éģį": 5142,
      "].ĊĊ": 5143,
      "éĺ¶çº§": 5144,
      "é¡¶": 5145,
      "ç¼ĺ": 5146,
      "æĢ»ä½ĵ": 5147,
      "èĪį": 5148,
      "å®Įæķ´": 5149,
      "es.ĊĊ": 5150,
      "orith": 5151,
      "å®¢è§Ĥ": 5152,
      "æ³ķæ²»": 5153,
      "èį£": 5154,
      "tionĠofĠtheĠ": 5155,
      "èĲ½å®ŀ": 5156,
      "åıĳå¸ĥ": 5157,
      "rt": 5158,
      "qual": 5159,
      "occur": 5160,
      "lightĠ": 5161,
      "æııè¿°": 5162,
      "ref=\"": 5163,
      "sil": 5164,
      "æĴĳ": 5165,
      "diseas": 5166,
      "array": 5167,
      "activeĠ": 5168,
      "}ĊĊĠĠĠĠ": 5169,
      "analysisĠ": 5170,
      "æĸĩç«ł": 5171,
      "çĦ¦": 5172,
      "éĢĴ": 5173,
      "bir": 5174,
      "éĥ¡": 5175,
      "èĤ¡ä¸ľ": 5176,
      "æĿ¥è¶Ĭ": 5177,
      "é¡µ": 5178,
      "15Ġ": 5179,
      "sĠ=Ġ": 5180,
      "è½¬åĮĸ": 5181,
      "centur": 5182,
      "åĲ¾": 5183,
      "everĠ": 5184,
      "æľĢåĲİ": 5185,
      "å°¿": 5186,
      "glob": 5187,
      "è§Ĥå¿µ": 5188,
      "åĹ": 5189,
      "å¥ı": 5190,
      "ä¿±": 5191,
      "éĢļä¿¡": 5192,
      "çļĦãĢĬ": 5193,
      "edĠtoĠtheĠ": 5194,
      "åįĴ": 5195,
      "leftĠ": 5196,
      "é«Ķ": 5197,
      "qĠ": 5198,
      "necess": 5199,
      "soft": 5200,
      "Gu": 5201,
      "pon": 5202,
      "è·Ł": 5203,
      "èĪŀ": 5204,
      "ockĠ": 5205,
      "æ§": 5206,
      "item": 5207,
      "ç©¿": 5208,
      "çļĦæĸ¹å¼ı": 5209,
      "æľ¬æĸĩ": 5210,
      "è¶ĬæĿ¥è¶Ĭ": 5211,
      "g/": 5212,
      "å½»": 5213,
      "Test": 5214,
      ")Ġ{ĊĠĠĠĠĠĠĠĠ": 5215,
      "EMAIL": 5216,
      "Ste": 5217,
      "éĢĲæŃ¥": 5218,
      "æ½®": 5219,
      "åľĨ": 5220,
      ".ĠHowever,Ġ": 5221,
      "limit": 5222,
      "æ®ĸ": 5223,
      "ä¼ı": 5224,
      "çļĦæķ°æį®": 5225,
      "ä¸Ĭ,": 5226,
      "äºĮæĺ¯": 5227,
      "Â°": 5228,
      "æĢĿèĢĥ": 5229,
      "esĠofĠtheĠ": 5230,
      "sal": 5231,
      "Des": 5232,
      "æľīæīĢ": 5233,
      "()Ġ": 5234,
      "èı¯": 5235,
      "tor": 5236,
      "æĻļ": 5237,
      "greatĠ": 5238,
      "ç°": 5239,
      "caus": 5240,
      "fre": 5241,
      "EMAIL_ADDRESS": 5242,
      "é½Ĳ": 5243,
      "ä¸Ģå®ļçļĦ": 5244,
      "0000": 5245,
      "numbersĠ": 5246,
      "tilĠ": 5247,
      "hasĠaĠ": 5248,
      "çĵ¦": 5249,
      "research": 5250,
      "eval": 5251,
      "eĠthatĠ": 5252,
      "é½Ĭ": 5253,
      "æŃ£åľ¨": 5254,
      "e.Ġ": 5255,
      "æİĴæĶ¾": 5256,
      "æµĵ": 5257,
      "consist": 5258,
      "se,Ġ": 5259,
      "dou": 5260,
      "65": 5261,
      "table": 5262,
      "éĺħè¯»": 5263,
      "py": 5264,
      "ä¹ĭï¼Į": 5265,
      "éĹ®é¢ĺï¼Į": 5266,
      "æľ±": 5267,
      "åĢºæĿĥ": 5268,
      "å£¤": 5269,
      "\",Ġ\"": 5270,
      "è¯ĬæĸŃ": 5271,
      "é±": 5272,
      "å±Ĥæ¬¡": 5273,
      "æ³°": 5274,
      "Joh": 5275,
      "cro": 5276,
      "æģ¢å¤į": 5277,
      "ÂłÂłÂłÂłÂłÂłÂłÂł": 5278,
      "6,Ġ": 5279,
      "CP": 5280,
      "))": 5281,
      "å¾Ĵ": 5282,
      "ç¨±": 5283,
      "ä»¥æĿ¥": 5284,
      "åĽ¾åĥı": 5285,
      "å±ĤéĿ¢": 5286,
      "#includeĠ": 5287,
      "ordin": 5288,
      "çļĦé«ĺ": 5289,
      "æ¥¼": 5290,
      "æµ®": 5291,
      "ä¿¡çĶ¨": 5292,
      "contr": 5293,
      "Indi": 5294,
      "éŃı": 5295,
      "èį·": 5296,
      "keyĠ": 5297,
      "çŁ¥éģĵ": 5298,
      "æĦŁæŁĵ": 5299,
      "æıĲåĩºäºĨ": 5300,
      "CL": 5301,
      "fyĠ": 5302,
      "ingĠinĠ": 5303,
      "project": 5304,
      "95": 5305,
      "ĊĊ###Ġ": 5306,
      "alleng": 5307,
      "åĬªåĬĽ": 5308,
      "ãĢĤå¦Ĥæŀľ": 5309,
      "prec": 5310,
      "ä¹±": 5311,
      "åĩĢ": 5312,
      "oph": 5313,
      "èħĲ": 5314,
      "âĹĭ": 5315,
      "æĹĭ": 5316,
      "higherĠ": 5317,
      "{ĊĠĠĠĠĠĠĠĠ": 5318,
      "ä¸¥æł¼": 5319,
      "establ": 5320,
      "alĊ": 5321,
      "éĽħ": 5322,
      "åįģäºĶ": 5323,
      "Bi": 5324,
      "shap": 5325,
      "ç²ī": 5326,
      ".ĠItĠisĠ": 5327,
      "éĿ¢ç§¯": 5328,
      "&&Ġ": 5329,
      ".ĠAn": 5330,
      "ä¸Ģæĺ¯": 5331,
      "æĶ¯æĴĳ": 5332,
      "1ãĢģ": 5333,
      "11Ġ": 5334,
      "mp": 5335,
      "potentialĠ": 5336,
      "çļĦåİĨåı²": 5337,
      "IM": 5338,
      "çī©æµģ": 5339,
      "har": 5340,
      "ï¼Įä¸İ": 5341,
      "readĠ": 5342,
      "åĨ¬": 5343,
      "å·¦åı³": 5344,
      "ï¼ĮæĪĸ": 5345,
      "éļ¾ä»¥": 5346,
      "ï¼Įè¿ĺ": 5347,
      "fileĠ": 5348,
      "2Ċ": 5349,
      "é£Łåĵģ": 5350,
      "ï¼Įä½Ĩæĺ¯": 5351,
      "volum": 5352,
      "my": 5353,
      "riskĠ": 5354,
      "null": 5355,
      "éĶĢåĶ®": 5356,
      "dev": 5357,
      "è¿Ĳè¾ĵ": 5358,
      "charg": 5359,
      "Bo": 5360,
      "å¦»": 5361,
      "saidĠ": 5362,
      "adi": 5363,
      "support": 5364,
      "istr": 5365,
      ",ä¸º": 5366,
      "]Ċ": 5367,
      "socialĠ": 5368,
      "_{\\": 5369,
      "âĢĻĠ": 5370,
      "æĶ¶çĽĬ": 5371,
      "asĠwellĠasĠ": 5372,
      "ers": 5373,
      "éĽ£": 5374,
      "naturalĠ": 5375,
      "ï¼Įè®©": 5376,
      "gam": 5377,
      "èļ": 5378,
      "æĻ®éĢļ": 5379,
      "PD": 5380,
      "æľ¬è´¨": 5381,
      "assum": 5382,
      "isĠtoĠ": 5383,
      "ï¼ĮåĮħæĭ¬": 5384,
      "è´¹çĶ¨": 5385,
      "æ¬Ĭ": 5386,
      "æĥħå½¢": 5387,
      "æĭ¥æľī": 5388,
      "fric": 5389,
      "å±ħæ°ĳ": 5390,
      ").Ċ": 5391,
      "æ©Ł": 5392,
      "ï¼ĮæĽ´": 5393,
      "çľŁå®ŀ": 5394,
      "iev": 5395,
      "åľ°çĲĨ": 5396,
      "turalĠ": 5397,
      "åıĤåĬł": 5398,
      "Ġ{": 5399,
      "éĹŃ": 5400,
      ".ĠIĠ": 5401,
      "2ãĢģ": 5402,
      "foodĠ": 5403,
      "åĲĪæ³ķ": 5404,
      "availableĠ": 5405,
      "rand": 5406,
      "></": 5407,
      ".ĠR": 5408,
      "è¾Ľ": 5409,
      "cli": 5410,
      "inĠthisĠ": 5411,
      "ga": 5412,
      "Exam": 5413,
      "ç§ĳçłĶ": 5414,
      "æĢ»ç»ĵ": 5415,
      "Set": 5416,
      "è´¦": 5417,
      "error": 5418,
      "icsĠ": 5419,
      "fix": 5420,
      "èĸĦ": 5421,
      "small": 5422,
      "ä¹¦è®°": 5423,
      ",\"": 5424,
      "OS": 5425,
      "çļĦä½ľçĶ¨": 5426,
      "èģĸ": 5427,
      "nos": 5428,
      "The": 5429,
      "çĬ¶åĨµ": 5430,
      "flo": 5431,
      "worldĠ": 5432,
      "æ³¥": 5433,
      "hor": 5434,
      "çļĦè§Ħå®ļ": 5435,
      "çļĦåħ³ç³»": 5436,
      "ä¸ŃåĽ½åħ±äº§åħļ": 5437,
      "PP": 5438,
      "techni": 5439,
      "æĥŁ": 5440,
      ">ĊĠĠĠĠ": 5441,
      "StringĠ": 5442,
      "è®ºæĸĩ": 5443,
      "æ¹¯": 5444,
      "estig": 5445,
      "åķĨæłĩ": 5446,
      "åħĪè¿Ľ": 5447,
      "çĽ¸æ¯Ķ": 5448,
      "æĤ¨": 5449,
      "****************": 5450,
      "è½´": 5451,
      "ankĠ": 5452,
      "æĬ¼": 5453,
      "singleĠ": 5454,
      "åĺī": 5455,
      "UR": 5456,
      "www.": 5457,
      "æī¬": 5458,
      "åįģåħŃ": 5459,
      "åĬ¨çī©": 5460,
      "æķĪåºĶ": 5461,
      "Sec": 5462,
      "èĬĤçĤ¹": 5463,
      "oleĠ": 5464,
      ".j": 5465,
      "tal": 5466,
      "èĥ¶": 5467,
      "é«ĺæł¡": 5468,
      "çģŃ": 5469,
      "åĩºäºĨ": 5470,
      "å¦ĤæŃ¤": 5471,
      "playĠ": 5472,
      "divĠ": 5473,
      "éķľ": 5474,
      "ç²®": 5475,
      "box": 5476,
      "public": 5477,
      "çº¸": 5478,
      "evalu": 5479,
      "`Ġ`": 5480,
      "question": 5481,
      "è¿ħ": 5482,
      "(t": 5483,
      "centĠ": 5484,
      "ãĢĭï¼Į": 5485,
      "éĸĭ": 5486,
      "outhĠ": 5487,
      "å½¹": 5488,
      "m{": 5489,
      "è¯¦": 5490,
      "æ´Ĺ": 5491,
      "çłĶåıĳ": 5492,
      "åĲĦä¸ª": 5493,
      "å¿½": 5494,
      "inceĠ": 5495,
      "Gener": 5496,
      "tu": 5497,
      "obtain": 5498,
      "ä»įçĦ¶": 5499,
      "AG": 5500,
      "æ²Ł": 5501,
      "DE": 5502,
      "ï¼īãĢĤ": 5503,
      "éĽ²": 5504,
      "å¢¨": 5505,
      "èĺ": 5506,
      "é¥®": 5507,
      "%ï¼Į": 5508,
      "æĻ¶": 5509,
      "anceĠofĠ": 5510,
      "distribut": 5511,
      "æłĩå¿Ĺ": 5512,
      "knowled": 5513,
      "åĳ¢": 5514,
      "thatĠisĠ": 5515,
      "doesĠnotĠ": 5516,
      "å«": 5517,
      "second": 5518,
      "alongĠ": 5519,
      "care": 5520,
      "åĬ¨æĢģ": 5521,
      "ç»ķ": 5522,
      "T_": 5523,
      ".ĊĊ##Ġ": 5524,
      "ãĢĢãĢĢãĢĢãĢĢ": 5525,
      "éľĩ": 5526,
      "éĥİ": 5527,
      "åıĳè¡¨": 5528,
      ",åį³": 5529,
      "clu": 5530,
      "è®¤çŁ¥": 5531,
      "ins": 5532,
      "itiesĠ": 5533,
      "mid": 5534,
      "careĠ": 5535,
      "roleĠ": 5536,
      "æ·±åº¦": 5537,
      "generalĠ": 5538,
      "å¤ļæł·": 5539,
      "éĽĸ": 5540,
      "erĠtoĠ": 5541,
      "å¥¹": 5542,
      "understand": 5543,
      "æĹ©æľŁ": 5544,
      "ç´łè´¨": 5545,
      "æ°¢": 5546,
      "è´¢åĬ¡": 5547,
      "easeĠ": 5548,
      "Ind": 5549,
      "...": 5550,
      "freeĠ": 5551,
      "duringĠtheĠ": 5552,
      "As": 5553,
      "atĠaĠ": 5554,
      "47": 5555,
      "example,Ġ": 5556,
      "æĺĮ": 5557,
      "æĬķåħ¥": 5558,
      "bran": 5559,
      "tionĠandĠ": 5560,
      "ï¼Įå®ŀçİ°": 5561,
      "\\right": 5562,
      "uleĠ": 5563,
      "war": 5564,
      "ä½įäºİ": 5565,
      "find": 5566,
      "Lin": 5567,
      "ence,Ġ": 5568,
      "ache": 5569,
      "æĸ°æĹ¶ä»£": 5570,
      "consum": 5571,
      "æĬĢæľ¯çļĦ": 5572,
      "sch": 5573,
      "mut": 5574,
      "é²ģ": 5575,
      "æ´¥": 5576,
      "mal": 5577,
      "itĠwasĠ": 5578,
      "immun": 5579,
      "ORĠ": 5580,
      "è¿¹": 5581,
      "49": 5582,
      "lifeĠ": 5583,
      "åĮ»åŃ¦": 5584,
      "åıªæĺ¯": 5585,
      "untilĠ": 5586,
      "athĠ": 5587,
      "èªŀ": 5588,
      "ct": 5589,
      "areĠtheĠ": 5590,
      "âĨ": 5591,
      "now": 5592,
      "åĪļ": 5593,
      "ookĠ": 5594,
      "deriv": 5595,
      "æ°ĶåĢĻ": 5596,
      "throughĠtheĠ": 5597,
      "wouldĠbeĠ": 5598,
      "organiz": 5599,
      "åŃ¦èĢħ": 5600,
      "è¿Ļæł·": 5601,
      "éħ¶": 5602,
      "é±¼": 5603,
      "Typ": 5604,
      "Pu": 5605,
      "aticĠ": 5606,
      "tool": 5607,
      "æĹ¨": 5608,
      "éĺµ": 5609,
      "ç¬¬äºĶ": 5610,
      "åįģä¹Ŀ": 5611,
      "block": 5612,
      "th,Ġ": 5613,
      "å±¬": 5614,
      "conduc": 5615,
      "{Ċĉĉ": 5616,
      "æ´ģ": 5617,
      "s-": 5618,
      "æ»ĳ": 5619,
      "ĊĠ*": 5620,
      "processĠ": 5621,
      "ä¹³": 5622,
      "ãĢĤå½ĵ": 5623,
      "try": 5624,
      "4)": 5625,
      "åªĴä½ĵ": 5626,
      "æĿĥçĽĬ": 5627,
      "68": 5628,
      "hom": 5629,
      "âĢĿãĢģ": 5630,
      "æķ°æį®åºĵ": 5631,
      "numer": 5632,
      "thumb": 5633,
      "build": 5634,
      "Get": 5635,
      "ĊĊCategory:": 5636,
      "remain": 5637,
      "similarĠ": 5638,
      "]Ġ=Ġ": 5639,
      "agesĠ": 5640,
      "standardĠ": 5641,
      "éĴŁ": 5642,
      "analy": 5643,
      "ä½ĵèĤ²": 5644,
      "_{1": 5645,
      "åħ¸åŀĭ": 5646,
      "lookĠ": 5647,
      "HĠ": 5648,
      "æķ°åŃĹåĮĸ": 5649,
      "hour": 5650,
      "(a": 5651,
      "ations,Ġ": 5652,
      "æ´ŀ": 5653,
      "åĲĮæĹ¶ï¼Į": 5654,
      "iallyĠ": 5655,
      "ï¼Įå¹¶ä¸Ķ": 5656,
      "ouslyĠ": 5657,
      "æĬĳåĪ¶": 5658,
      "èİ·åıĸ": 5659,
      "åŁİéķĩ": 5660,
      "ä¸ĢçĽ´": 5661,
      "3.Ġ": 5662,
      "scienti": 5663,
      "ityĠandĠ": 5664,
      "algorith": 5665,
      "éĻ³": 5666,
      "çĽ¸å½ĵ": 5667,
      "ä¸Ŀ": 5668,
      "çŃīï¼Į": 5669,
      "howĠtoĠ": 5670,
      "UniversityĠofĠ": 5671,
      "mil": 5672,
      "åĢ¾": 5673,
      "molec": 5674,
      "Chin": 5675,
      "DI": 5676,
      "leastĠ": 5677,
      "basedĠonĠ": 5678,
      "è¿ĽæŃ¥": 5679,
      "(M": 5680,
      "\\left": 5681,
      "defa": 5682,
      "å¯º": 5683,
      "approachĠ": 5684,
      "äº§çĶŁçļĦ": 5685,
      "dependentĠ": 5686,
      "åįģåĪĨ": 5687,
      "s_": 5688,
      "ä¸Ģæł·": 5689,
      "éĬ": 5690,
      "offĠ": 5691,
      "region": 5692,
      "æīĢè°ĵ": 5693,
      "æĥ¯": 5694,
      "forc": 5695,
      "è¦ı": 5696,
      "å¥ĭ": 5697,
      "structure": 5698,
      "ä¸»å¼ł": 5699,
      "èĤł": 5700,
      "sumĠ": 5701,
      "NationalĠ": 5702,
      "éĽĨä½ĵ": 5703,
      "éĩĳå±ŀ": 5704,
      "å¸¸è§ģ": 5705,
      "big": 5706,
      ");ĊĠĠĠĠĠĠĠĠĠĠĠĠ": 5707,
      "WithĠ": 5708,
      "ä¸Ģèµ·": 5709,
      "ä¸ŃåĽ½çļĦ": 5710,
      "çĽĲ": 5711,
      "åħ¬å¹³": 5712,
      "åı°æ¹¾": 5713,
      "selfĠ": 5714,
      "è½¨": 5715,
      "åĢĴ": 5716,
      "false": 5717,
      "indow": 5718,
      "æ¬§æ´²": 5719,
      "-2": 5720,
      "thinkĠ": 5721,
      "Resear": 5722,
      "ä»ĸçļĦ": 5723,
      "ah": 5724,
      "çĶµè§Ĩ": 5725,
      ")Ċĉ": 5726,
      "step": 5727,
      "éĶĻè¯¯": 5728,
      "tribut": 5729,
      "oth": 5730,
      "çĶŁæĪĲ": 5731,
      "f{": 5732,
      "åļ": 5733,
      "åĽ°éļ¾": 5734,
      "notĠbeĠ": 5735,
      "hereĠ": 5736,
      "äººæ°ĳåħ±åĴĮåĽ½": 5737,
      "Ġ-Ġ": 5738,
      "gerĠ": 5739,
      "ä¸»ç®¡": 5740,
      "è°·": 5741,
      "é¬": 5742,
      "solutionĠ": 5743,
      "ule": 5744,
      "çĶŁéķ¿": 5745,
      "å®ļä½į": 5746,
      "ies": 5747,
      ",ä¸į": 5748,
      "æµģåĬ¨": 5749,
      "surfaceĠ": 5750,
      "åħ§": 5751,
      "hou": 5752,
      "ili": 5753,
      "èĦı": 5754,
      "åħ¶ä¸Ń": 5755,
      "nextĠ": 5756,
      "Err": 5757,
      "éĩįæĸ°": 5758,
      "ceptĠ": 5759,
      "student": 5760,
      "meanĠ": 5761,
      "æĥ¡": 5762,
      "InĠtheĠ": 5763,
      "Ger": 5764,
      "ä¼Łå¤§": 5765,
      "influ": 5766,
      "éº»": 5767,
      "us,Ġ": 5768,
      "çªģçł´": 5769,
      "äººå·¥æĻºèĥ½": 5770,
      "bol": 5771,
      "requiredĠ": 5772,
      "7,Ġ": 5773,
      ".ĠĠ": 5774,
      "ationĠisĠ": 5775,
      "åºĶå¯¹": 5776,
      "memb": 5777,
      "<EMAIL_ADDRESS": 5778,
      "è¿ŀç»Ń": 5779,
      "çĶµæ±ł": 5780,
      "éĥ½æľī": 5781,
      "d,Ġ": 5782,
      "çªģåĩº": 5783,
      "å´ĩ": 5784,
      "$ĊĊ": 5785,
      "åħ¬å¼Ģ": 5786,
      "sionĠofĠ": 5787,
      "util": 5788,
      "nationalĠ": 5789,
      "src": 5790,
      "al-": 5791,
      "saf": 5792,
      "whetherĠ": 5793,
      "çħ¤": 5794,
      "Au": 5795,
      "bio": 5796,
      "regul": 5797,
      "ern": 5798,
      "Euro": 5799,
      "simpleĠ": 5800,
      "SP": 5801,
      "ç»§æī¿": 5802,
      "åħĥç´ł": 5803,
      "thir": 5804,
      "encesĠ": 5805,
      "lowerĠ": 5806,
      "è´¡çĮ®": 5807,
      "spaceĠ": 5808,
      "çĪĨ": 5809,
      "åŃĻ": 5810,
      "åĪĳäºĭ": 5811,
      "becomeĠ": 5812,
      "e_": 5813,
      "verseĠ": 5814,
      "squareĠ": 5815,
      "aim": 5816,
      "Ques": 5817,
      "ĊĊ**": 5818,
      "æĬĵ": 5819,
      "Bl": 5820,
      "éļľç¢į": 5821,
      "tow": 5822,
      "]\\]": 5823,
      "apterĠ": 5824,
      "100Ġ": 5825,
      "ablyĠ": 5826,
      "createĠ": 5827,
      "sha": 5828,
      "äº§æĿĥ": 5829,
      "askĠ": 5830,
      "sem": 5831,
      "åº¦çļĦ": 5832,
      "setĠofĠ": 5833,
      "è¿İ": 5834,
      "atoryĠ": 5835,
      "åįıåĲĮ": 5836,
      "2]": 5837,
      "8,Ġ": 5838,
      "milli": 5839,
      ",æľī": 5840,
      "è¿Ķ": 5841,
      "ä¸Ńåįİäººæ°ĳåħ±åĴĮåĽ½": 5842,
      "çļĦç¤¾ä¼ļ": 5843,
      "ä¸Ńåįİæ°ĳæĹı": 5844,
      "investig": 5845,
      "æĸ°åŀĭ": 5846,
      "46": 5847,
      "b{": 5848,
      "å¸ĮæľĽ": 5849,
      "ä»İäºĭ": 5850,
      "sourceĠ": 5851,
      "yl": 5852,
      "æ¼¢": 5853,
      "supportĠ": 5854,
      "significantĠ": 5855,
      "whichĠisĠ": 5856,
      ",ä½¿": 5857,
      "æĳĦ": 5858,
      "diffic": 5859,
      "æķĻæĿĲ": 5860,
      "åĮ»éĻ¢": 5861,
      "è®¾ç«ĭ": 5862,
      "(1)": 5863,
      "tonĠ": 5864,
      "mos": 5865,
      "ãĢĤâĢľ": 5866,
      "Fro": 5867,
      "phot": 5868,
      "åĭķ": 5869,
      "å®¡æŁ¥": 5870,
      "ä¸½": 5871,
      "æŃ£å¼ı": 5872,
      "å¼ĥ": 5873,
      "é©±åĬ¨": 5874,
      "æĹłè®º": 5875,
      "æĢĢ": 5876,
      "å¼µ": 5877,
      "æ¨ª": 5878,
      "overĠtheĠ": 5879,
      "æĿ¨": 5880,
      "å¾·åĽ½": 5881,
      "ekĠ": 5882,
      "ä¸īãĢģ": 5883,
      "usingĠtheĠ": 5884,
      "åĦĴ": 5885,
      "èŃ°": 5886,
      "çļĦå·¥ä½ľ": 5887,
      "mathbb{": 5888,
      "usuallyĠ": 5889,
      "duceĠ": 5890,
      "minim": 5891,
      "giveĠ": 5892,
      "2/": 5893,
      "Refer": 5894,
      "tryĠ": 5895,
      "æ·±åĮĸ": 5896,
      "fut": 5897,
      "Is": 5898,
      "def": 5899,
      "éłŃ": 5900,
      "èĥĥ": 5901,
      "ï¼Įå¦Ĥæŀľ": 5902,
      "èĲ¨": 5903,
      "çĥ§": 5904,
      "dueĠtoĠ": 5905,
      "wordĠ": 5906,
      "è¿ĩåİ»": 5907,
      "éĢĶå¾Ħ": 5908,
      "Can": 5909,
      "target": 5910,
      "éģŃ": 5911,
      "ageĠofĠ": 5912,
      "github.com/": 5913,
      "éģ£": 5914,
      "æĸ½å·¥": 5915,
      "25Ġ": 5916,
      "æµ·æ´ĭ": 5917,
      "ook": 5918,
      "åµ": 5919,
      "å¤ĸ,": 5920,
      "åĪ¶ä½ľ": 5921,
      "_{i": 5922,
      "ward": 5923,
      "introduc": 5924,
      "month": 5925,
      "æĹ¦": 5926,
      "Cal": 5927,
      "ä¸¦": 5928,
      "maxim": 5929,
      "å¹¸": 5930,
      "$,Ġ": 5931,
      "(c": 5932,
      "è¥²": 5933,
      "ä¼Ĳ": 5934,
      "dimension": 5935,
      "å²¸": 5936,
      "<divĠ": 5937,
      "iveĠ": 5938,
      "e.g": 5939,
      "æ¹¿": 5940,
      "uaryĠ": 5941,
      "Cor": 5942,
      "--------------------------------": 5943,
      "è¦ª": 5944,
      "è§Ħå®ļçļĦ": 5945,
      "liter": 5946,
      "ush": 5947,
      "çº¤": 5948,
      "è°ĥèĬĤ": 5949,
      "ĊĠĠĠĠĠ*Ġ": 5950,
      "çĽ¸åħ³çļĦ": 5951,
      "âĶ": 5952,
      "å®ĩ": 5953,
      "resist": 5954,
      "ption": 5955,
      ")ĊĠĠĠĠĠĠĠĠ": 5956,
      "(A": 5957,
      "çķ°": 5958,
      "å·¥ä½ľçļĦ": 5959,
      "éłħ": 5960,
      "structureĠ": 5961,
      "æ³¨åĨĮ": 5962,
      "edĊ": 5963,
      "ä¾Ľç»Ļ": 5964,
      "ationsĠofĠ": 5965,
      "fail": 5966,
      "KĠ": 5967,
      "ptionĠ": 5968,
      "alwaysĠ": 5969,
      "text{": 5970,
      "æ®ĭ": 5971,
      "çī¹å®ļ": 5972,
      "è´·æ¬¾": 5973,
      "///Ġ": 5974,
      "eld": 5975,
      "linearĠ": 5976,
      "CC": 5977,
      "åĪĬ": 5978,
      "orderĠtoĠ": 5979,
      "New": 5980,
      "addĠ": 5981,
      "Sim": 5982,
      "challeng": 5983,
      "æ¡Ĩæŀ¶": 5984,
      "lex": 5985,
      "Fl": 5986,
      "ä¸»é¢ĺ": 5987,
      "ok": 5988,
      "æ³ķï¼Į": 5989,
      "æĭľ": 5990,
      "ĊĊĠĠĠĠ": 5991,
      "æĸĩåŃĹ": 5992,
      "learn": 5993,
      "employ": 5994,
      "é«ĺçŃī": 5995,
      "ç¤¾åĮº": 5996,
      "UL": 5997,
      "span": 5998,
      "%%": 5999,
      "å¤§æķ°æį®": 6000,
      "separ": 6001,
      "æģĴ": 6002,
      "è°Ĳ": 6003,
      "resourc": 6004,
      "furtherĠ": 6005,
      "wardĠ": 6006,
      "sens": 6007,
      "åľŁå£¤": 6008,
      "æŃ»äº¡": 6009,
      "ÏĢ": 6010,
      "è¿ĲèĲ¥": 6011,
      "è¢«åĳĬ": 6012,
      "åıĳå±ķï¼Į": 6013,
      "å°½ç®¡": 6014,
      "çĲĨæĥ³": 6015,
      "}{\\": 6016,
      "er-": 6017,
      "himĠ": 6018,
      ";Ċ}ĊĊ": 6019,
      ".ĠButĠ": 6020,
      "alp": 6021,
      "è·¯å¾Ħ": 6022,
      "æķ´åĲĪ": 6023,
      "èĻļæĭŁ": 6024,
      "ãĢĤ\"": 6025,
      "é¼ĵåĬ±": 6026,
      "å®īæİĴ": 6027,
      "originalĠ": 6028,
      "cal{": 6029,
      "æ³¨éĩį": 6030,
      "certainĠ": 6031,
      ".Ġ.Ġ": 6032,
      "aĠ(": 6033,
      "optim": 6034,
      "expect": 6035,
      "atch": 6036,
      "MS": 6037,
      "åī²": 6038,
      ",\"Ġ": 6039,
      "Ro": 6040,
      "nor": 6041,
      "}ĊĠĠĠĠ": 6042,
      "izedĠ": 6043,
      "break": 6044,
      "majorĠ": 6045,
      "++": 6046,
      "ret": 6047,
      "æķ¢": 6048,
      "æı´": 6049,
      "UT": 6050,
      "çĶµå½±": 6051,
      "æ³ķåĽ½": 6052,
      "codeĠ": 6053,
      "æŁ±": 6054,
      "çŃīãĢĤĊ": 6055,
      "correspon": 6056,
      "{ĊĠĠ": 6057,
      "åĲĦç±»": 6058,
      "ä¾Ŀèµĸ": 6059,
      "çĹĩçĬ¶": 6060,
      "vide": 6061,
      "ym": 6062,
      "realĠ": 6063,
      "æ·±åĪ»": 6064,
      "school": 6065,
      "Intern": 6066,
      "ologyĠ": 6067,
      "æīĢå¾Ĺ": 6068,
      "ï¼ĮæŃ¤": 6069,
      "openĠ": 6070,
      "es.ĠTheĠ": 6071,
      "physicalĠ": 6072,
      "å¦Ĥä¸ĭ": 6073,
      "ï¼ĮæıĲé«ĺ": 6074,
      "ä»¿": 6075,
      "åĲ´": 6076,
      "spac": 6077,
      "ren": 6078,
      "äº®": 6079,
      "16Ġ": 6080,
      "(i": 6081,
      "ï¼į": 6082,
      "forceĠ": 6083,
      "çº¦å®ļ": 6084,
      "etc": 6085,
      "åĩĨå¤ĩ": 6086,
      "å¿ħçĦ¶": 6087,
      "é¢Ħéĺ²": 6088,
      "Sub": 6089,
      "conf": 6090,
      "æī°": 6091,
      "maryĠ": 6092,
      "éģĶ": 6093,
      "\\$": 6094,
      "sĠandĠtheĠ": 6095,
      "week": 6096,
      "implement": 6097,
      "istic": 6098,
      "äººä¹ĭ": 6099,
      "approxim": 6100,
      "mathcal{": 6101,
      "\\[[@B": 6102,
      "åīįæıĲ": 6103,
      "æ±Ĺ": 6104,
      "éĺ²æŃ¢": 6105,
      ",000Ġ": 6106,
      "makingĠ": 6107,
      "ä¸»è¦ģæĺ¯": 6108,
      "åĴĮç¤¾ä¼ļ": 6109,
      "ç¯Ģ": 6110,
      "åį±éĻ©": 6111,
      "wantĠtoĠ": 6112,
      "ray": 6113,
      "Int": 6114,
      "éļĨ": 6115,
      "ationĠinĠ": 6116,
      "ision": 6117,
      "readyĠ": 6118,
      "remov": 6119,
      "ç§»åĬ¨": 6120,
      "å¾Ĳ": 6121,
      "æĭħä¿Ŀ": 6122,
      "Î²": 6123,
      "establish": 6124,
      "DN": 6125,
      "åı¤ä»£": 6126,
      "æķ¬": 6127,
      "88": 6128,
      "an,Ġ": 6129,
      "doĠnotĠ": 6130,
      "æ°ĳæ³ķ": 6131,
      "wasĠaĠ": 6132,
      "eta": 6133,
      "clin": 6134,
      "åıªèĥ½": 6135,
      "äººãĢģ": 6136,
      "littleĠ": 6137,
      "($": 6138,
      "Numb": 6139,
      "Key": 6140,
      "æģĲ": 6141,
      "exĠ": 6142,
      "âĸ": 6143,
      "transp": 6144,
      "è·Ŀç¦»": 6145,
      "è½¬æį¢": 6146,
      "ï¼Įä¹Łæĺ¯": 6147,
      "éĽĨåĽ¢": 6148,
      "fullyĠ": 6149,
      "ineer": 6150,
      "åĨĽäºĭ": 6151,
      "network": 6152,
      "ed.Ċ": 6153,
      "HO": 6154,
      "draw": 6155,
      ")$Ġ": 6156,
      "Publ": 6157,
      "divis": 6158,
      "è¾¨": 6159,
      "atedĠbyĠ": 6160,
      "åĲ¸æĶ¶": 6161,
      "UN": 6162,
      "ç»ıæµİåıĳå±ķ": 6163,
      "ä¹Łæľī": 6164,
      "stric": 6165,
      "ç±»ä¼¼": 6166,
      "hydro": 6167,
      "æĪª": 6168,
      "éĺ´": 6169,
      "äºĭåĬ¡": 6170,
      "alle": 6171,
      "devic": 6172,
      "éĺĲ": 6173,
      "å£ģ": 6174,
      "esĠinĠtheĠ": 6175,
      "complexĠ": 6176,
      ",å¦Ĥ": 6177,
      "Cop": 6178,
      "ãĢĤĊâĢľ": 6179,
      "DO": 6180,
      "åĪĽå»º": 6181,
      "åı«": 6182,
      "Med": 6183,
      "sqrt": 6184,
      "çļĦèĥ½åĬĽ": 6185,
      "åı¦ä¸Ģæĸ¹éĿ¢": 6186,
      "äºĭæķħ": 6187,
      "approach": 6188,
      "ç»ĦåĲĪ": 6189,
      "fullĠ": 6190,
      "-3": 6191,
      "isionĠ": 6192,
      "Data": 6193,
      "æĿľ": 6194,
      "ï¼ĮåĽłä¸º": 6195,
      "mustĠbeĠ": 6196,
      "çļĦãĢģ": 6197,
      "(P": 6198,
      "ifĠtheĠ": 6199,
      "åĵªäºĽ": 6200,
      "çľĭåĪ°": 6201,
      "colum": 6202,
      "æŁĲäºĽ": 6203,
      "ä¼łè¾ĵ": 6204,
      "modi": 6205,
      "åĻ¨çļĦ": 6206,
      "stitut": 6207,
      "on-": 6208,
      "æ¼ı": 6209,
      "TR": 6210,
      "æĴ¤": 6211,
      "å¤§å®¶": 6212,
      "*/Ċ": 6213,
      "éĻµ": 6214,
      "å¹´æĿ¥": 6215,
      "çĦī": 6216,
      "æĿĥåĬĽ": 6217,
      "åĬ¡éĻ¢": 6218,
      "åį±æľº": 6219,
      "ç¾İåħĥ": 6220,
      "(B": 6221,
      "nerĠ": 6222,
      "orĠofĠ": 6223,
      "ï¼Įè¿ĻäºĽ": 6224,
      "acros": 6225,
      ":Ġ'": 6226,
      "magne": 6227,
      "åºĨ": 6228,
      "ME": 6229,
      "iousĠ": 6230,
      "</a": 6231,
      "æĶ¶éĽĨ": 6232,
      "ãĢĤè¿ĻäºĽ": 6233,
      "åįķåħĥ": 6234,
      "plas": 6235,
      "fri": 6236,
      "espec": 6237,
      "è´´": 6238,
      "airĠ": 6239,
      "->Ġ": 6240,
      "æĿ¥è¯´": 6241,
      "é¾į": 6242,
      "éĻ¶": 6243,
      "mathr": 6244,
      "å®£ä¼ł": 6245,
      "50Ġ": 6246,
      "å®ŀä½ĵ": 6247,
      "æĦıåĳ³": 6248,
      "Map": 6249,
      "Tech": 6250,
      "ä¹¾": 6251,
      "è¡Ģç®¡": 6252,
      "ÂłĠÂłĠ": 6253,
      "\\n": 6254,
      "diseaseĠ": 6255,
      "unit": 6256,
      "åĶ±": 6257,
      "è¾ĸ": 6258,
      "åĩºåı£": 6259,
      "tag": 6260,
      "åĳĪçİ°": 6261,
      "ãĢĤãĢĬ": 6262,
      "åĽ½å®¶çļĦ": 6263,
      "appe": 6264,
      "receiv": 6265,
      "æ»¿": 6266,
      "ä¿®æĶ¹": 6267,
      "å¤§ä¼ļ": 6268,
      "onstr": 6269,
      "æĬĬæı¡": 6270,
      "whenĠtheĠ": 6271,
      "input": 6272,
      "è¾ĵåħ¥": 6273,
      "ä¾µæĿĥ": 6274,
      "9æľĪ": 6275,
      "åı¯æĮģç»Ń": 6276,
      "thing": 6277,
      "çł´åĿı": 6278,
      "defĠ": 6279,
      "éĮ¢": 6280,
      "rati": 6281,
      "writtenĠ": 6282,
      "Ass": 6283,
      "ä¼¸": 6284,
      "ä¹ĭåĲİ": 6285,
      "Manag": 6286,
      "ãĢĤåĽłæŃ¤ï¼Į": 6287,
      "æ´ª": 6288,
      "å¦Ļ": 6289,
      "åĪ¶éĢłä¸ļ": 6290,
      "æĸ°éĹ»": 6291,
      "ativ": 6292,
      "Up": 6293,
      "root": 6294,
      "DP": 6295,
      "ä¸Ģä½ĵ": 6296,
      "solution": 6297,
      "ï¼Įä¸Ķ": 6298,
      "èµ¤": 6299,
      "ä¾į": 6300,
      "recog": 6301,
      "ç©ºæ°Ķ": 6302,
      "increaseĠ": 6303,
      "00Ġ00Ġ": 6304,
      "bloodĠ": 6305,
      "proces": 6306,
      "busin": 6307,
      "å¹¼åĦ¿": 6308,
      "pan": 6309,
      "View": 6310,
      "ä¸Ńå°ı": 6311,
      "è¿½æ±Ĥ": 6312,
      "èĢķ": 6313,
      "åĽºå®ļ": 6314,
      "æĺ¯ï¼Į": 6315,
      "accur": 6316,
      "æĪĲå°±": 6317,
      "æ¬¢": 6318,
      "startĠ": 6319,
      "åįĩçº§": 6320,
      "_{n": 6321,
      "date": 6322,
      "è½¬è®©": 6323,
      "ifĠyouĠ": 6324,
      "xĠ=Ġ": 6325,
      "thre": 6326,
      "åĮºåĪ«": 6327,
      "ual": 6328,
      "success": 6329,
      "context": 6330,
      "æ¸ł": 6331,
      "æ¯ķä¸ļ": 6332,
      "Min": 6333,
      "åŃ¦çļĦ": 6334,
      "ng": 6335,
      "schoolĠ": 6336,
      "predic": 6337,
      "æĺ¯ä»¥": 6338,
      "equationĠ": 6339,
      "Del": 6340,
      "concentr": 6341,
      "reason": 6342,
      "éĤĦ": 6343,
      "åĳĺå·¥": 6344,
      "purpos": 6345,
      "åĩłä¸ª": 6346,
      "neĠ": 6347,
      "%ĠofĠ": 6348,
      "åıĳè¡Į": 6349,
      "ä¸Ĭåįĩ": 6350,
      "èĢ¶": 6351,
      "obj": 6352,
      "thematic": 6353,
      "ä¼łæĦŁ": 6354,
      "æĻī": 6355,
      "ressĠ": 6356,
      "sett": 6357,
      ",Ġ201": 6358,
      "æ³ķå®ļ": 6359,
      "2022": 6360,
      "soci": 6361,
      "%çļĦ": 6362,
      "</div": 6363,
      "çıł": 6364,
      ".ĠInĠtheĠ": 6365,
      "çļĦè¡Įä¸º": 6366,
      "ä¼ĺåħĪ": 6367,
      "etyĠ": 6368,
      "åľĸ": 6369,
      "å¤§ï¼Į": 6370,
      "nav": 6371,
      "Ear": 6372,
      "thereĠisĠ": 6373,
      "98": 6374,
      "Bri": 6375,
      "bott": 6376,
      "record": 6377,
      "releas": 6378,
      "Intro": 6379,
      ".åľ¨": 6380,
      "s;Ġ": 6381,
      "PS": 6382,
      "åĴĮåıĳå±ķ": 6383,
      "èĻ«": 6384,
      "Excep": 6385,
      "è®Ĭ": 6386,
      "wareĠ": 6387,
      "ä¼ĺç§Ģ": 6388,
      "çŃīæĸ¹éĿ¢": 6389,
      "every": 6390,
      "æ±Ŀ": 6391,
      "ance,Ġ": 6392,
      ".c": 6393,
      "åĽ½åĬ¡éĻ¢": 6394,
      "LO": 6395,
      "æ··åĲĪ": 6396,
      "çļĦæľĢ": 6397,
      "éŁ©": 6398,
      "studiesĠ": 6399,
      "especiallyĠ": 6400,
      "ery": 6401,
      "ä¸ªä½ĵ": 6402,
      "AndĠ": 6403,
      "åħ¬æ°ĳ": 6404,
      "åŃ«": 6405,
      "ĠĠĠĠĠĠĠĠĠĠĠĠĠĠĠĠĠĠĠĠĠĠĠĠĠĠĠĠĠĠĠĠ": 6406,
      ")ãĢģ": 6407,
      "youn": 6408,
      "ustom": 6409,
      "bitĠ": 6410,
      "communic": 6411,
      "havingĠ": 6412,
      "åĪ¥": 6413,
      "67": 6414,
      "Hist": 6415,
      "contribut": 6416,
      "âĢĿĊ": 6417,
      "å¸ĥå±Ģ": 6418,
      "check": 6419,
      "ä¸ºâĢľ": 6420,
      "ä½ľä¸ļ": 6421,
      "evid": 6422,
      "è®¯": 6423,
      "ullĠ": 6424,
      "languageĠ": 6425,
      "ï¼Įä¸ŃåĽ½": 6426,
      "isticĠ": 6427,
      ">ĊĠĠĠĠĠĠĠĠĠĠĠĠ": 6428,
      "dam": 6429,
      "ç«Ł": 6430,
      "thumb|": 6431,
      "Log": 6432,
      "çĥŁ": 6433,
      "åĬ©äºİ": 6434,
      "e.Ċ": 6435,
      "åĲĮä¸Ģ": 6436,
      "é«ĺæķĪ": 6437,
      "çļĦåĨħå®¹": 6438,
      "bound": 6439,
      "induc": 6440,
      "å¤ªéĺ³": 6441,
      "label": 6442,
      "åĲĥ": 6443,
      "è¨±": 6444,
      "defini": 6445,
      "1ï¼ī": 6446,
      "Pri": 6447,
      "demonstr": 6448,
      "58": 6449,
      "æıŃ": 6450,
      "script": 6451,
      "then": 6452,
      "dens": 6453,
      "ç¦»åŃĲ": 6454,
      "æ®º": 6455,
      "EX": 6456,
      "(2": 6457,
      "èĥİ": 6458,
      "4,": 6459,
      "lic": 6460,
      "èº«ä»½": 6461,
      "designĠ": 6462,
      "åĤ¬": 6463,
      "feature": 6464,
      "å¼Ĥå¸¸": 6465,
      "max": 6466,
      "ark": 6467,
      "ä¸Ńåħ±": 6468,
      "}\\right": 6469,
      "velĠ": 6470,
      "ãĢĤè¯¥": 6471,
      "é«ĺè´¨éĩı": 6472,
      "fiveĠ": 6473,
      "self.": 6474,
      "s[": 6475,
      "å°±ä¼ļ": 6476,
      "æ¨¡æĭŁ": 6477,
      "çĽ¸åºĶçļĦ": 6478,
      ">ĊĊ": 6479,
      "è°ĭ": 6480,
      "æ³ķçļĦ": 6481,
      ",ĠinĠ": 6482,
      "rot": 6483,
      "æľºä¼ļ": 6484,
      "normalĠ": 6485,
      "Pe": 6486,
      "td": 6487,
      "dynam": 6488,
      "å»·": 6489,
      "Scho": 6490,
      "å·§": 6491,
      "eĠofĠaĠ": 6492,
      "/*Ġ": 6493,
      "objectĠ": 6494,
      "La": 6495,
      "æµª": 6496,
      "concer": 6497,
      "æķĮ": 6498,
      "ãĢĤè¿Ļç§į": 6499,
      "answerĠ": 6500,
      "åĨ°": 6501,
      "flowĠ": 6502,
      "åĲĦåĽ½": 6503,
      "defineĠ": 6504,
      "32Ġ": 6505,
      "14Ġ": 6506,
      "åĬłåħ¥": 6507,
      "3ãĢģ": 6508,
      "AnĠ": 6509,
      "ãĢĤçĶ±äºİ": 6510,
      "ibleĠ": 6511,
      "in,Ġ": 6512,
      "âĢĿãĢĤĊ": 6513,
      "t.": 6514,
      "åĬĽï¼Į": 6515,
      "power": 6516,
      "åºĹ": 6517,
      "ç§©": 6518,
      "åĭĩ": 6519,
      "çļĦæĹ¶åĢĻ": 6520,
      "eth": 6521,
      "IE": 6522,
      "æīĢåľ¨": 6523,
      "æ¿Ł": 6524,
      "æĶ¹éĢł": 6525,
      "ä¸ĩåħĥ": 6526,
      "treatmentĠ": 6527,
      "llĠ": 6528,
      "çļĦä¸Ģç§į": 6529,
      "poli": 6530,
      "äº¤æį¢": 6531,
      "situ": 6532,
      "2020å¹´": 6533,
      "åħ¬ä¼Ĺ": 6534,
      "Afric": 6535,
      "n'tĠ": 6536,
      "åŃĿ": 6537,
      "option": 6538,
      "Î±": 6539,
      "ani": 6540,
      "urr": 6541,
      "å¯¹å¤ĸ": 6542,
      "åŃ¦ãĢģ": 6543,
      "ä»ĸäºº": 6544,
      "transform": 6545,
      "å®¡è®¡": 6546,
      "likelyĠ": 6547,
      "å®¿": 6548,
      ")ĊĠĠ": 6549,
      "properti": 6550,
      "SO": 6551,
      "uralĠ": 6552,
      "ï¼Įå½ĵ": 6553,
      "èĥ½éĩı": 6554,
      ".ĠW": 6555,
      "asp": 6556,
      "å²Ĺ": 6557,
      "inclu": 6558,
      "AsĠ": 6559,
      "inĊ": 6560,
      "éĢļçŁ¥": 6561,
      "lip": 6562,
      "èı©èĸ©": 6563,
      "eter": 6564,
      "æĽ´å¥½": 6565,
      "èĢĥè¯ķ": 6566,
      "æ³ī": 6567,
      "outĠtheĠ": 6568,
      "linkĠ": 6569,
      "çı¾": 6570,
      "ãł": 6571,
      "dot": 6572,
      "äºĪä»¥": 6573,
      "Lo": 6574,
      "å°¤åħ¶æĺ¯": 6575,
      "é¡¿": 6576,
      "CA": 6577,
      "2009": 6578,
      "isĊ": 6579,
      "title": 6580,
      "########": 6581,
      "CON": 6582,
      "åĲĮæł·": 6583,
      "çļĦæĹ¶éĹ´": 6584,
      "æ£Ģå¯Ł": 6585,
      "lib": 6586,
      "i-": 6587,
      "å®ŀéªĮå®¤": 6588,
      "åħģè®¸": 6589,
      "fromĠaĠ": 6590,
      "è¹": 6591,
      "evol": 6592,
      "fracĠ{": 6593,
      "IB": 6594,
      ",ĠB": 6595,
      "particip": 6596,
      "ä¸¸": 6597,
      "developmentĠ": 6598,
      "æĪĲçĨŁ": 6599,
      "peop": 6600,
      "ç¡®è®¤": 6601,
      "mach": 6602,
      "åĪĨç¦»": 6603,
      "ï½ŀ": 6604,
      "appli": 6605,
      "è´Ńä¹°": 6606,
      ",\\": 6607,
      "adem": 6608,
      "tooĠ": 6609,
      "elseĠ": 6610,
      ")çļĦ": 6611,
      "product": 6612,
      "paperĠ": 6613,
      "è¿ħéĢŁ": 6614,
      "insĠ": 6615,
      "çľ¾çĶŁ": 6616,
      "6æľĪ": 6617,
      "æİĺ": 6618,
      "éļ¨": 6619,
      "èĲ¥åħ»": 6620,
      "width": 6621,
      "2ï¼ī": 6622,
      "10æľĪ": 6623,
      "ballĠ": 6624,
      "fort": 6625,
      "-basedĠ": 6626,
      ").ĠTheĠ": 6627,
      "therap": 6628,
      "è¯ļ": 6629,
      "Introduc": 6630,
      "countĠ": 6631,
      "3æľĪ": 6632,
      "ï¼ĮåĽł": 6633,
      "åŃ¤": 6634,
      "æ¶Īè´¹èĢħ": 6635,
      "uringĠ": 6636,
      "éª¤": 6637,
      "nan": 6638,
      "æķħäºĭ": 6639,
      "ãĢĤä¾ĭå¦Ĥ": 6640,
      "pair": 6641,
      "è©©": 6642,
      "éĽ¢": 6643,
      "appear": 6644,
      "benef": 6645,
      "document": 6646,
      "è¾ĵåĩº": 6647,
      "org.": 6648,
      "ä¼į": 6649,
      "ç¼´": 6650,
      "èĦļ": 6651,
      "^{\\": 6652,
      "oidĠ": 6653,
      "es:Ġ": 6654,
      "çºµ": 6655,
      "mission": 6656,
      "è¿Ŀæ³ķ": 6657,
      "exc": 6658,
      "éĤª": 6659,
      "æĪĴ": 6660,
      "ditionsĠ": 6661,
      "è¯ģåĪ¸": 6662,
      "learnĠ": 6663,
      "åįģä¸ĥ": 6664,
      "mix": 6665,
      "7æľĪ": 6666,
      "dateĠ": 6667,
      "mathrm{": 6668,
      "12æľĪ": 6669,
      "çĮ¶": 6670,
      "æĻĭ": 6671,
      "stra": 6672,
      "éĿ¢å¯¹": 6673,
      "!=Ġ": 6674,
      "ed:Ġ": 6675,
      "ane": 6676,
      "================": 6677,
      "åºĦ": 6678,
      "ãĢĤä»¥": 6679,
      "é£²": 6680,
      "ä¸Ńæľī": 6681,
      "individualĠ": 6682,
      "ucle": 6683,
      "åıĺéĿ©": 6684,
      "stepĠ": 6685,
      "è©Ķ": 6686,
      "æ¸¡": 6687,
      "è¨ĺ": 6688,
      "Lab": 6689,
      "1:": 6690,
      ".Ġ[": 6691,
      "law": 6692,
      "åĮ¹": 6693,
      "ãĢĤå®ĥ": 6694,
      "ãĢģãĢĬ": 6695,
      "compar": 6696,
      "æĺ¯çĶ±": 6697,
      "becom": 6698,
      "èĭ±è¯Ń": 6699,
      "wasĠtheĠ": 6700,
      "ä»£çĲĨ": 6701,
      "groundĠ": 6702,
      "æĦıåĳ³çĿĢ": 6703,
      "åĨħæ¶µ": 6704,
      "å®īè£ħ": 6705,
      "éĽª": 6706,
      "8æľĪ": 6707,
      "osp": 6708,
      "f(x": 6709,
      "scop": 6710,
      "ä¸Ļ": 6711,
      "å¡«": 6712,
      "mentsĠ": 6713,
      "accordingĠ": 6714,
      "Jul": 6715,
      "æł¼å±Ģ": 6716,
      "cost": 6717,
      "é§": 6718,
      "çº²": 6719,
      "åģ¥åħ¨": 6720,
      "angle": 6721,
      "viaĠ": 6722,
      "Stud": 6723,
      "\")": 6724,
      "node": 6725,
      "version": 6726,
      "3]": 6727,
      "OFĠ": 6728,
      ".ĠG": 6729,
      "èī¯å¥½çļĦ": 6730,
      "wholeĠ": 6731,
      "negativeĠ": 6732,
      "13Ġ": 6733,
      "190": 6734,
      "æ¢ħ": 6735,
      "Char": 6736,
      "ãĢĤä»ĸ": 6737,
      "åľĪ": 6738,
      "scre": 6739,
      "åįģå¹´": 6740,
      "é©¾": 6741,
      "è»Ĭ": 6742,
      "ãł¯": 6743,
      "æ¸¸æĪı": 6744,
      "äººçī©": 6745,
      "æ£ĢéªĮ": 6746,
      "displaystyleĠ": 6747,
      "m_": 6748,
      "Mon": 6749,
      "âĢĿâĢľ": 6750,
      "å¤Ħç½ļ": 6751,
      "18Ġ": 6752,
      "bal": 6753,
      "correc": 6754,
      "éĽĨæĪĲ": 6755,
      "ç´«": 6756,
      "çĶµè·¯": 6757,
      "DNA": 6758,
      "whereĠtheĠ": 6759,
      "proteinĠ": 6760,
      "izeĠ": 6761,
      "ãĢĤï¼Ī": 6762,
      "age,Ġ": 6763,
      "Value": 6764,
      "èĵĿ": 6765,
      "åıĳè¾¾": 6766,
      "æĭ¿": 6767,
      "äºīè®®": 6768,
      "connec": 6769,
      "èħº": 6770,
      "TableĠ": 6771,
      "çļĦåħ³éĶ®": 6772,
      "Fir": 6773,
      "weight": 6774,
      "è¦ĨçĽĸ": 6775,
      "4-": 6776,
      "åŁºç¡Ģè®¾æĸ½": 6777,
      "1æľĪ": 6778,
      "èĤ¯": 6779,
      "Config": 6780,
      "sayĠ": 6781,
      "ç«¹": 6782,
      "assert": 6783,
      "çĳŀ": 6784,
      "åĭĻ": 6785,
      "////////": 6786,
      "sĠofĠaĠ": 6787,
      "èĻŁ": 6788,
      "æĶ¹éĿ©å¼ĢæĶ¾": 6789,
      "position": 6790,
      "personĠ": 6791,
      "multipleĠ": 6792,
      "takenĠ": 6793,
      "24Ġ": 6794,
      "da": 6795,
      "æĭĴ": 6796,
      "æķĪçĽĬ": 6797,
      "amin": 6798,
      "âĢĿãĢģâĢľ": 6799,
      "çĶŁæĢģçİ¯å¢ĥ": 6800,
      "ÃĹĠ": 6801,
      "iter": 6802,
      "particular": 6803,
      "cou": 6804,
      "å°¾": 6805,
      "âĦ": 6806,
      "rayĠ": 6807,
      "Te": 6808,
      "whyĠ": 6809,
      "imageĠ": 6810,
      "äºķ": 6811,
      "alĠandĠ": 6812,
      "300": 6813,
      "å¤ļåħĥ": 6814,
      "Ret": 6815,
      "ç»ª": 6816,
      "è§Ĵèī²": 6817,
      "æĪ¿å±ĭ": 6818,
      "Heal": 6819,
      "3Ċ": 6820,
      "åı¯éĿł": 6821,
      "åĿ¦": 6822,
      "upĠtoĠ": 6823,
      "å¹²éĥ¨": 6824,
      "averageĠ": 6825,
      "marg": 6826,
      "éļĤ": 6827,
      "}(": 6828,
      "å¼ºåº¦": 6829,
      "yrightĠ": 6830,
      "æĹ¥å¸¸": 6831,
      "é¡ĺ": 6832,
      "è£ľ": 6833,
      "ç¤¾ä¼ļçļĦ": 6834,
      "âĨĴ": 6835,
      "å²©": 6836,
      "è¡Ĺ": 6837,
      "Trans": 6838,
      "ä»°": 6839,
      ")Ġ(": 6840,
      "åħ¬åı¸çļĦ": 6841,
      "ç»ıåİĨ": 6842,
      "phen": 6843,
      "couldĠbeĠ": 6844,
      "19Ġ": 6845,
      "åľ°çĲĥ": 6846,
      "liz": 6847,
      "clim": 6848,
      "åģļå¥½": 6849,
      "Depart": 6850,
      "31": 6851,
      "77": 6852,
      "ðĿ": 6853,
      "type=\"": 6854,
      "nom": 6855,
      ">Ċ<": 6856,
      "weĠcanĠ": 6857,
      "ï¼īçļĦ": 6858,
      "frame": 6859,
      "äº¿åħĥ": 6860,
      "çĶŁåŃĺ": 6861,
      "éģĹä¼ł": 6862,
      "åĩºåıĳ": 6863,
      "æ·»": 6864,
      "wa": 6865,
      "ï¼Įä»ĸ": 6866,
      "exten": 6867,
      "yp": 6868,
      "é©¶": 6869,
      "Dr": 6870,
      "ï¼ĮæĪĳ": 6871,
      "åģ¶": 6872,
      "èıľ": 6873,
      "siteĠ": 6874,
      "äººåľ¨": 6875,
      "s.ĠInĠ": 6876,
      "å§ĭç»Ī": 6877,
      "alreadyĠ": 6878,
      "less": 6879,
      "æĪĳä»¬çļĦ": 6880,
      "äººãĢĤ": 6881,
      "graphĠ": 6882,
      "controll": 6883,
      "activi": 6884,
      "${\\": 6885,
      "tific": 6886,
      "ä¸īå¹´": 6887,
      "åıĥ": 6888,
      "è¿ĩç¨ĭä¸Ńï¼Į": 6889,
      "LE": 6890,
      "5-": 6891,
      "å¿ĺ": 6892,
      "ç¾¤ä½ĵ": 6893,
      "3)": 6894,
      "Requ": 6895,
      "çµĤ": 6896,
      "çĸ«æĥħ": 6897,
      "water": 6898,
      "stract": 6899,
      "å¹³çŃī": 6900,
      "oid": 6901,
      "atĠleastĠ": 6902,
      "åĭĿ": 6903,
      "ection": 6904,
      "çĶµåĬĽ": 6905,
      "2Ġ=Ġ": 6906,
      "ï¼Įè¯¥": 6907,
      "æ»¤": 6908,
      "çºłçº·": 6909,
      "[1]": 6910,
      "mom": 6911,
      "æįķ": 6912,
      "ä¸ĵéĹ¨": 6913,
      "åħ´è¶£": 6914,
      "æ¾³": 6915,
      "partĠofĠ": 6916,
      "leadĠ": 6917,
      "CR": 6918,
      "çļĦåºĶçĶ¨": 6919,
      "å¥ĳ": 6920,
      "task": 6921,
      "phas": 6922,
      "æİ¥è§¦": 6923,
      "è´Ŀ": 6924,
      "toĊ": 6925,
      "()Ġ{": 6926,
      "21Ġ": 6927,
      "æĶ¹è¿Ľ": 6928,
      "state": 6929,
      "åı¯èĥ½ä¼ļ": 6930,
      "IG": 6931,
      "statis": 6932,
      "amountĠofĠ": 6933,
      "æĽ¹": 6934,
      "transl": 6935,
      "èĩªæ²»": 6936,
      "inj": 6937,
      "è§£æĶ¾": 6938,
      "distanceĠ": 6939,
      "ç£¨": 6940,
      "0Ċ": 6941,
      "HeĠ": 6942,
      "ãĢģç¤¾ä¼ļ": 6943,
      "equation": 6944,
      "withinĠ": 6945,
      "gramĠ": 6946,
      "comparedĠ": 6947,
      "Tw": 6948,
      "èĪī": 6949,
      "éªĮè¯ģ": 6950,
      "eĠtoĠ": 6951,
      "ksĠ": 6952,
      "antsĠ": 6953,
      "æĸĩåĮĸçļĦ": 6954,
      "fu": 6955,
      "èĭĹ": 6956,
      "Net": 6957,
      "åŁºåľ°": 6958,
      "åĤ·": 6959,
      "countri": 6960,
      "ä¼łç»ŁçļĦ": 6961,
      "èĳĹä½ľ": 6962,
      "offic": 6963,
      "prev": 6964,
      "):": 6965,
      "ç»Łæ²»": 6966,
      "alpha": 6967,
      "åĲĲ": 6968,
      "æľīæķĪçļĦ": 6969,
      "izationĠ": 6970,
      "first": 6971,
      "OnĠ": 6972,
      "æĿĨ": 6973,
      "License": 6974,
      "exec": 6975,
      "aug": 6976,
      "atten": 6977,
      "ï¼Įå½¢æĪĲ": 6978,
      "recentĠ": 6979,
      "çļĦè¦ģæ±Ĥ": 6980,
      "withinĠtheĠ": 6981,
      "command": 6982,
      "length": 6983,
      "è¿ĽèĢĮ": 6984,
      "fore,Ġ": 6985,
      "å½ĵåľ°": 6986,
      "ãĢĤæľī": 6987,
      "partĠofĠtheĠ": 6988,
      "è¡¥åģ¿": 6989,
      "çī§": 6990,
      "ç»ĻäºĪ": 6991,
      ");ĊĠĠ": 6992,
      "æ¨¡åĿĹ": 6993,
      "çŁ©": 6994,
      "56": 6995,
      "çº¹": 6996,
      "çļĦåıĺåĮĸ": 6997,
      "åı¯è§ģ": 6998,
      "èĤ¾": 6999,
      "seas": 7000,
      "inputĠ": 7001,
      "åĽĽä¸ª": 7002,
      "4æľĪ": 7003,
      "adap": 7004,
      "ãĢĤä¸į": 7005,
      "globalĠ": 7006,
      "æī£": 7007,
      "æ¯«": 7008,
      "ç»ıå¸¸": 7009,
      "suggest": 7010,
      "åŀĤ": 7011,
      "ä½ĵéªĮ": 7012,
      "rem": 7013,
      "59": 7014,
      "],": 7015,
      "nessĠ": 7016,
      "familyĠ": 7017,
      "sibleĠ": 7018,
      "æ¶Ĥ": 7019,
      "questionĠ": 7020,
      "transi": 7021,
      "presentsĠ": 7022,
      "variable": 7023,
      "Jan": 7024,
      "IV": 7025,
      "doneĠ": 7026,
      "åŃ¦å®¶": 7027,
      "oryĠofĠ": 7028,
      "effectiveĠ": 7029,
      "å»£": 7030,
      "åĪ©çİĩ": 7031,
      "involv": 7032,
      "å¤§å°ı": 7033,
      "è¯¾é¢ĺ": 7034,
      "keepĠ": 7035,
      "çį¨": 7036,
      "âī": 7037,
      "x.": 7038,
      "Ġ\\": 7039,
      "theĠsameĠ": 7040,
      "æµĻ": 7041,
      "æĽ´ä¸º": 7042,
      "networkĠ": 7043,
      "æ®¿": 7044,
      "æĿ¥è¯´ï¼Į": 7045,
      "Fact": 7046,
      "TO": 7047,
      "çļĦä¸į": 7048,
      "å¢Ļ": 7049,
      "ptom": 7050,
      "ä»Ĭå¤©": 7051,
      "findĠtheĠ": 7052,
      "Writ": 7053,
      "ãĢĤĊĊãĢĢãĢĢ": 7054,
      "æŀ¶æŀĦ": 7055,
      "temperatureĠ": 7056,
      "Rel": 7057,
      "æĽ¼": 7058,
      "åĲĪæĪĲ": 7059,
      "å¦ĩ": 7060,
      "tod": 7061,
      "stringĠ": 7062,
      "500": 7063,
      "workingĠ": 7064,
      "æ¸Ĺ": 7065,
      "æľŁéĻĲ": 7066,
      "edĠbyĠaĠ": 7067,
      "labor": 7068,
      "life": 7069,
      "andĠaĠ": 7070,
      "abol": 7071,
      "åħĪçĶŁ": 7072,
      "è±Ĩ": 7073,
      "^{2}": 7074,
      "æĸ¹ä¾¿": 7075,
      "æ¯Ľæ³½": 7076,
      "Gl": 7077,
      "found": 7078,
      "ç»ĵæĿŁ": 7079,
      "somethingĠ": 7080,
      "è®¤ä¸ºï¼Į": 7081,
      "èĤ¡æĿĥ": 7082,
      "ĊS": 7083,
      "ersĠtoĠ": 7084,
      "here": 7085,
      "pen": 7086,
      "å¤§å¤ļæķ°": 7087,
      "éĵľ": 7088,
      "mathbf{": 7089,
      "ç§©åºı": 7090,
      "è¯±": 7091,
      "åĪĽä½ľ": 7092,
      "éĢĥ": 7093,
      "quot": 7094,
      "ä»ĸä»¬çļĦ": 7095,
      "period": 7096,
      "maĠ": 7097,
      "ï¼ĮçĶ¨": 7098,
      "ç¥Ń": 7099,
      "Func": 7100,
      "åŁĥ": 7101,
      "æ¯Ľæ³½ä¸ľ": 7102,
      "_P": 7103,
      "ãĢĤéĢļè¿ĩ": 7104,
      "èĥĢ": 7105,
      "ild": 7106,
      "ç½ĳç«Ļ": 7107,
      "èŃĺ": 7108,
      "inste": 7109,
      "+1": 7110,
      "å¯¹åºĶ": 7111,
      "cleĠ": 7112,
      "èĳ£": 7113,
      "åĽ´ç»ķ": 7114,
      "laterĠ": 7115,
      "æ°¨": 7116,
      "Go": 7117,
      "æľĹ": 7118,
      "Model": 7119,
      "where": 7120,
      "åĪĽä¸ļ": 7121,
      "Ag": 7122,
      "fund": 7123,
      "è¨Ń": 7124,
      "positionĠ": 7125,
      "å¯¿": 7126,
      "è¾Ń": 7127,
      "å¤ļçļĦ": 7128,
      "genĠ": 7129,
      "ï¼ĮèĢĮæĺ¯": 7130,
      "11.": 7131,
      "compos": 7132,
      "Meth": 7133,
      "ki": 7134,
      "nit": 7135,
      "çĶ±æŃ¤": 7136,
      "childĠ": 7137,
      "é¢Ĺ": 7138,
      "FF": 7139,
      "togetherĠ": 7140,
      "éĢĤåĲĪ": 7141,
      "sourc": 7142,
      "è¡¥åħħ": 7143,
      "cult": 7144,
      "ĠĠĠĠĠĠĠ": 7145,
      "expos": 7146,
      "åľºæĻ¯": 7147,
      "èĬĤĠ": 7148,
      "Text": 7149,
      "éĥ¨ç½²": 7150,
      "æĹ¶çļĦ": 7151,
      "Nov": 7152,
      "è¾Ĩ": 7153,
      "e:Ġ": 7154,
      "edĠatĠ": 7155,
      "åĽ½çļĦ": 7156,
      "ItĠisĠ": 7157,
      "éĿ¢çļĦ": 7158,
      "inten": 7159,
      "particularĠ": 7160,
      "runĠ": 7161,
      "Sch": 7162,
      "seenĠ": 7163,
      "mentalĠ": 7164,
      "interestĠ": 7165,
      "moveĠ": 7166,
      "çµĲ": 7167,
      ",Ġ\"": 7168,
      "æĪĲå¹´": 7169,
      "é¡ŀ": 7170,
      "weightĠ": 7171,
      "æİ¨å¹¿": 7172,
      "åŁ·": 7173,
      "greaterĠ": 7174,
      "suff": 7175,
      "çĽ¸ç»ĵåĲĪ": 7176,
      "ratherĠ": 7177,
      "<divĠclass=\"": 7178,
      "æĸĹäºī": 7179,
      "åŁºå±Ĥ": 7180,
      "æŃ¥éª¤": 7181,
      "æĿ¡Ġ": 7182,
      "responseĠ": 7183,
      "height": 7184,
      "æª": 7185,
      ",âĢĿĠ": 7186,
      "æĽ´æĸ°": 7187,
      "unitĠ": 7188,
      "ationĊ": 7189,
      "å¿Ĩ": 7190,
      "æĢ§ãĢĤĊ": 7191,
      "5æľĪ": 7192,
      "enh": 7193,
      "and,Ġ": 7194,
      "èŃī": 7195,
      "åį±å®³": 7196,
      "éģĹäº§": 7197,
      "valid": 7198,
      "èº«ä½ĵ": 7199,
      "antlyĠ": 7200,
      "éĿ¢åĲĳ": 7201,
      ".ĠIn": 7202,
      "lawĠ": 7203,
      "Spec": 7204,
      "Servic": 7205,
      "utri": 7206,
      "etĠal.,Ġ": 7207,
      "LicenseĠ": 7208,
      "å¼Ĺ": 7209,
      "æķĻèĤ²çļĦ": 7210,
      "sup>": 7211,
      "è¨Ī": 7212,
      "åŁ¹èĤ²": 7213,
      "34Ġ": 7214,
      "rat": 7215,
      "mas": 7216,
      "è¿Ļæł·çļĦ": 7217,
      "é¦ĸæ¬¡": 7218,
      "çļĦä¿¡æģ¯": 7219,
      "ä¸Ģæĸ¹": 7220,
      "x-": 7221,
      "sĠhaveĠ": 7222,
      "ãĢĤĠĊĊãĢĢãĢĢ": 7223,
      "Ġç¬¬": 7224,
      "StateĠ": 7225,
      "sample": 7226,
      "ä¾ĽåºĶéĵ¾": 7227,
      "åł±": 7228,
      "[4": 7229,
      "inci": 7230,
      "ä¹łæĥ¯": 7231,
      "growthĠ": 7232,
      "iredĠ": 7233,
      "erĊ": 7234,
      "articleĠ": 7235,
      "stro": 7236,
      "è®¿éĹ®": 7237,
      "(2)": 7238,
      "åĴĮè°Ĳ": 7239,
      "minut": 7240,
      "ordĠ": 7241,
      "è½ī": 7242,
      "________": 7243,
      "}-": 7244,
      "åĽ½æľī": 7245,
      "summar": 7246,
      "patient": 7247,
      "çļĦæĬĢæľ¯": 7248,
      "åģļåĪ°": 7249,
      "cam": 7250,
      "projectĠ": 7251,
      "éĢĤå½ĵ": 7252,
      "Ġ1.": 7253,
      "plat": 7254,
      "speci": 7255,
      "JohnĠ": 7256,
      "ternalĠ": 7257,
      "ancedĠ": 7258,
      "rop": 7259,
      "ç¸½": 7260,
      "åĨ²çªģ": 7261,
      "',Ġ'": 7262,
      "ï¼ĮæĬĬ": 7263,
      "Object": 7264,
      ",ä»İèĢĮ": 7265,
      "differenceĠ": 7266,
      "font": 7267,
      "ä½¿å¾Ĺ": 7268,
      "Su": 7269,
      "thanĠtheĠ": 7270,
      "éº¦": 7271,
      "contentĠ": 7272,
      "åĢ¡": 7273,
      "resid": 7274,
      "chemicalĠ": 7275,
      "ç»´æĮģ": 7276,
      "è³Ĭ": 7277,
      ")\\": 7278,
      "çļĦãĢĤĊ": 7279,
      "æĭį": 7280,
      "Yor": 7281,
      "tĠandĠ": 7282,
      "reflec": 7283,
      "AllĠ": 7284,
      "æ¯Ķä¸ĺ": 7285,
      "æĽ°ï¼ļ": 7286,
      "åıī": 7287,
      "åįĪ": 7288,
      "äºº,": 7289,
      "å®ŀè´¨": 7290,
      "causeĠ": 7291,
      "cod": 7292,
      "areasĠ": 7293,
      "extend": 7294,
      "èĢģå¸Ī": 7295,
      "ho": 7296,
      "å¥³æĢ§": 7297,
      "åįļå£«": 7298,
      "è£ħç½®": 7299,
      "æ´»æĢ§": 7300,
      "æ¥µ": 7301,
      "(b": 7302,
      "åĵ¥": 7303,
      "atom": 7304,
      "åĲ¯åĬ¨": 7305,
      "æĿ¡ä¾ĭ": 7306,
      "apĠ": 7307,
      "çłĶç©¶çļĦ": 7308,
      "agre": 7309,
      "].": 7310,
      ".ĠToĠ": 7311,
      "å®ıè§Ĥ": 7312,
      "ãĢĤæĪĳä»¬": 7313,
      "çģ°": 7314,
      "sampleĠ": 7315,
      "massĠ": 7316,
      "enter": 7317,
      "çº¦æĿŁ": 7318,
      "WorldĠ": 7319,
      "æĹ¥çĽĬ": 7320,
      "produceĠ": 7321,
      "El": 7322,
      "æĿ¡ãĢĢ": 7323,
      "æĺ¯å¯¹": 7324,
      "å®¡åĪ¤": 7325,
      "wayĠtoĠ": 7326,
      "è¿Ľå±ķ": 7327,
      "polic": 7328,
      "æ¢¦": 7329,
      "åīĬ": 7330,
      "æĢ»ä¹¦è®°": 7331,
      "éĢ£": 7332,
      "è¾ĥä¸º": 7333,
      "considerĠ": 7334,
      "æī©å±ķ": 7335,
      "åĪ©æ¶¦": 7336,
      "speciesĠ": 7337,
      "å½¢è±¡": 7338,
      "çī¢": 7339,
      "ĊĠĠĠĠĠĠĠĠĠĠ": 7340,
      "HT": 7341,
      "theor": 7342,
      "ç´łåħ»": 7343,
      "plantĠ": 7344,
      "needĠ": 7345,
      "é»ĺ": 7346,
      "missionĠ": 7347,
      "EnglishĠ": 7348,
      "è·¯çº¿": 7349,
      "ç¨İæĶ¶": 7350,
      "sĠonĠtheĠ": 7351,
      "åĭ¤": 7352,
      "sizeĠ": 7353,
      "IF": 7354,
      "him": 7355,
      "è¡Įä½¿": 7356,
      "diagnos": 7357,
      "69": 7358,
      "åĬ³åĬ¨èĢħ": 7359,
      "By": 7360,
      "çļĦæ³ķå¾ĭ": 7361,
      "activityĠ": 7362,
      "2016": 7363,
      "ãĢĤâĢĿĊ": 7364,
      "âĳł": 7365,
      "ingĠofĠtheĠ": 7366,
      "èµģ": 7367,
      "Eng": 7368,
      "Out": 7369,
      "åıªè¦ģ": 7370,
      "body": 7371,
      "ResearchĠ": 7372,
      "classi": 7373,
      "$-": 7374,
      "ersĠandĠ": 7375,
      "åĿ¡": 7376,
      "2018": 7377,
      "Br": 7378,
      "ç§Łèµģ": 7379,
      "Referenc": 7380,
      "çº³åħ¥": 7381,
      "RNA": 7382,
      "æĪĲéķ¿": 7383,
      "ç»ĵè®º": 7384,
      "farĠ": 7385,
      "Sc": 7386,
      "ãĢĤçĦ¶èĢĮ": 7387,
      "éĿŀæ³ķ": 7388,
      "materialĠ": 7389,
      "var": 7390,
      "jour": 7391,
      "å¼ºåĪ¶": 7392,
      "äº§åĵģçļĦ": 7393,
      "sou": 7394,
      "TE": 7395,
      "ustri": 7396,
      "$Ċ": 7397,
      "çº¤ç»´": 7398,
      "origin": 7399,
      "ï¼ĮçĦ¶åĲİ": 7400,
      "capac": 7401,
      "æĥħæĦŁ": 7402,
      "æ»ħ": 7403,
      "through": 7404,
      "stri": 7405,
      "Error": 7406,
      "ä»ĵ": 7407,
      "topĠ": 7408,
      "s.ĠThisĠ": 7409,
      "$ĠandĠ": 7410,
      "å®ªæ³ķ": 7411,
      "åĪĢ": 7412,
      "é¼ł": 7413,
      "percentĠ": 7414,
      "oneĠofĠ": 7415,
      "åĽłåŃĲ": 7416,
      "å¯¶": 7417,
      "medic": 7418,
      "Met": 7419,
      "UĠ": 7420,
      "---": 7421,
      "heatĠ": 7422,
      "ä¿®å¤į": 7423,
      ":=Ġ": 7424,
      "ĊĊ#Ġ": 7425,
      "æŃ£æĺ¯": 7426,
      "$P": 7427,
      "ï¼īĠ": 7428,
      "æİ¢è®¨": 7429,
      "factorĠ": 7430,
      "è¦ıå®ļ": 7431,
      ".ĠYouĠ": 7432,
      "æ³¡": 7433,
      "å±ķç¤º": 7434,
      "es,ĠtheĠ": 7435,
      "54": 7436,
      "fore": 7437,
      "åĬłå¤§": 7438,
      "Am": 7439,
      "reduceĠ": 7440,
      "çĶ¨äºº": 7441,
      "çĸĨ": 7442,
      "exampleĠ": 7443,
      "resultsĠ": 7444,
      "ene": 7445,
      "thernĠ": 7446,
      "æļĤ": 7447,
      "Work": 7448,
      "22Ġ": 7449,
      "wal": 7450,
      "ãĢĭï¼Ī": 7451,
      ".ĠWhenĠ": 7452,
      "å¤ĸçļĦ": 7453,
      "åį¿": 7454,
      "else": 7455,
      "ä»¥æĿ¥ï¼Į": 7456,
      ",ĊĊ": 7457,
      "Ele": 7458,
      "11æľĪ": 7459,
      "carri": 7460,
      "\\in": 7461,
      "çĤ¹ï¼Į": 7462,
      "è°ĥæİ§": 7463,
      "è¯¦ç»Ĩ": 7464,
      "round": 7465,
      "uk": 7466,
      "neverĠ": 7467,
      "$ï¼Į": 7468,
      "conditionsĠ": 7469,
      "itch": 7470,
      "Stre": 7471,
      "simul": 7472,
      "ä¼łæĦŁåĻ¨": 7473,
      "Ð¾": 7474,
      "æĪĲåĪĨ": 7475,
      "ative": 7476,
      "ãĢĤå¯¹": 7477,
      ".ĠWh": 7478,
      "æ¿Ģåıĳ": 7479,
      "regard": 7480,
      "æļĹ": 7481,
      "(1": 7482,
      "versionĠ": 7483,
      "2017": 7484,
      "yn": 7485,
      "åĲįç§°": 7486,
      "sĠtoĠbeĠ": 7487,
      "å±ķå¼Ģ": 7488,
      "request": 7489,
      "inĠwhichĠ": 7490,
      "udeĠ": 7491,
      "magneticĠ": 7492,
      "trueĠ": 7493,
      "Phys": 7494,
      "ï¼Įè¿Ļç§į": 7495,
      "cript": 7496,
      "pleĠofĠ": 7497,
      "Grou": 7498,
      "å¤įåĲĪ": 7499,
      "self-": 7500,
      "rout": 7501,
      "MO": 7502,
      "fun": 7503,
      "åĮĸï¼Į": 7504,
      "èİ±": 7505,
      "çĭ¬çī¹": 7506,
      "carb": 7507,
      "File": 7508,
      "Jun": 7509,
      "sych": 7510,
      "æĺŃ": 7511,
      "istĠofĠ": 7512,
      "èµµ": 7513,
      "èĪĪ": 7514,
      "Bar": 7515,
      "ender": 7516,
      "åĵ¡": 7517,
      "èª¿": 7518,
      "womenĠ": 7519,
      "iver": 7520,
      "haveĠtoĠ": 7521,
      "baseĠ": 7522,
      "space": 7523,
      "CS": 7524,
      "x,Ġ": 7525,
      "è®¸åı¯": 7526,
      "side": 7527,
      "It": 7528,
      "osĠ": 7529,
      "resol": 7530,
      "è·ĥ": 7531,
      "xĠ+Ġ": 7532,
      "ice": 7533,
      "usesĠ": 7534,
      "ival": 7535,
      "com.": 7536,
      "(R": 7537,
      "isĠalsoĠ": 7538,
      "äºĴåĬ¨": 7539,
      "previousĠ": 7540,
      "kin": 7541,
      "stain": 7542,
      "çĤ¼": 7543,
      "ieveĠ": 7544,
      "40Ġ": 7545,
      "belowĠ": 7546,
      "60Ġ": 7547,
      "ï¼Įäº¦": 7548,
      "ä»²è£ģ": 7549,
      "å¤įåħ´": 7550,
      "åĬŀçĲĨ": 7551,
      "angĠ": 7552,
      "æĿ¡è§Ħå®ļ": 7553,
      "å®ĥçļĦ": 7554,
      "begin{": 7555,
      "ade": 7556,
      "å¼ķåħ¥": 7557,
      ",å°Ĩ": 7558,
      "youĠareĠ": 7559,
      "åŁİä¹¡": 7560,
      "periodĠ": 7561,
      "admin": 7562,
      "match": 7563,
      "onicĠ": 7564,
      "ä¸īæĺ¯": 7565,
      "éĤ£äºĽ": 7566,
      "{ĊĠĠĠĠĠĠĠĠĠĠĠĠ": 7567,
      "å·¨å¤§": 7568,
      "ae": 7569,
      "ï¼ĮæĪĳåĽ½": 7570,
      "å£®": 7571,
      "éĿĴå¹´": 7572,
      "*,Ġ": 7573,
      "èĥģ": 7574,
      "ä¸ľè¥¿": 7575,
      "åĬŀæ³ķ": 7576,
      "è¦º": 7577,
      "ä¹Łä¸į": 7578,
      "å¼ºçļĦ": 7579,
      "Equ": 7580,
      "ball": 7581,
      "altern": 7582,
      "etsĠ": 7583,
      "èģĮè´£": 7584,
      "ä½¿çĶ¨çļĦ": 7585,
      "ç®±": 7586,
      "star": 7587,
      "|Ċ|": 7588,
      "å¯ĨåĪĩ": 7589,
      "skill": 7590,
      "k,Ġ": 7591,
      "å¯Ħ": 7592,
      "æĲľ": 7593,
      "short": 7594,
      "Comm": 7595,
      "Abstract": 7596,
      "=Ġ\"": 7597,
      "4.Ġ": 7598,
      "cry": 7599,
      "Regi": 7600,
      "foot": 7601,
      "79": 7602,
      "åıĳçĶµ": 7603,
      "end{": 7604,
      "ãĢģæĸ°": 7605,
      "æľīåĪ©äºİ": 7606,
      "éĵģè·¯": 7607,
      "libr": 7608,
      "æľīä¸Ģ": 7609,
      "èĮĥåĽ´åĨħ": 7610,
      "ä»·åĢ¼è§Ĥ": 7611,
      "é¢ĳçİĩ": 7612,
      "çģ¯": 7613,
      "æİ¢ç©¶": 7614,
      "çļĦç»ıæµİ": 7615,
      "äºĭé¡¹": 7616,
      "åį°åº¦": 7617,
      "âĳ¡": 7618,
      "usedĠinĠ": 7619,
      "è³¢": 7620,
      "åĴĮåħ¶ä»ĸ": 7621,
      "æ¿ĢåĬ±": 7622,
      "Class": 7623,
      "åĩłä¹İ": 7624,
      "ERĠ": 7625,
      "que": 7626,
      "å½ĵä»£": 7627,
      "çİ¯ä¿Ŀ": 7628,
      "å±ı": 7629,
      "å¹´é¾Ħ": 7630,
      "respecti": 7631,
      "histor": 7632,
      "ï¼ĮéľĢè¦ģ": 7633,
      "å°ĳæķ°": 7634,
      "5)": 7635,
      "åĲĦåľ°": 7636,
      "æľĢä½³": 7637,
      "buildingĠ": 7638,
      "é¢ĨåŁŁçļĦ": 7639,
      "æ·¨": 7640,
      "å¾Īå¤§": 7641,
      "èģĮèĥ½": 7642,
      "matrixĠ": 7643,
      "ï¼Įä¸»è¦ģ": 7644,
      "æĭĵå±ķ": 7645,
      "control": 7646,
      "expressionĠ": 7647,
      "populationĠ": 7648,
      "éĥŃ": 7649,
      "Ċ1.": 7650,
      "tissu": 7651,
      "åİħ": 7652,
      "æŀĿ": 7653,
      "sĠasĠ": 7654,
      "åĲĮæĦı": 7655,
      "åİŁå§ĭ": 7656,
      "bacter": 7657,
      "s.ĠS": 7658,
      "millionĠ": 7659,
      "èĢĥæł¸": 7660,
      "ï¼Įä¿ĥè¿Ľ": 7661,
      "dd": 7662,
      "ware": 7663,
      "åĲı": 7664,
      "isĠthatĠ": 7665,
      "å§Ķæīĺ": 7666,
      "hab": 7667,
      "è´¯å½»": 7668,
      "avi": 7669,
      "å·¡": 7670,
      "appropri": 7671,
      "æĿ¡æ¬¾": 7672,
      "2ĊĊ": 7673,
      ".ĊĠĠ": 7674,
      "##ĠĠ": 7675,
      "whoseĠ": 7676,
      "(N": 7677,
      "Over": 7678,
      "thusĠ": 7679,
      "Web": 7680,
      "Off": 7681,
      "thor": 7682,
      "progres": 7683,
      "2008": 7684,
      "åľ°åĿĢ": 7685,
      "allowĠ": 7686,
      "å½¢åĬ¿": 7687,
      "loadĠ": 7688,
      "Apr": 7689,
      "t,Ġ": 7690,
      "é¢ľ": 7691,
      "èĭ¥å¹²": 7692,
      "s,ĠwhichĠ": 7693,
      "åĪ°çļĦ": 7694,
      "['": 7695,
      "åĪ·": 7696,
      "ãĢģé«ĺ": 7697,
      "æĮĸ": 7698,
      "ector": 7699,
      "35Ġ": 7700,
      "ãĢĤè¦ģ": 7701,
      "(D": 7702,
      "è¡Ľ": 7703,
      "infl": 7704,
      "x_": 7705,
      "ï¼Įè¿Ļæĺ¯": 7706,
      "æĢģåº¦": 7707,
      "12.": 7708,
      "recomm": 7709,
      "umentĠ": 7710,
      "æķ°æį®çļĦ": 7711,
      "Ċåľ¨": 7712,
      "aĠhref=\"": 7713,
      "åĴĮå¹³": 7714,
      "è¿Ŀåıį": 7715,
      "vĠ": 7716,
      "ï¼Įæ¯ı": 7717,
      "çļĩå¸Ŀ": 7718,
      "Vol": 7719,
      "åħ³èģĶ": 7720,
      "åĬłéĢŁ": 7721,
      "typeĠofĠ": 7722,
      "éĶģ": 7723,
      "reallyĠ": 7724,
      "Proper": 7725,
      "ç¬¦åı·": 7726,
      "veloc": 7727,
      "æĢĿè·¯": 7728,
      "ally": 7729,
      "std": 7730,
      "æī¹åĩĨ": 7731,
      "acces": 7732,
      "Hel": 7733,
      "è¿ª": 7734,
      "å¹ķ": 7735,
      "pret": 7736,
      "homeĠ": 7737,
      "quanti": 7738,
      "coordin": 7739,
      "onsĠ": 7740,
      "orĠtheĠ": 7741,
      "å®ħ": 7742,
      "atter": 7743,
      "æ²ŁéĢļ": 7744,
      "å¼ķé¢Ĩ": 7745,
      "Fil": 7746,
      "pend": 7747,
      "Ð°": 7748,
      "../../": 7749,
      "äºĨä¸Ģä¸ª": 7750,
      "ç¨¿": 7751,
      "ä¸Ĭå¸Ĥ": 7752,
      "åıĺéĩı": 7753,
      "headĠ": 7754,
      ",ĠitĠ": 7755,
      "åĲĦçº§": 7756,
      "time,Ġ": 7757,
      "æ¡Ĥ": 7758,
      "urb": 7759,
      "æĭĶ": 7760,
      "èħĶ": 7761,
      "èĿ": 7762,
      "ä¹ĭåĲİï¼Į": 7763,
      "=ĠnewĠ": 7764,
      "this->": 7765,
      "17Ġ": 7766,
      "å®ŀéĻħä¸Ĭ": 7767,
      "èĴ¸": 7768,
      "å»ī": 7769,
      "pag": 7770,
      "abilityĠofĠ": 7771,
      "20ä¸ĸçºª": 7772,
      "typesĠofĠ": 7773,
      "necessaryĠ": 7774,
      "89": 7775,
      "\\dfracĠ{": 7776,
      "erv": 7777,
      "reli": 7778,
      "è¤": 7779,
      ";ĊĠĠĠĠĠĠĠĠĠĠĠĠ": 7780,
      "é¢ĦæľŁ": 7781,
      "gene": 7782,
      "äºĤ": 7783,
      "å§Ĩ": 7784,
      "Fin": 7785,
      "intoĠaĠ": 7786,
      ".ĊS": 7787,
      "basicĠ": 7788,
      "ile": 7789,
      "æ°Ķä½ĵ": 7790,
      "ä¸įçŁ¥": 7791,
      "åĵī": 7792,
      "uck": 7793,
      "çī¹æĢ§": 7794,
      "pxĠ": 7795,
      "çĶŁçļĦ": 7796,
      "åĨįæ¬¡": 7797,
      "æĤ²": 7798,
      "food": 7799,
      "è¾ĥå¤§": 7800,
      "isĠofĠ": 7801,
      "åŃŁ": 7802,
      "é¤Ĭ": 7803,
      "æµĵåº¦": 7804,
      "çģĮ": 7805,
      "åħĦ": 7806,
      "equal": 7807,
      "Europe": 7808,
      "Ġ2.": 7809,
      "è¿ĻéĩĮ": 7810,
      "A.": 7811,
      "ç¡®ç«ĭ": 7812,
      "äººä¸İ": 7813,
      "èĥ¸": 7814,
      "èįĲ": 7815,
      "åıįå¯¹": 7816,
      "ussi": 7817,
      "phi": 7818,
      "!Ċ": 7819,
      "p.": 7820,
      "ä»Ļ": 7821,
      "åĩºæĿ¥": 7822,
      "ButĠ": 7823,
      "åĩŃ": 7824,
      "edĠtoĠbeĠ": 7825,
      "aleĠ": 7826,
      "factĠ": 7827,
      "ä¸ºä»Ģä¹Ī": 7828,
      "edĠunderĠtheĠ": 7829,
      "åĴ¨": 7830,
      "completeĠ": 7831,
      "è¾ħåĬ©": 7832,
      "ç§¯ç´¯": 7833,
      "=\\": 7834,
      "ä¸ŃåĽ½äººæ°ĳ": 7835,
      "ç»ıæµİçļĦ": 7836,
      "å¼ķåıĳ": 7837,
      "hyper": 7838,
      "eler": 7839,
      "æ¼«": 7840,
      "æıĴ": 7841,
      "èĢħãĢĤ": 7842,
      "éªĹ": 7843,
      "^2Ġ": 7844,
      "-Ġ-Ġ": 7845,
      "è£ķ": 7846,
      "repe": 7847,
      ",åı¯ä»¥": 7848,
      "bul": 7849,
      "ï¼Įèĩª": 7850,
      "background": 7851,
      "ardsĠ": 7852,
      "Pa": 7853,
      "vit": 7854,
      "search": 7855,
      "1ĊĊ": 7856,
      "è¡ĮçļĦ": 7857,
      "2021å¹´": 7858,
      "åļ´": 7859,
      "ç»ŁçŃ¹": 7860,
      ".ĊĊ**": 7861,
      "2007": 7862,
      "piec": 7863,
      "èµĦæľ¬ä¸»ä¹ī": 7864,
      "Py": 7865,
      "_Ġ": 7866,
      "ï¼Įéĥ½": 7867,
      "seem": 7868,
      ".ĠAsĠ": 7869,
      "æĴ°": 7870,
      "éĹ®é¢ĺãĢĤ": 7871,
      "hold": 7872,
      "çĽ¸ä¼¼": 7873,
      "ä¸Ģç³»åĪĹ": 7874,
      "yĠ=Ġ": 7875,
      "express": 7876,
      "ent,Ġ": 7877,
      "makesĠ": 7878,
      "from": 7879,
      "IR": 7880,
      "85": 7881,
      "æ°ĳéĹ´": 7882,
      "æĦıæĢĿ": 7883,
      "CE": 7884,
      "application": 7885,
      "é«ĺï¼Į": 7886,
      "å¾³": 7887,
      "enn": 7888,
      "æĪ°": 7889,
      "åĪ¶åº¦çļĦ": 7890,
      "èį¯åĵģ": 7891,
      ",æĪĳä»¬": 7892,
      "Form": 7893,
      "server": 7894,
      "sectionĠ": 7895,
      "400": 7896,
      "2006": 7897,
      "Index": 7898,
      "I'": 7899,
      "conven": 7900,
      "thirdĠ": 7901,
      "coll": 7902,
      "kil": 7903,
      "Rob": 7904,
      "ficĠ": 7905,
      "ç¾Ĭ": 7906,
      "symbol": 7907,
      "lock": 7908,
      "éĳ": 7909,
      "éłĪ": 7910,
      "child": 7911,
      "enoughĠ": 7912,
      "WhatĠisĠtheĠ": 7913,
      "SA": 7914,
      "symptom": 7915,
      "default": 7916,
      "Comp": 7917,
      "scen": 7918,
      "ä¸»ä»»": 7919,
      "sle": 7920,
      "teamĠ": 7921,
      "çİ°åľº": 7922,
      "ç¬¬åħŃ": 7923,
      "ä¹Į": 7924,
      "åĨħåľ¨": 7925,
      "æŁĲç§į": 7926,
      "assess": 7927,
      "paramĠ": 7928,
      "rangeĠ": 7929,
      "leav": 7930,
      "visionĠ": 7931,
      "buildĠ": 7932,
      "{Ċĉ": 7933,
      "éĩĭ": 7934,
      "è¼ī": 7935,
      "çĶµæµģ": 7936,
      "quad": 7937,
      "U.S": 7938,
      "æĺ¯âĢľ": 7939,
      "åħ³ç³»çļĦ": 7940,
      "ãĢĭãĢģãĢĬ": 7941,
      "(G": 7942,
      "åĪºæ¿Ģ": 7943,
      "associatedĠwithĠ": 7944,
      "menĠ": 7945,
      "åĳ¼åĲ¸": 7946,
      "æĿ°": 7947,
      "oxid": 7948,
      "tableĠ": 7949,
      "portun": 7950,
      "etyĠofĠ": 7951,
      "ç¾½": 7952,
      "productionĠ": 7953,
      "åıĳæĺİ": 7954,
      "canĠalsoĠ": 7955,
      "Ċĉĉĉĉ": 7956,
      "ing-": 7957,
      "ä¹ĭãĢĤ": 7958,
      "clear": 7959,
      "MayĠ": 7960,
      "PL": 7961,
      "f(": 7962,
      "Î¼": 7963,
      "nâĢĻtĠ": 7964,
      "ingĠthatĠ": 7965,
      "indĠtheĠ": 7966,
      "ï¼īĊĊ": 7967,
      "æīĵéĢł": 7968,
      "style": 7969,
      "cu": 7970,
      "èµı": 7971,
      "æĮĩæķ°": 7972,
      "éħįåĲĪ": 7973,
      "solveĠ": 7974,
      "[i": 7975,
      "åŃĲï¼Į": 7976,
      "æľĢå¤§çļĦ": 7977,
      "pressureĠ": 7978,
      "entĠtoĠ": 7979,
      "ç²Ĺ": 7980,
      "friend": 7981,
      "Ċ#": 7982,
      "additionalĠ": 7983,
      "atingĠtheĠ": 7984,
      "äºĨâĢľ": 7985,
      "autom": 7986,
      "roc": 7987,
      "asĠanĠ": 7988,
      "ump": 7989,
      "writeĠ": 7990,
      "cancerĠ": 7991,
      "å¤º": 7992,
      ".ĠJ": 7993,
      "ãĢİ": 7994,
      "valuesĠ": 7995,
      "çŃ¾è®¢": 7996,
      "æĻ°": 7997,
      "pattern": 7998,
      "(3)": 7999,
      "å¢ĵ": 8000,
      "æį·": 8001,
      "sĠinĠaĠ": 8002,
      ".ĠInĠthisĠ": 8003,
      "Det": 8004,
      "Inst": 8005,
      "æĳĺ": 8006,
      "åĲĹ": 8007,
      "equival": 8008,
      "èªī": 8009,
      "æĽ¿ä»£": 8010,
      "effectĠ": 8011,
      "UniversityĠ": 8012,
      "ashĠ": 8013,
      "ï¼Įå¯¹äºİ": 8014,
      "äººåĬĽ": 8015,
      "æħİ": 8016,
      "futureĠ": 8017,
      "ugĠ": 8018,
      "å»ºè®¾çļĦ": 8019,
      "å»ºæĪĲ": 8020,
      "5,": 8021,
      "å¯¼åĲĳ": 8022,
      "strict": 8023,
      "strong": 8024,
      "improv": 8025,
      "éģµå¾ª": 8026,
      "âĶĢ": 8027,
      ",ĠC": 8028,
      "people": 8029,
      "èµ«": 8030,
      "increasedĠ": 8031,
      "æ¯ģ": 8032,
      "ç®¡çĲĨçļĦ": 8033,
      "è´«åĽ°": 8034,
      "gri": 8035,
      "<EMAIL_ADDRESS>": 8036,
      "_tĠ": 8037,
      ".ĊĊ###Ġ": 8038,
      "geomet": 8039,
      "install": 8040,
      "ãĢĤæīĢä»¥": 8041,
      "åĬī": 8042,
      "spanĠ": 8043,
      "Chang": 8044,
      "performanceĠ": 8045,
      "actuallyĠ": 8046,
      "percent": 8047,
      "With": 8048,
      "tru": 8049,
      "chron": 8050,
      "ĊĊS": 8051,
      "utionsĠ": 8052,
      ",ĠD": 8053,
      "replac": 8054,
      "åĮĸåĴĮ": 8055,
      "turn": 8056,
      "examin": 8057,
      "said": 8058,
      "bilityĠ": 8059,
      "constantĠ": 8060,
      "ä¸Ĭä¸ĭ": 8061,
      "onceĠ": 8062,
      "promot": 8063,
      "æĶ»åĩ»": 8064,
      "æĬµæĬ¼": 8065,
      "ç²®é£Ł": 8066,
      "Read": 8067,
      "almostĠ": 8068,
      "ãĢĤĊ2.": 8069,
      "surfac": 8070,
      "don'tĠ": 8071,
      ".p": 8072,
      "èĪĬ": 8073,
      "to-": 8074,
      "éŀ": 8075,
      "clinicalĠ": 8076,
      "imalĠ": 8077,
      "æĮ¯åħ´": 8078,
      "ĊĊï¼Ī": 8079,
      "(T": 8080,
      "ian": 8081,
      "å®ĹæķĻ": 8082,
      "æĪĲç»©": 8083,
      "é«Ļ": 8084,
      "Add": 8085,
      "1000": 8086,
      "åĮºåĿĹ": 8087,
      ".org/": 8088,
      "èĻİ": 8089,
      "advant": 8090,
      "Loc": 8091,
      "image": 8092,
      "understandĠ": 8093,
      "è¾Ĳ": 8094,
      "ticeĠ": 8095,
      "åįıåķĨ": 8096,
      "76": 8097,
      "æĪ´": 8098,
      "åĲĮå¿Ĺ": 8099,
      "å°ıç»Ħ": 8100,
      "job": 8101,
      "Ġ*/": 8102,
      "è²Į": 8103,
      "BS": 8104,
      "å°Ĩåħ¶": 8105,
      "profession": 8106,
      "EM": 8107,
      "electro": 8108,
      "specialĠ": 8109,
      "Ã¡": 8110,
      "however,Ġ": 8111,
      "esĠwithĠ": 8112,
      "yi": 8113,
      "shortĠ": 8114,
      "èī¯å¥½": 8115,
      "acyĠ": 8116,
      "èĥĨ": 8117,
      "nucle": 8118,
      "achiev": 8119,
      "ersĠareĠ": 8120,
      "éĩĬæĶ¾": 8121,
      "çĪ¶æ¯į": 8122,
      "url": 8123,
      "directlyĠ": 8124,
      "df": 8125,
      "2015å¹´": 8126,
      "checkĠ": 8127,
      "ä»£çłģ": 8128,
      "valueĠofĠ": 8129,
      "tum": 8130,
      "ãĢĤä½Ĩæĺ¯": 8131,
      "é¼»": 8132,
      "è®°è½½": 8133,
      "holdĠ": 8134,
      "len": 8135,
      ";Ċĉĉ": 8136,
      "ç²¾åĩĨ": 8137,
      "ç¨ĭåº¦ä¸Ĭ": 8138,
      ".ĠAndĠ": 8139,
      "chann": 8140,
      "ç¼ºéĻ·": 8141,
      "Ðµ": 8142,
      "çĶµåİĭ": 8143,
      "åĲ«éĩı": 8144,
      "affect": 8145,
      "=1": 8146,
      "eder": 8147,
      "medicalĠ": 8148,
      "}+": 8149,
      "efficientĠ": 8150,
      "åıĳèĤ²": 8151,
      "ä¸Ģ)": 8152,
      "å¤©çĦ¶": 8153,
      "çĻ¾å¹´": 8154,
      "afterĠtheĠ": 8155,
      "formulaĠ": 8156,
      "ByĠ": 8157,
      "princi": 8158,
      "}ĊĠĠĠĠĠĠĠĠ": 8159,
      "hop": 8160,
      "ä¸ĭåĪĹ": 8161,
      "åģļåĩº": 8162,
      "å¥ĭæĸĹ": 8163,
      "wideĠ": 8164,
      "managementĠ": 8165,
      "cess": 8166,
      "ä»£è°¢": 8167,
      "çªĹ": 8168,
      "ken": 8169,
      "åı¯ä»¥éĢļè¿ĩ": 8170,
      "WĠ": 8171,
      "custom": 8172,
      "äºĨï¼Į": 8173,
      "æĸĩæľ¬": 8174,
      "component": 8175,
      "æĢİä¹Ī": 8176,
      "åĴĮâĢľ": 8177,
      "åĬłä»¥": 8178,
      "well-": 8179,
      "addition": 8180,
      "æĹ¥,": 8181,
      "åıĤèĢĥæĸĩçĮ®": 8182,
      "åĢ¼å¾Ĺ": 8183,
      "ç»©æķĪ": 8184,
      "pay": 8185,
      "initialĠ": 8186,
      "çļĦçĲĨè®º": 8187,
      "alge": 8188,
      "exerc": 8189,
      "recogn": 8190,
      "æ³Ħ": 8191,
      "textĠ": 8192,
      "ç´į": 8193,
      "åħ»èĢģ": 8194,
      "subst": 8195,
      "éĩįå¤į": 8196,
      "Lear": 8197,
      "è¯Ī": 8198,
      "atedĠinĠ": 8199,
      "ï¼Įåħ·æľī": 8200,
      "è°ģ": 8201,
      "/*": 8202,
      "ãĢı": 8203,
      "åĪĿæŃ¥": 8204,
      "categ": 8205,
      "it'sĠ": 8206,
      "åŃ¦ä¼ļ": 8207,
      "proced": 8208,
      "åĩºçīĪç¤¾": 8209,
      "youngĠ": 8210,
      "Her": 8211,
      "çļĦç»ĵæŀľ": 8212,
      "Reg": 8213,
      "regionĠ": 8214,
      "Pres": 8215,
      "Introduction": 8216,
      "licens": 8217,
      "statesĠ": 8218,
      "ativelyĠ": 8219,
      "Ġ*": 8220,
      "åĸ·": 8221,
      "éĤ»": 8222,
      "æīĭæľ¯": 8223,
      "patientĠ": 8224,
      "host": 8225,
      "è¾Ł": 8226,
      "relig": 8227,
      "cup": 8228,
      "åħ¬éĩĮ": 8229,
      "spr": 8230,
      "ãĢĤèĭ¥": 8231,
      "Chris": 8232,
      "primaryĠ": 8233,
      "cross": 8234,
      "secur": 8235,
      "è¿·": 8236,
      "èµĦæł¼": 8237,
      "du": 8238,
      "å¾®çĶŁçī©": 8239,
      "(-": 8240,
      "actionsĠ": 8241,
      "#includeĠ\"": 8242,
      "Ċ2.": 8243,
      "ï¼ĮãĢĢãĢĢ": 8244,
      "s:ĊĊ": 8245,
      "èĩ³å°ĳ": 8246,
      "section": 8247,
      "éĨĴ": 8248,
      "ç²ĺ": 8249,
      "æľįåĬ¡åĻ¨": 8250,
      "stim": 8251,
      "variableĠ": 8252,
      "å±Ī": 8253,
      "ä¸»å¯¼": 8254,
      "è§Ĩé¢ĳ": 8255,
      "ï¼ĮåĨį": 8256,
      "Nam": 8257,
      "Multi": 8258,
      "çļĦæ¦Ĥå¿µ": 8259,
      "developĠ": 8260,
      "ãĢĤå¯¹äºİ": 8261,
      "æīĢè¿°": 8262,
      "3/": 8263,
      "ingĠwithĠ": 8264,
      "electricĠ": 8265,
      "äºĶå¹´": 8266,
      "ffĠ": 8267,
      "ical": 8268,
      "åĵģçīĮ": 8269,
      "attr": 8270,
      "errorĠ": 8271,
      "æĺ¯ä»Ģä¹Ī": 8272,
      "2016å¹´": 8273,
      "æįŁä¼¤": 8274,
      "outĠofĠ": 8275,
      "feed": 8276,
      ",ĠasĠ": 8277,
      "åłĨ": 8278,
      "directĠ": 8279,
      "å¤·": 8280,
      ")ĠisĠ": 8281,
      "æĹłæķĪ": 8282,
      "halfĠ": 8283,
      ",åı¯": 8284,
      "åıĺæĽ´": 8285,
      "æĸĳ": 8286,
      "netĠ": 8287,
      "pageĠ": 8288,
      "concept": 8289,
      "ç¿»è¯ĳ": 8290,
      "\".": 8291,
      "BC": 8292,
      "uredĠ": 8293,
      "address": 8294,
      "å¹¿å¤§": 8295,
      "cularĠ": 8296,
      "ability": 8297,
      "çģµæ´»": 8298,
      "èµ°åĲĳ": 8299,
      "2019å¹´": 8300,
      ",åĽłæŃ¤": 8301,
      "åĢºåĪ¸": 8302,
      "ationĠ(": 8303,
      "æ²Ī": 8304,
      "FromĠ": 8305,
      "åĲİæĿ¥": 8306,
      "äºĮ)": 8307,
      "maximumĠ": 8308,
      "å¤§éĥ¨åĪĨ": 8309,
      "æ°®": 8310,
      "near": 8311,
      "sĠbyĠ": 8312,
      "\",\"": 8313,
      "çĽĳæİ§": 8314,
      "å¦Ĥä¾Ĩ": 8315,
      "èĢĥå¯Ł": 8316,
      ".ĠAllĠ": 8317,
      "ä¸Ģå¹´": 8318,
      "æºª": 8319,
      "essentialĠ": 8320,
      "reach": 8321,
      ".html": 8322,
      "param": 8323,
      "nutri": 8324,
      "äººä¸º": 8325,
      "vector": 8326,
      "ãĢĤçĽ®åīį": 8327,
      "Rem": 8328,
      "éĥĳ": 8329,
      "ific": 8330,
      "analyz": 8331,
      "economicĠ": 8332,
      "InĠthisĠ": 8333,
      "),ĠandĠ": 8334,
      "ä»¥çĤº": 8335,
      "sĠtoĠtheĠ": 8336,
      "2æľĪ": 8337,
      "Event": 8338,
      "åĬ¨æľº": 8339,
      "1.0": 8340,
      "çĪµ": 8341,
      "ç¦ģæŃ¢": 8342,
      "liv": 8343,
      "ä¼łéĢĴ": 8344,
      "bornĠ": 8345,
      "empt": 8346,
      "é«ĵ": 8347,
      "è®¤è¯ģ": 8348,
      "æĺ¯ä¸į": 8349,
      "çİ°æľī": 8350,
      "home": 8351,
      "opt": 8352,
      "Technolog": 8353,
      "4Ċ": 8354,
      "çĽĪ": 8355,
      "ideaĠ": 8356,
      "subject": 8357,
      "opportun": 8358,
      "techniqu": 8359,
      "ç¿°": 8360,
      "æł·æľ¬": 8361,
      "programĠ": 8362,
      "éĹ´çļĦ": 8363,
      "vectorĠ": 8364,
      "åıĻ": 8365,
      "æī«": 8366,
      "Array": 8367,
      "guid": 8368,
      "nal": 8369,
      "éħ¬": 8370,
      "d-": 8371,
      "PR": 8372,
      "43": 8373,
      "ï¼ĮéĤ£ä¹Ī": 8374,
      "archĠ": 8375,
      "éī´å®ļ": 8376,
      "s,": 8377,
      "ï¼Įå°±æĺ¯": 8378,
      "èĬ¯": 8379,
      "åı¯ä»¥åľ¨": 8380,
      "åĶ¯ä¸Ģ": 8381,
      "èī¾": 8382,
      "zz": 8383,
      "seri": 8384,
      "å±ħä½ı": 8385,
      "current": 8386,
      "æľīéĻĲåħ¬åı¸": 8387,
      "ï¼Įæİ¨åĬ¨": 8388,
      "StatesĠ": 8389,
      "ik": 8390,
      "weĠhaveĠ": 8391,
      "æľīçĿĢ": 8392,
      "Sup": 8393,
      "2015": 8394,
      "æ¸ħæ¥ļ": 8395,
      "THEĠ": 8396,
      "bind": 8397,
      "ãĢĤæł¹æį®": 8398,
      "high-": 8399,
      "spl": 8400,
      "oll": 8401,
      "######Ġ": 8402,
      "å¸¦æĿ¥çļĦ": 8403,
      "Ċĉĉĉĉĉĉ": 8404,
      "ä¹łè¿ĳå¹³æĢ»ä¹¦è®°": 8405,
      "ing:Ġ": 8406,
      "çİ©": 8407,
      "NorthĠ": 8408,
      "posit": 8409,
      "scaleĠ": 8410,
      "SouthĠ": 8411,
      "leyĠ": 8412,
      "èĥľåĪ©": 8413,
      "centuryĠ": 8414,
      "wav": 8415,
      "frac{\\": 8416,
      "sensi": 8417,
      "arkĠ": 8418,
      "èµŀ": 8419,
      "æ¡£æ¡Ī": 8420,
      "decreas": 8421,
      "esĠwereĠ": 8422,
      "å¯Ĩåº¦": 8423,
      "$$ĊĊ": 8424,
      "æ¸łéģĵ": 8425,
      ".ĠSoĠ": 8426,
      "uponĠ": 8427,
      "survi": 8428,
      "java.": 8429,
      "å¸ĤåľºçļĦ": 8430,
      "DataĠ": 8431,
      "requireĠ": 8432,
      "Mess": 8433,
      "licen": 8434,
      "éłĨ": 8435,
      "96": 8436,
      "åľ°ï¼Į": 8437,
      "productĠ": 8438,
      "çıį": 8439,
      "ML": 8440,
      "Rom": 8441,
      "antumĠ": 8442,
      "enz": 8443,
      "3ï¼ī": 8444,
      "grav": 8445,
      "ufact": 8446,
      "æķħéļľ": 8447,
      "corpor": 8448,
      "Math": 8449,
      "çłĶç©¶äººåĳĺ": 8450,
      ")(": 8451,
      ",éĢļè¿ĩ": 8452,
      "86": 8453,
      "Oct": 8454,
      "åĲ¨": 8455,
      "ç»ıæµİç¤¾ä¼ļ": 8456,
      "æĤŁ": 8457,
      "restĠ": 8458,
      "ï¼Įå¿ħé¡»": 8459,
      "åĲĦé¡¹": 8460,
      "ä¿¡æģ¯åĮĸ": 8461,
      "çłĶç©¶æīĢ": 8462,
      "Sta": 8463,
      "éİ": 8464,
      "attribut": 8465,
      "itâĢĻsĠ": 8466,
      "çī©èģĶç½ĳ": 8467,
      "NewĠYor": 8468,
      "å·¥èµĦ": 8469,
      "strongĠ": 8470,
      "2018å¹´": 8471,
      "åĬĽåº¦": 8472,
      "aly": 8473,
      "ReferencesĊĊ": 8474,
      "schem": 8475,
      "ç¨Ģ": 8476,
      "facil": 8477,
      "(H": 8478,
      "m/": 8479,
      "è¿Ł": 8480,
      "igr": 8481,
      "çİ°çĬ¶": 8482,
      "äººæ°ĳæĶ¿åºľ": 8483,
      "Path": 8484,
      "å®ŀæĹ¶": 8485,
      "æ¶¨": 8486,
      "æĽ´å¤ļçļĦ": 8487,
      "|Ċ|Ġ": 8488,
      "è§Ĩä¸º": 8489,
      "è§£éĻ¤": 8490,
      "æļĸ": 8491,
      "ing.Ċ": 8492,
      "ectĠofĠ": 8493,
      "ç¿¼": 8494,
      "Mat": 8495,
      "ource": 8496,
      "IO": 8497,
      "kg": 8498,
      "çļĦĠ": 8499,
      "å±Ģéĥ¨": 8500,
      "æ©ŁéĹľ": 8501,
      "9,Ġ": 8502,
      "éĻĢ": 8503,
      "ãĢĭä¸Ń": 8504,
      "âĦĥ": 8505,
      ")/": 8506,
      "Doc": 8507,
      "å°Ŀ": 8508,
      "éĩıåŃĲ": 8509,
      "Post": 8510,
      "equalĠtoĠ": 8511,
      "RU": 8512,
      "åī©": 8513,
      "s,ĠbutĠ": 8514,
      "enceĠandĠ": 8515,
      "èļĢ": 8516,
      "é©¾é©¶": 8517,
      "ä¹Łä¼ļ": 8518,
      "DA": 8519,
      "æİ¨èįĲ": 8520,
      "ĠĠ<": 8521,
      "ationĠtoĠ": 8522,
      "connect": 8523,
      "iorĠ": 8524,
      "ä¸įåĨį": 8525,
      "è±Ī": 8526,
      "çĶ¨äººåįķä½į": 8527,
      "Jav": 8528,
      "kid": 8529,
      "çļĦæł¸å¿ĥ": 8530,
      "ency": 8531,
      "Tri": 8532,
      "win": 8533,
      "æģ°": 8534,
      "tishĠ": 8535,
      "æ½ľåľ¨": 8536,
      "):Ġ": 8537,
      "æķĹ": 8538,
      "ase": 8539,
      "ç¢İ": 8540,
      "ç®Ģç§°": 8541,
      "symmet": 8542,
      "Result": 8543,
      "éĢĤçĶ¨äºİ": 8544,
      "2012å¹´": 8545,
      "åĪ¤åĨ³": 8546,
      "0.5": 8547,
      "EG": 8548,
      "want": 8549,
      "å¾Ĺä»¥": 8550,
      "-h": 8551,
      "http://www.": 8552,
      "ä¾Ŀçħ§": 8553,
      "åħ¶å®ĥ": 8554,
      "Calcul": 8555,
      "åĴ¨è¯¢": 8556,
      "amm": 8557,
      "i,Ġ": 8558,
      "governmentĠ": 8559,
      "tive": 8560,
      "ç£·": 8561,
      "t-": 8562,
      "ç´°": 8563,
      "border": 8564,
      "[5": 8565,
      "æ´»åĬ¨çļĦ": 8566,
      "ä¸ªæľĪ": 8567,
      "vely": 8568,
      "ä»¥åīį": 8569,
      "ç©Ĩ": 8570,
      "éĽķ": 8571,
      "çĩķ": 8572,
      "æ·»åĬł": 8573,
      "Defin": 8574,
      "prep": 8575,
      "ç§ĳåŃ¦å®¶": 8576,
      "åİŁåŃĲ": 8577,
      "ä¾ĿéĿł": 8578,
      "æĲŃ": 8579,
      "relationshipĠ": 8580,
      "ertĠ": 8581,
      "filter": 8582,
      "sixĠ": 8583,
      "as,Ġ": 8584,
      "phaseĠ": 8585,
      "below": 8586,
      "ileĠtheĠ": 8587,
      "2014å¹´": 8588,
      "åĳ½ä»¤": 8589,
      "\\frac{1}{": 8590,
      "ä¼łæī¿": 8591,
      "ç»Ŀå¯¹": 8592,
      "satis": 8593,
      "é«ĺçº§": 8594,
      "accessĠ": 8595,
      "åº«": 8596,
      "è¿ĳä»£": 8597,
      "LetĠ": 8598,
      "äºĭçī©": 8599,
      "éĻ¢æł¡": 8600,
      "åĬĳ": 8601,
      "hypo": 8602,
      "happen": 8603,
      ".ĠThere": 8604,
      "rist": 8605,
      "çªģåıĺ": 8606,
      ",å®ĥ": 8607,
      "è§Ī": 8608,
      "åĲĪå¹¶": 8609,
      "paralle": 8610,
      "ChapterĠ": 8611,
      "environmentĠ": 8612,
      "ler": 8613,
      "ä¼ª": 8614,
      "æĦĽ": 8615,
      "criticalĠ": 8616,
      "é¨": 8617,
      "seg": 8618,
      "eĠinĠ": 8619,
      "meansĠ": 8620,
      "ez": 8621,
      "rais": 8622,
      "pris": 8623,
      "æķ¦": 8624,
      "æŁĶ": 8625,
      "å¤§åŀĭ": 8626,
      "2017å¹´": 8627,
      "23Ġ": 8628,
      "ment,Ġ": 8629,
      "äººå¤§": 8630,
      "akeĠ": 8631,
      "çĲ´": 8632,
      "87": 8633,
      "éĺŁä¼į": 8634,
      "le-": 8635,
      "éģĭ": 8636,
      "ä¸²": 8637,
      "æ³ķãĢģ": 8638,
      "åĥ§": 8639,
      "primeĠ": 8640,
      "è¿Ŀçº¦": 8641,
      "ï¼Įå»ºç«ĭ": 8642,
      "inĠandĠ": 8643,
      "accept": 8644,
      "èĩº": 8645,
      "2.0": 8646,
      "MarchĠ": 8647,
      "DNAĠ": 8648,
      "èĤ¤": 8649,
      "questionsĠ": 8650,
      "å°Ĭéĩį": 8651,
      "parent": 8652,
      "Har": 8653,
      "èĳī": 8654,
      "DepartmentĠofĠ": 8655,
      "[Ġ": 8656,
      "ãĢĭçļĦ": 8657,
      "targetĠ": 8658,
      "ç¼ĸè¾ĳ": 8659,
      "ï¼Įä¸įä»ħ": 8660,
      "åľ°åĮºçļĦ": 8661,
      "æľ¬ä¹¦": 8662,
      "Chec": 8663,
      "toĠmakeĠ": 8664,
      "å¤§å¤«": 8665,
      "åĲ¸å¼ķ": 8666,
      "[]": 8667,
      "correctĠ": 8668,
      "y,ĠtheĠ": 8669,
      "Jap": 8670,
      "ï¼ĮåºĶ": 8671,
      "3)Ġ": 8672,
      "usedĠforĠ": 8673,
      "=0": 8674,
      "(L": 8675,
      "Tra": 8676,
      "ç½Ĺæĸ¯": 8677,
      "ä½ľçĶ¨ãĢĤ": 8678,
      "åľ°äº§": 8679,
      ":ĠTheĠ": 8680,
      "å¥´": 8681,
      "èĦ¾": 8682,
      "ä¼Ļ": 8683,
      "itt": 8684,
      "åºıåĪĹ": 8685,
      ",ĊĠĠĠĠ": 8686,
      "review": 8687,
      "æīĢéľĢ": 8688,
      "userĠ": 8689,
      "èĽĭçĻ½è´¨": 8690,
      "eti": 8691,
      "ä¸ºåŁºç¡Ģ": 8692,
      "complex": 8693,
      "lamb": 8694,
      "simplyĠ": 8695,
      ")Ġ{ĊĠĠĠĠ": 8696,
      "center": 8697,
      "tiliz": 8698,
      "å¯¹åħ¶": 8699,
      "æµĻæ±Ł": 8700,
      "arrow": 8701,
      "æĳĨ": 8702,
      "è¸ª": 8703,
      "åŃķ": 8704,
      "æ¡ĳ": 8705,
      "åĮºåĿĹéĵ¾": 8706,
      "çŁ¥è¯Ĩäº§æĿĥ": 8707,
      "wr": 8708,
      "ä½Ĳ": 8709,
      "algorithm": 8710,
      "packageĠ": 8711,
      "ä½İäºİ": 8712,
      "èĥ½åĬĽçļĦ": 8713,
      "ä¸»è§Ĥ": 8714,
      "usefulĠ": 8715,
      "æĸľ": 8716,
      "è¦ĸ": 8717,
      "åĬĽãĢģ": 8718,
      "çĿ¡": 8719,
      "åĬŀåħ¬": 8720,
      "å°ļæľª": 8721,
      "human": 8722,
      "çĲĨçĶ±": 8723,
      "propor": 8724,
      "nearĠ": 8725,
      "ä¸§": 8726,
      "åĮºåĪĨ": 8727,
      "heĠwasĠ": 8728,
      "discover": 8729,
      "Hand": 8730,
      "gasĠ": 8731,
      "].ĠTheĠ": 8732,
      "speedĠ": 8733,
      "it,Ġ": 8734,
      "æīĢç¤º": 8735,
      "åģĩè®¾": 8736,
      "matrix": 8737,
      "97": 8738,
      "fav": 8739,
      "sav": 8740,
      "ä¸įåĪ°": 8741,
      "sure": 8742,
      ".ĠOnĠ": 8743,
      "æī¾åĪ°": 8744,
      "ç§ĺå¯Ĩ": 8745,
      "onalĠ": 8746,
      "definedĠ": 8747,
      "emp": 8748,
      "emerg": 8749,
      "AI": 8750,
      "é¢Ī": 8751,
      "didĠnotĠ": 8752,
      "heav": 8753,
      "å½¢æĪĲçļĦ": 8754,
      "}Ċĉ": 8755,
      "alizedĠ": 8756,
      "streng": 8757,
      "ç¡«": 8758,
      "create": 8759,
      "åŃĺåľ¨çļĦ": 8760,
      "sun": 8761,
      "adj": 8762,
      "tionĠtoĠ": 8763,
      "çĩ¥": 8764,
      "ĊãĢĢãĢĢĊãĢĢãĢĢĊãĢĢãĢĢĊãĢĢãĢĢ": 8765,
      "Aug": 8766,
      "âħ": 8767,
      "ticsĠ": 8768,
      "last": 8769,
      "outputĠ": 8770,
      "èĪĴ": 8771,
      "2013å¹´": 8772,
      "ï¼ĮçĶ±äºİ": 8773,
      "æĮĤ": 8774,
      "anĠin": 8775,
      "Method": 8776,
      ":0": 8777,
      "OP": 8778,
      "åĵģè´¨": 8779,
      "OneĠ": 8780,
      "apter": 8781,
      "fast": 8782,
      "usingĠaĠ": 8783,
      "çĤŃ": 8784,
      "closeĠ": 8785,
      "ĊĊ####Ġ": 8786,
      "æ·ĭ": 8787,
      "èģĮå·¥": 8788,
      "è¾Ĳå°Ħ": 8789,
      "aa": 8790,
      "çļĦæķĻåŃ¦": 8791,
      "çļĦçī¹çĤ¹": 8792,
      "serviceĠ": 8793,
      "Ġ3.": 8794,
      "ï¼ĮçĶļèĩ³": 8795,
      "èµ¢": 8796,
      "åįĹäº¬": 8797,
      "ç¬¬ä¸Ģä¸ª": 8798,
      "æ¢¯": 8799,
      "é£İæł¼": 8800,
      "acid": 8801,
      "åĲĪçī©": 8802,
      "ĊtheĠ": 8803,
      "ofĠthisĠ": 8804,
      "éģº": 8805,
      "](#": 8806,
      "explain": 8807,
      "å¤§éĩıçļĦ": 8808,
      "ocy": 8809,
      "æľįåĬ¡çļĦ": 8810,
      "çİ»": 8811,
      "stream": 8812,
      "æĶ¯åĩº": 8813,
      "matterĠ": 8814,
      "ogĠ": 8815,
      "çĤ¹çļĦ": 8816,
      "è¾ŀ": 8817,
      "é«ĺéĢŁ": 8818,
      "èµĦæºĲçļĦ": 8819,
      "æĸ·": 8820,
      "acqu": 8821,
      "output": 8822,
      "becameĠ": 8823,
      "å¹´ï¼Ī": 8824,
      ".C": 8825,
      "æıŃç¤º": 8826,
      "ä½ĵç³»çļĦ": 8827,
      "æ¿Ģåħī": 8828,
      "itect": 8829,
      "åı¦å¤ĸ": 8830,
      "source": 8831,
      "ãĢĤåĲĮæĹ¶": 8832,
      "qualityĠ": 8833,
      "èĩ³ä»Ĭ": 8834,
      "ology": 8835,
      ".ĠThisĠisĠ": 8836,
      "fill": 8837,
      "ç¤ºèĮĥ": 8838,
      "does": 8839,
      "åĨ²åĩ»": 8840,
      "äººä½ĵ": 8841,
      "ThereĠareĠ": 8842,
      "è½¦è¾Ĩ": 8843,
      "uresĠ": 8844,
      "s'Ġ": 8845,
      "reve": 8846,
      "é¢ģ": 8847,
      "éĥ½ä¼ļ": 8848,
      "aĠnewĠ": 8849,
      "-1Ġ": 8850,
      "ledĠ": 8851,
      "emo": 8852,
      "awayĠ": 8853,
      "difficultĠ": 8854,
      "åĵįåºĶ": 8855,
      "factorsĠ": 8856,
      "aroundĠtheĠ": 8857,
      "chro": 8858,
      "äºĨãĢĤ": 8859,
      "ç¼ĸåĪ¶": 8860,
      "å°ĺ": 8861,
      "èģĮä¸ļæķĻèĤ²": 8862,
      "å¨ģèĥģ": 8863,
      "éĩĳèŀįæľºæŀĦ": 8864,
      "ä¸įèī¯": 8865,
      "or,Ġ": 8866,
      "åĬŁçİĩ": 8867,
      "çĩŁ": 8868,
      "message": 8869,
      "Em": 8870,
      "thĠandĠ": 8871,
      "éĩĩéĽĨ": 8872,
      "InternationalĠ": 8873,
      "åį«æĺŁ": 8874,
      ",ä»¥åıĬ": 8875,
      "lessĠthanĠ": 8876,
      "åĽĽãĢģ": 8877,
      "ç¬¬ä¸Ģæ¬¡": 8878,
      "rangeĠofĠ": 8879,
      "idd": 8880,
      "blackĠ": 8881,
      "èĢĥåı¤": 8882,
      "stitution": 8883,
      "å¤ĸäº¤": 8884,
      "æĭħä»»": 8885,
      "å¦Ĥæĺ¯": 8886,
      "font-": 8887,
      ")åĴĮ": 8888,
      "æĹ¥èµ·": 8889,
      "åıĶ": 8890,
      "ä¸ĸå°Ĭ": 8891,
      "abilityĠtoĠ": 8892,
      ",åĪĻ": 8893,
      "èĳĹåĲį": 8894,
      "focusĠ": 8895,
      "nod": 8896,
      "æĸĩçī©": 8897,
      "æħĪ": 8898,
      "èĤ¡ç¥¨": 8899,
      "è¡¨çİ°ä¸º": 8900,
      "æİ¥æĶ¶": 8901,
      "çĴĥ": 8902,
      "æ±¡æ°´": 8903,
      "<sup>": 8904,
      "edit": 8905,
      "ç»ıæµİåŃ¦": 8906,
      ",å°±": 8907,
      "æ·¡": 8908,
      "æľªæĪĲå¹´": 8909,
      "...Ġ": 8910,
      "tualĠ": 8911,
      "ä¹ĭæīĢ": 8912,
      "ing.": 8913,
      "é¢Ħç®Ĺ": 8914,
      "æĬĢæľ¯ãĢģ": 8915,
      "wast": 8916,
      "åŃĶåŃĲ": 8917,
      "erĠ(": 8918,
      "perf": 8919,
      "},Ġ": 8920,
      "ãĢĤä¸Ģ": 8921,
      "IfĠyouĠ": 8922,
      "ãĢĤä¸İ": 8923,
      "ç»ıåħ¸": 8924,
      "æµģéĩı": 8925,
      "æ¸ħæ´ģ": 8926,
      "sqrt{": 8927,
      "cellsĠ": 8928,
      "film": 8929,
      "éĤĵ": 8930,
      "ãĢĤä¸º": 8931,
      "åįµ": 8932,
      "edĠinĠaĠ": 8933,
      "åįıä¼ļ": 8934,
      "é¡į": 8935,
      "åł¡": 8936,
      ",ä¸ŃåĽ½": 8937,
      "åıĳçĹħ": 8938,
      "æ·®": 8939,
      "\\c": 8940,
      "æ³ķäºº": 8941,
      "åĮºçļĦ": 8942,
      "real": 8943,
      "createdĠ": 8944,
      "clust": 8945,
      "Buil": 8946,
      "Ċ$": 8947,
      "Retur": 8948,
      "ï¼ļĠ": 8949,
      "éĨĩ": 8950,
      "eldĠ": 8951,
      "âĢĻreĠ": 8952,
      "partialĠ": 8953,
      "s\"": 8954,
      "room": 8955,
      "ä¹ĭè·¯": 8956,
      "éĺ²æ²»": 8957,
      "ï¼ĮæĹ¢": 8958,
      "æĬ¥éģĵ": 8959,
      "x+": 8960,
      "apache": 8961,
      "courseĠ": 8962,
      "åĤ¬åĮĸ": 8963,
      "çļĦåİŁåĽł": 8964,
      "æľīäºĨ": 8965,
      "åĪĨè§£": 8966,
      "column": 8967,
      "mob": 8968,
      "ç¢ĳ": 8969,
      "-8": 8970,
      "èĬĤèĥ½": 8971,
      "fem": 8972,
      "ink": 8973,
      "strateg": 8974,
      "ï¼ĮæĪĸèĢħ": 8975,
      "1Ġ=Ġ": 8976,
      "åĲĮæŃ¥": 8977,
      "åĽ¢ç»ĵ": 8978,
      "æķıæĦŁ": 8979,
      "é«ĺäºİ": 8980,
      "æ¬º": 8981,
      "ãĢĤæŃ¤å¤ĸï¼Į": 8982,
      "å°ıåŃ¦": 8983,
      "-S": 8984,
      "å°ĳå¹´": 8985,
      "brid": 8986,
      "çĶ¢": 8987,
      "ç¡¬ä»¶": 8988,
      "ï¼Įä¾ĭå¦Ĥ": 8989,
      "cons": 8990,
      "sus": 8991,
      "æĤ£èĢħçļĦ": 8992,
      ",åĲĮæĹ¶": 8993,
      "ÃŃ": 8994,
      "193": 8995,
      "èĢģå¹´": 8996,
      "èģ·": 8997,
      "Ð¸": 8998,
      "shallĠ": 8999,
      "ç¨į": 9000,
      "èĳ¬": 9001,
      "å¥ł": 9002,
      "ç®¡çĲĨãĢģ": 9003,
      "é£Łçī©": 9004,
      "ratioĠ": 9005,
      "USĠ": 9006,
      "æľĭ": 9007,
      "è¡į": 9008,
      "èģĺ": 9009,
      "è¡Įä¸ºçļĦ": 9010,
      "ĠĠĠĊ": 9011,
      "å¹²æī°": 9012,
      "CopyrightĠ": 9013,
      "ä¸īç§į": 9014,
      "rac": 9015,
      "xi": 9016,
      "ç¬ĳ": 9017,
      "sustain": 9018,
      "ing,ĠandĠ": 9019,
      "geneĠ": 9020,
      "éĦŃ": 9021,
      "Develop": 9022,
      "éĤĬ": 9023,
      "éļıæľº": 9024,
      ")Ġ{ĊĠĠĠĠĠĠĠĠĠĠĠĠ": 9025,
      "functionsĠ": 9026,
      "ING": 9027,
      "px|": 9028,
      "insteadĠ": 9029,
      "IsĠ": 9030,
      "callĠ": 9031,
      "bib": 9032,
      "User": 9033,
      "ite": 9034,
      "ä¿¡æģ¯çļĦ": 9035,
      "datab": 9036,
      "mac": 9037,
      "çİĦ": 9038,
      "çŃīçº§": 9039,
      "a)Ġ": 9040,
      "èĩ¨": 9041,
      "æ¶ĪéĻ¤": 9042,
      "DS": 9043,
      "ï¼Įä¸įèĥ½": 9044,
      "CM": 9045,
      "atorsĠ": 9046,
      "ers.Ġ": 9047,
      "æ°ĳåĽ½": 9048,
      ")Ċ-Ġ": 9049,
      "éłĺ": 9050,
      ",ä¸İ": 9051,
      "æĢĴ": 9052,
      "Â±": 9053,
      "çŃĽ": 9054,
      "åºĶæĢ¥": 9055,
      "inaryĠ": 9056,
      "VER": 9057,
      "ç¬¬ä¸ĥ": 9058,
      "çĻ¾åĪĨ": 9059,
      "éĩĩè´Ń": 9060,
      "åĨįçĶŁ": 9061,
      "CN": 9062,
      "Cap": 9063,
      "characteristic": 9064,
      "åĨĽéĺŁ": 9065,
      ";ĊĊĠĠĠĠ": 9066,
      "largerĠ": 9067,
      "singĠ": 9068,
      "ï¼Įèĥ½": 9069,
      "èŀº": 9070,
      "Proble": 9071,
      "endi": 9072,
      "åħ¬å¸ĥ": 9073,
      "ityĠofĠtheĠ": 9074,
      "é»İ": 9075,
      "åĻª": 9076,
      "å®ŀè·µä¸Ń": 9077,
      "Sw": 9078,
      "children": 9079,
      "ï¼ĮãĢĬ": 9080,
      "ä»Ĭå¹´": 9081,
      "[6": 9082,
      "erĠisĠ": 9083,
      "listĠ": 9084,
      "more": 9085,
      "pastĠ": 9086,
      "Ċ3.": 9087,
      "è®°å¿Ĩ": 9088,
      "onlineĠ": 9089,
      "å¹¶éĿŀ": 9090,
      "åĭŀ": 9091,
      "çº¿æĢ§": 9092,
      "themsel": 9093,
      "å°ģå»º": 9094,
      "YourĠ": 9095,
      "è²¡": 9096,
      "SchoolĠ": 9097,
      "JanuaryĠ": 9098,
      "ãĢģä¸Ń": 9099,
      "ingĠforĠ": 9100,
      "$Ġ(": 9101,
      "åĪĴåĪĨ": 9102,
      "è¾ĥä½İ": 9103,
      "æİĪæĿĥ": 9104,
      "market": 9105,
      "åĲĦèĩª": 9106,
      "ç»ıæµİå¢ŀéķ¿": 9107,
      "clearĠ": 9108,
      "experienceĠ": 9109,
      "FA": 9110,
      "å¼ĺ": 9111,
      ".\"Ġ": 9112,
      "appl": 9113,
      "2008å¹´": 9114,
      "äººæ°ĳå¸ģ": 9115,
      "æ¸ħæĻ°": 9116,
      "zeroĠ": 9117,
      "distinc": 9118,
      "è³ľ": 9119,
      "å½¢æĪĲäºĨ": 9120,
      "åľ¨ãĢĬ": 9121,
      "environmentalĠ": 9122,
      "highlyĠ": 9123,
      "åŀĦ": 9124,
      "4ãĢģ": 9125,
      "180": 9126,
      "Vari": 9127,
      "ationsĠandĠ": 9128,
      "éĻ°": 9129,
      "roid": 9130,
      "esĠfromĠ": 9131,
      "ï¼ħ": 9132,
      "pathĠ": 9133,
      "measureĠ": 9134,
      "TP": 9135,
      "æĵļ": 9136,
      "è¯Ńæĸĩ": 9137,
      "protein": 9138,
      "ãĢĤæĺ¯": 9139,
      "additionĠ": 9140,
      "ä¿ĿåŃĺ": 9141,
      ".ĠAfterĠ": 9142,
      "UnitedĠStatesĠ": 9143,
      "(*": 9144,
      "SH": 9145,
      "çļĦä½¿çĶ¨": 9146,
      "claim": 9147,
      "spectr": 9148,
      "illustr": 9149,
      "p.Ġ": 9150,
      "Inte": 9151,
      "kindĠ": 9152,
      "representsĠ": 9153,
      "å®ŀä¾ĭ": 9154,
      "åĤĻ": 9155,
      "costĠ": 9156,
      "éĢļéģĵ": 9157,
      "flag": 9158,
      "regularĠ": 9159,
      "èĪªç©º": 9160,
      "relev": 9161,
      ".ĠK": 9162,
      "Wal": 9163,
      "èĭıèģĶ": 9164,
      "Tre": 9165,
      "ãĢģå¤§": 9166,
      "takingĠ": 9167,
      "å©Ĩ": 9168,
      "åħ¬è·¯": 9169,
      "æİ¥è¿ĳ": 9170,
      ".;Ġ": 9171,
      "ently,Ġ": 9172,
      "æ¨¹": 9173,
      "åĩºçİ°äºĨ": 9174,
      "assign": 9175,
      "å¤ļå¹´": 9176,
      "ï¼ĮæĪĲä¸º": 9177,
      "Mis": 9178,
      "centralĠ": 9179,
      ",åĮħæĭ¬": 9180,
      "acidĠ": 9181,
      "è·³": 9182,
      "modul": 9183,
      "çµ±": 9184,
      "ä¼¦çĲĨ": 9185,
      "ç¥¥": 9186,
      "fru": 9187,
      "ç¡ħ": 9188,
      "åıĺæĪĲ": 9189,
      "ç»Ħç»ĩçļĦ": 9190,
      "è£ħå¤ĩ": 9191,
      "è§Ĩè§ī": 9192,
      "ii": 9193,
      "ä¸Ģï¼ī": 9194,
      "äººæ°ĳç¾¤ä¼Ĺ": 9195,
      "aj": 9196,
      "db": 9197,
      "sampl": 9198,
      "System.": 9199,
      "å·©": 9200,
      "è¡Įï¼Į": 9201,
      "æķĪåĬĽ": 9202,
      "å§»": 9203,
      "Austr": 9204,
      "tookĠ": 9205,
      "å±ŀæĢ§": 9206,
      "Sept": 9207,
      "å¯¹æ¯Ķ": 9208,
      "åıĺå¾Ĺ": 9209,
      "dotĠ": 9210,
      "4)Ġ": 9211,
      "æİī": 9212,
      "</span": 9213,
      "liveĠ": 9214,
      "æľīäºº": 9215,
      "ç»ĦæĪĲéĥ¨åĪĨ": 9216,
      "ç¬ĶèĢħ": 9217,
      "53": 9218,
      "ä¸ŃãĢĤ": 9219,
      "æ³ķå®ĺ": 9220,
      "åı¯èĥ½æĺ¯": 9221,
      "taĠ": 9222,
      "inch": 9223,
      "befor": 9224,
      "å°ıæĹ¶": 9225,
      "ãĢģä¸į": 9226,
      "ç§įç±»": 9227,
      "ä¸īè§Ĵ": 9228,
      "é¦Ī": 9229,
      "'reĠ": 9230,
      "ofĠtheseĠ": 9231,
      "acceler": 9232,
      "brow": 9233,
      "hen": 9234,
      "industr": 9235,
      "è²´": 9236,
      "correct": 9237,
      "alys": 9238,
      "modernĠ": 9239,
      "èĵĭ": 9240,
      "å»ºæŀĦ": 9241,
      "éĹ®é¢ĺ,": 9242,
      "Ġ4.": 9243,
      "ä¹Łåı¯ä»¥": 9244,
      "='": 9245,
      "sĠatĠ": 9246,
      "generallyĠ": 9247,
      "å¸ĿåĽ½": 9248,
      "providesĠ": 9249,
      "domin": 9250,
      "æĬ½è±¡": 9251,
      "ä¸ªæĢ§": 9252,
      ",ĠthenĠ": 9253,
      "$ĠisĠ": 9254,
      "weĠareĠ": 9255,
      "ï¼Įåīĩ": 9256,
      "great": 9257,
      "Octob": 9258,
      "1ĠandĠ": 9259,
      "åĬ³åĬ¨åĲĪåĲĮ": 9260,
      "åŀĦæĸŃ": 9261,
      "æ²³åįĹ": 9262,
      "scor": 9263,
      "5%": 9264,
      "çļĦåŃ¦ä¹ł": 9265,
      "è¾¾æĪĲ": 9266,
      "knownĠasĠ": 9267,
      "åı¬å¼Ģ": 9268,
      "èįĴ": 9269,
      "prime": 9270,
      "identifi": 9271,
      "concern": 9272,
      "viol": 9273,
      "().": 9274,
      "correspondingĠ": 9275,
      "ersĊCategory:": 9276,
      "èĪŁ": 9277,
      "vert": 9278,
      "æī¿åĮħ": 9279,
      "å°ĸ": 9280,
      "termin": 9281,
      "cameĠ": 9282,
      "searchĠ": 9283,
      "elementĠ": 9284,
      "{{": 9285,
      "éģ©": 9286,
      "äºĭæĥħ": 9287,
      "soĠthatĠ": 9288,
      "ĥåľ": 9289,
      "åĢ¾åĲĳ": 9290,
      ".Ġ\"": 9291,
      "ingĠonĠ": 9292,
      "ãĢĭãĢĬ": 9293,
      "poll": 9294,
      "é¤Ĳ": 9295,
      "liqu": 9296,
      "publicĠvoidĠ": 9297,
      "å¤įåĪ¶": 9298,
      "dir": 9299,
      "color:Ġ": 9300,
      "ticallyĠ": 9301,
      "bodi": 9302,
      "exact": 9303,
      "åĬĽåĴĮ": 9304,
      "è§Ĥæµĭ": 9305,
      "ation.": 9306,
      "death": 9307,
      "firm": 9308,
      "42": 9309,
      "PM": 9310,
      "éŃ¯": 9311,
      "çĲĨæĢ§": 9312,
      "finiteĠ": 9313,
      "ingĠfromĠ": 9314,
      "EL": 9315,
      "edĠasĠaĠ": 9316,
      "éľį": 9317,
      "\"ĊĊ": 9318,
      "yĠofĠtheĠ": 9319,
      "å®¶æĹı": 9320,
      "çļĦå½¢å¼ı": 9321,
      "åıł": 9322,
      "åħļåĳĺ": 9323,
      "yĠisĠ": 9324,
      "æĺĶ": 9325,
      "whichĠareĠ": 9326,
      "hund": 9327,
      "byĠaĠ": 9328,
      "èµł": 9329,
      "operator": 9330,
      "é©»": 9331,
      "doubleĠ": 9332,
      "roomĠ": 9333,
      "çĶ¨æĿ¥": 9334,
      ".ĠThereĠ": 9335,
      "åįķä¸Ģ": 9336,
      "bon": 9337,
      "uniqueĠ": 9338,
      "2010å¹´": 9339,
      "knowledgeĠ": 9340,
      "window": 9341,
      "çļĦæĸĩåĮĸ": 9342,
      "æµħ": 9343,
      "yetĠ": 9344,
      "åĵģç§į": 9345,
      "distributionĠ": 9346,
      "_{0": 9347,
      "AfterĠ": 9348,
      "GP": 9349,
      "çļĦæĢĿæĥ³": 9350,
      "æī§æ³ķ": 9351,
      "dt": 9352,
      "åŀĥåľ": 9353,
      "åŀĥåľ¾": 9354,
      "$this->": 9355,
      "èµ´": 9356,
      "client": 9357,
      "ategi": 9358,
      "datas": 9359,
      "ç´§å¯Ĩ": 9360,
      "åħ¬åĽŃ": 9361,
      "æıĲåıĸ": 9362,
      "æµģéĢļ": 9363,
      ".ĠByĠ": 9364,
      "èĻĽ": 9365,
      "è§£åĨ³æĸ¹æ¡Ī": 9366,
      "ĊĊâĢ¢Ġ": 9367,
      "ä¿ĿçķĻ": 9368,
      "phy": 9369,
      "ï¼Įä¸įæĸŃ": 9370,
      "å²Ĺä½į": 9371,
      "æľīåĬ©äºİ": 9372,
      "Item": 9373,
      "spir": 9374,
      "æ»ŀ": 9375,
      "Ang": 9376,
      "[0": 9377,
      "surve": 9378,
      "appropriateĠ": 9379,
      "s.ĠH": 9380,
      "å¤ļå°ĳ": 9381,
      "ãĢĤä¸ŃåĽ½": 9382,
      "åħ¬çĽĬ": 9383,
      "çº³ç¨İ": 9384,
      "æĹ¥Ġ": 9385,
      ")Ċĉĉ": 9386,
      "ÂłÂłÂłÂł``": 9387,
      "':Ġ": 9388,
      "cast": 9389,
      "local": 9390,
      "brainĠ": 9391,
      "ä½İç¢³": 9392,
      "Elec": 9393,
      "æĭĨ": 9394,
      "pher": 9395,
      "äºĮï¼ī": 9396,
      "ï¼Ī1ï¼ī": 9397,
      "ĊãĢĢãĢĢåı³": 9398,
      ";ĠandĠ": 9399,
      "notĠonlyĠ": 9400,
      "å¾Īéļ¾": 9401,
      "åı¦ä¸Ģ": 9402,
      "basedĠonĠtheĠ": 9403,
      "nov": 9404,
      "åħļä¸Ńå¤®": 9405,
      "ancesĠ": 9406,
      "Micro": 9407,
      "sn": 9408,
      "edĠonĠtheĠ": 9409,
      "ĊãĢĬ": 9410,
      ";ĊimportĠorg.": 9411,
      "è¡Ĩ": 9412,
      "manufact": 9413,
      "seriesĠ": 9414,
      "ç¼ĸçłģ": 9415,
      "pict": 9416,
      "åľ°çļĦ": 9417,
      "æĥ©": 9418,
      "eĠisĠ": 9419,
      "omen": 9420,
      "æĽ²çº¿": 9421,
      "osi": 9422,
      "è¿Ľåı£": 9423,
      "clou": 9424,
      ",ĠP": 9425,
      "åľºæīĢ": 9426,
      "ä¸ŃéĹ´": 9427,
      "ä¸ºä¸Ńå¿ĥ": 9428,
      "invest": 9429,
      "wiseĠ": 9430,
      "å¹¿ä¸ľ": 9431,
      "çµ¦": 9432,
      "LD": 9433,
      "livingĠ": 9434,
      "Applic": 9435,
      "page": 9436,
      ".ĊâĢ¢Ġ": 9437,
      "#includeĠ<": 9438,
      "èİĬ": 9439,
      "varietyĠofĠ": 9440,
      "èĴĻåı¤": 9441,
      "çº½": 9442,
      "å½ĵçĦ¶": 9443,
      "èĪ°": 9444,
      "çĢ": 9445,
      "cut": 9446,
      "psych": 9447,
      "impactĠ": 9448,
      "èĩªè§ī": 9449,
      "^{2": 9450,
      "recommend": 9451,
      "hard": 9452,
      "è¡ĮæĺŁ": 9453,
      "ingu": 9454,
      "base": 9455,
      "ç·£": 9456,
      "Mus": 9457,
      "æĶ¾åľ¨": 9458,
      "Arg": 9459,
      "ç¹¼": 9460,
      "å®ļæľŁ": 9461,
      "won": 9462,
      "a_": 9463,
      "intr": 9464,
      "immuneĠ": 9465,
      "çļĦåĽ½å®¶": 9466,
      "edĠintoĠ": 9467,
      "åķĨåĬ¡": 9468,
      "rest": 9469,
      "memberĠ": 9470,
      "whiteĠ": 9471,
      "Jour": 9472,
      "åĽĬ": 9473,
      "IIĠ": 9474,
      "åºĶçĶ¨äºİ": 9475,
      "studentĠ": 9476,
      "åĺĹ": 9477,
      "ms": 9478,
      "è§Ĩè§Ĵ": 9479,
      "è¿Ļæĺ¯": 9480,
      "politicalĠ": 9481,
      "Time": 9482,
      "æĹ±": 9483,
      "å¥Ķ": 9484,
      "configur": 9485,
      "æ¶ĪèĢĹ": 9486,
      "builtĠ": 9487,
      "æ£®æŀĹ": 9488,
      "è¡Ķ": 9489,
      ")ï¼Į": 9490,
      "æĥĳ": 9491,
      "åħĴ": 9492,
      "å¾½": 9493,
      "Window": 9494,
      "ulĠ": 9495,
      "((": 9496,
      "èŁ": 9497,
      "120": 9498,
      "æ¦Ĥè¿°": 9499,
      "æĬķèµĦèĢħ": 9500,
      "åľ°ä¸ĭ": 9501,
      "åĽ¾ä¹¦": 9502,
      "äº«æľī": 9503,
      "æıĲäº¤": 9504,
      ".ĠCon": 9505,
      "otyp": 9506,
      "èī°": 9507,
      "è½¨éģĵ": 9508,
      "promis": 9509,
      "communityĠ": 9510,
      "é¸Ł": 9511,
      "å¤ļæ¬¡": 9512,
      ")ãĢĤ": 9513,
      "ientĠ": 9514,
      "åľ¨æŃ¤": 9515,
      ");Ċĉĉ": 9516,
      "\\\\Ġ": 9517,
      "ung": 9518,
      "ï¼Įè¿Ļæł·": 9519,
      "ðĿĳ": 9520,
      "å·¥äºº": 9521,
      "æĮĩæĮ¥": 9522,
      "çĥ¯": 9523,
      "ç¢±": 9524,
      "ationĠforĠ": 9525,
      "Node": 9526,
      "thingsĠ": 9527,
      "ä¸Ģä»£": 9528,
      "scientificĠ": 9529,
      "bt": 9530,
      "âĳ¢": 9531,
      "dre": 9532,
      "PE": 9533,
      "ï¼Įå¯¼èĩ´": 9534,
      "containsĠ": 9535,
      "temperature": 9536,
      "Exception": 9537,
      "èŀįåħ¥": 9538,
      "preventĠ": 9539,
      "href=\"": 9540,
      "åĪĻæĺ¯": 9541,
      "å®ŀçİ°äºĨ": 9542,
      "relativeĠ": 9543,
      "äººæīįåŁ¹åħ»": 9544,
      "tureĠ": 9545,
      "edĠfromĠtheĠ": 9546,
      "èĲ¥éĶĢ": 9547,
      "æ¯ıå¹´": 9548,
      "æĮĩåįĹ": 9549,
      "templ": 9550,
      "ãĢģæ°´": 9551,
      "namesp": 9552,
      "åıĳçĶŁçļĦ": 9553,
      "sequenc": 9554,
      "å°ĩè»į": 9555,
      "çĥı": 9556,
      "ĠandĠtheĠ": 9557,
      "èĤ¡ä»½": 9558,
      "ç»ĥä¹ł": 9559,
      "åģľæŃ¢": 9560,
      "ãĢĤĊä»İ": 9561,
      "ãĢĤĊ3.": 9562,
      "å¤§è§Ħæ¨¡": 9563,
      "æĦŁçŁ¥": 9564,
      "æĸ¹éĿ¢ï¼Į": 9565,
      "y.Ċ": 9566,
      "å®¾": 9567,
      "éĺĶ": 9568,
      "sterĠ": 9569,
      "å¾ĭå¸Ī": 9570,
      "existingĠ": 9571,
      "edi": 9572,
      "hardĠ": 9573,
      "æĦŁè§ī": 9574,
      "exceptĠ": 9575,
      "åĪĳæ³ķ": 9576,
      "dueĠtoĠtheĠ": 9577,
      "UseĠ": 9578,
      "ode": 9579,
      "tox": 9580,
      "````": 9581,
      "c.": 9582,
      "è®°èĢħ": 9583,
      "å¹¿åĳĬ": 9584,
      "merĠ": 9585,
      "TypeĠ": 9586,
      "ectiv": 9587,
      "æĬĹæĹ¥": 9588,
      "è½½ä½ĵ": 9589,
      "referenceĠ": 9590,
      "particularlyĠ": 9591,
      "kind": 9592,
      ":**Ġ": 9593,
      "independentĠ": 9594,
      "clud": 9595,
      "å±±ä¸ľ": 9596,
      "conserv": 9597,
      "æĸ¹éĴĪ": 9598,
      "A,Ġ": 9599,
      "th-": 9600,
      "æ³Į": 9601,
      "ç»ĵæŀĦçļĦ": 9602,
      "cannotĠ": 9603,
      "æī¶è´«": 9604,
      "climateĠ": 9605,
      "åĸĢ": 9606,
      "äº¤äºĴ": 9607,
      "å©¦": 9608,
      "ä¸»å¸Ń": 9609,
      "\"><": 9610,
      "æīĢæľīçļĦ": 9611,
      "æĽ´å¥½åľ°": 9612,
      "å·¥åİĤ": 9613,
      "\\ĊĠĠĠĠ": 9614,
      "TheseĠ": 9615,
      "åĪĨäº«": 9616,
      "quick": 9617,
      ");ĊĊĠĠĠĠ": 9618,
      "EuropeanĠ": 9619,
      "foo": 9620,
      "ning": 9621,
      "audi": 9622,
      "n-": 9623,
      "thous": 9624,
      "åĩĨåĪĻ": 9625,
      "War": 9626,
      "o.": 9627,
      "orĠaĠ": 9628,
      "historyĠ": 9629,
      "hic": 9630,
      "Ċ#Ġ": 9631,
      "ç»ĨèıĮ": 9632,
      "150": 9633,
      "æĮĸæİĺ": 9634,
      "@paramĠ": 9635,
      "endĊĊ": 9636,
      "Comput": 9637,
      "æ¸ĹéĢı": 9638,
      "gameĠ": 9639,
      "äºİæĺ¯": 9640,
      "anti-": 9641,
      "éĿ¶": 9642,
      "äº§ä¸ļéĵ¾": 9643,
      "citi": 9644,
      "åĲİæŀľ": 9645,
      "æĥħç»ª": 9646,
      "è¡Ģæ¶²": 9647,
      "OurĠ": 9648,
[...]
